<unk>	0
<s>	0
</s>	0
、	-2.90267
。	-3.19589
▁	-3.44276
の	-3.45279
)	-3.92873
(	-3.98259
は	-4.1702
が	-4.30975
に	-4.52788
を	-4.53186
年	-4.78931
」	-4.84326
「	-4.94518
・	-4.98391
で	-5.01738
と	-5.06193
や	-5.2009
である	-5.64338
から	-5.73204
も	-5.75638
日	-5.92232
として	-5.92691
月	-5.92958
など	-5.95942
し	-5.99726
した	-6.13259
には	-6.15608
する	-6.20307
』	-6.20569
では	-6.21506
2	-6.22238
という	-6.25641
た	-6.27583
1	-6.28629
▁また	-6.31374
3	-6.38441
る	-6.4556
『	-6.51596
て	-6.58247
4	-6.66793
その	-6.67522
して	-6.71792
り	-6.78974
5	-6.82019
大	-6.8319
がある	-6.87784
な	-6.89554
などの	-6.91472
ている	-6.93239
日本	-6.94929
6	-6.96836
山	-6.97459
によって	-6.97552
とは	-6.98157
7	-6.98625
-	-6.98894
か	-7.02771
本	-7.03306
された	-7.04523
寺	-7.05081
もの	-7.08861
であった	-7.08865
:	-7.1069
であり	-7.11971
8	-7.13032
一	-7.13362
人	-7.14592
ため	-7.17948
、「	-7.18073
い	-7.18513
市	-7.19586
▁しかし	-7.20457
中	-7.21109
この	-7.22383
している	-7.23466
より	-7.23563
法	-7.24764
により	-7.27201
▁「	-7.27875
上	-7.28108
水	-7.29395
10	-7.29829
9	-7.30589
物	-7.31138
による	-7.31732
される	-7.31866
家	-7.32897
▁この	-7.34287
き	-7.36482
▁-	-7.36996
名	-7.37479
にも	-7.3982
く	-7.40645
され	-7.40771
三	-7.41171
生	-7.41933
とされる	-7.42191
町	-7.46659
った	-7.47569
す	-7.50459
と呼ばれる	-7.51674
手	-7.51724
こと	-7.51924
12	-7.54076
み	-7.54269
ら	-7.55243
となる	-7.5636
において	-7.56846
子	-7.57373
昭和	-7.574
お	-7.57702
まで	-7.58441
行	-7.58734
流	-7.5884
へ	-7.59062
また	-7.61623
神	-7.62059
等	-7.62192
院	-7.6234
となった	-7.62425
されている	-7.63266
後	-7.63777
分	-7.64012
道	-7.64062
会	-7.64161
石	-7.64315
でも	-7.64736
城	-7.65542
下	-7.65545
地	-7.65765
とする	-7.66144
的	-7.66174
者	-7.68052
」「	-7.68104
▁なお	-7.68963
つ	-7.69468
京都	-7.71364
小	-7.71382
的な	-7.73019
事	-7.73305
15	-7.73552
があり	-7.75072
/	-7.75297
長	-7.75616
国	-7.77104
酒	-7.77158
」(	-7.77803
こ	-7.78004
って	-7.78049
文	-7.78355
木	-7.78675
11	-7.7874
とも	-7.79259
ない	-7.79271
にある	-7.79574
または	-7.79797
性	-7.80132
前	-7.80326
▁『	-7.80545
仏	-7.80619
さ	-7.80881
m	-7.80936
う	-7.81668
像	-7.82866
円	-7.84482
代	-7.84614
ていた	-7.84631
新	-7.85948
第	-7.86333
出	-7.8652
ある	-7.87049
茶	-7.87103
旧暦	-7.87326
内	-7.88831
における	-7.88916
二	-7.88917
天	-7.89071
巻	-7.89392
目	-7.90101
所	-7.90108
元	-7.90174
部	-7.91047
形	-7.91484
20	-7.91768
明治	-7.91858
高	-7.91886
経	-7.92151
仏教	-7.92185
もある	-7.92474
への	-7.94257
田	-7.94447
じ	-7.94834
約	-7.96459
日本の	-7.96573
料理	-7.96727
宗	-7.96813
書	-7.96816
御	-7.96886
花	-7.96927
年に	-7.97246
▁その	-7.97811
見	-7.98047
方	-7.98181
川	-7.9826
▁これは	-7.9899
数	-7.99308
門	-7.99678
東	-7.99753
心	-8.00277
屋	-8.01077
正	-8.01896
白	-8.02438
金	-8.03747
紙	-8.04224
)-	-8.04435
16	-8.04567
時	-8.05388
)」	-8.05564
五	-8.05604
ス	-8.05644
中国	-8.05968
え	-8.06271
西	-8.06413
面	-8.0717
め	-8.07206
無	-8.07334
号	-8.07536
文化	-8.08095
ものである	-8.08624
通	-8.09165
化	-8.09209
色	-8.09558
いた	-8.09834
特に	-8.09848
ず	-8.09992
神社	-8.10001
間	-8.10053
世	-8.10355
明	-8.10561
13	-8.11643
元年	-8.12927
となっている	-8.13543
風	-8.13591
のように	-8.13655
だ	-8.13938
現在の	-8.14268
あるいは	-8.14371
外	-8.14517
などで	-8.15356
立	-8.15601
曲	-8.15677
、『	-8.16069
ており	-8.16835
▁ただし	-8.16903
式	-8.16914
となり	-8.17665
ことから	-8.17816
品	-8.17958
四	-8.18
同	-8.18077
堂	-8.18827
口	-8.18882
ではなく	-8.18968
ま	-8.191
南	-8.19116
と呼ぶ	-8.19207
平	-8.19362
重	-8.20298
とともに	-8.20393
18	-8.20462
座	-8.20588
場	-8.20916
回	-8.20962
光	-8.20994
力	-8.21043
宮	-8.2107
北	-8.21346
していた	-8.21661
については	-8.217
派	-8.21816
▁その後	-8.22456
学	-8.22678
点	-8.23068
体	-8.23347
14	-8.23555
祭	-8.23985
用	-8.24078
信	-8.24147
ように	-8.24447
後に	-8.25067
~	-8.25111
店	-8.25243
ー	-8.25256
野	-8.25771
ために	-8.25981
僧	-8.2607
能	-8.26084
真	-8.26322
教	-8.26871
になる	-8.27024
身	-8.27151
19	-8.27843
原	-8.27965
女	-8.28286
種	-8.28594
義	-8.28994
不	-8.29086
現	-8.29642
村	-8.29957
的に	-8.30401
八	-8.3043
といった	-8.30629
説	-8.30631
主	-8.31207
記	-8.31513
米	-8.32002
cm	-8.32044
蔵	-8.32244
歌	-8.3227
楽	-8.3239
としては	-8.32531
師	-8.32725
17	-8.33454
なり	-8.33798
型	-8.33802
図	-8.33879
入	-8.33901
海	-8.34181
む	-8.34225
寺院	-8.35533
頭	-8.3556
を持つ	-8.35744
和	-8.35878
例	-8.35934
安	-8.35989
絵	-8.36076
30	-8.36249
島	-8.36302
のみ	-8.36782
伝	-8.36789
においては	-8.37124
ほど	-8.37234
時代	-8.37236
王	-8.37261
度	-8.38097
旧	-8.38143
古	-8.38178
音	-8.3857
だった	-8.38614
作	-8.39256
そ	-8.39651
ぎ	-8.39731
多くの	-8.40283
ご	-8.40545
などを	-8.40648
醤油	-8.40819
集	-8.41296
メートル	-8.4172
ようになった	-8.42036
場合	-8.42228
さらに	-8.42702
▁そのため	-8.42859
系	-8.4326
味	-8.43872
とした	-8.43912
のような	-8.44648
火	-8.44837
それ	-8.45131
があった	-8.45695
ことが	-8.46375
餅	-8.47126
などが	-8.47146
板	-8.47643
じょう	-8.48081
位	-8.48081
ク	-8.48105
定	-8.48179
六	-8.48285
ば	-8.48467
とされている	-8.4857
れ	-8.48665
のこと	-8.48672
七	-8.48739
清	-8.48766
他の	-8.48779
よう	-8.48797
について	-8.49071
各	-8.49328
建築	-8.49974
類	-8.50289
ながら	-8.50298
論	-8.50425
焼き	-8.50426
氏	-8.50446
そば	-8.50616
食	-8.50805
を行う	-8.50875
台	-8.50923
を指す	-8.51118
馬	-8.51125
られた	-8.51207
わ	-8.51302
そう	-8.5136
うどん	-8.51434
しょう	-8.5152
流派	-8.5159
取り	-8.51609
こう	-8.51859
気	-8.52136
有	-8.52215
帯	-8.5226
竹	-8.5229
成	-8.52327
だが	-8.52439
弓	-8.5261
船	-8.52824
られる	-8.5284
代目	-8.5286
いる	-8.52929
』(	-8.5294
,	-8.52995
足	-8.5302
になった	-8.5313
合	-8.53156
為	-8.53202
別	-8.54094
先	-8.54299
館	-8.54491
などに	-8.54784
室	-8.54861
丸	-8.55188
節	-8.55362
実	-8.55637
に対して	-8.55867
あり	-8.56197
できる	-8.564
ル	-8.56539
ト	-8.5657
造	-8.56731
郡	-8.56902
万	-8.56957
け	-8.57124
シ	-8.57171
ひ	-8.57395
着	-8.57645
東京	-8.57702
っている	-8.5809
古墳	-8.58274
土	-8.5831
リ	-8.58501
地方	-8.58628
線	-8.58722
」、「	-8.588
表	-8.59094
筆	-8.59151
魚	-8.59223
地域	-8.59327
ア	-8.59745
.	-8.59848
及び	-8.59862
といわれる	-8.60024
幅	-8.60048
げ	-8.60243
役	-8.60478
ち	-8.60671
黒	-8.61057
湯	-8.61306
さん	-8.61384
切り	-8.61493
舞	-8.61677
社	-8.6172
語	-8.61795
かん	-8.61841
十	-8.61869
直	-8.619
こともある	-8.62254
香	-8.62886
21	-8.63056
玉	-8.63078
当時の	-8.63125
コ	-8.63165
これを	-8.63316
主に	-8.63429
観	-8.63475
ふ	-8.63752
平成	-8.63813
菩薩	-8.63821
場合もある	-8.63935
現在	-8.63942
よりも	-8.64485
松	-8.64566
イ	-8.64863
矢	-8.65044
草	-8.65063
カ	-8.65421
唐	-8.65465
業	-8.6554
半	-8.6564
信仰	-8.65856
▁そして	-8.65931
ことが多い	-8.6595
禅	-8.65978
柱	-8.66011
どう	-8.66066
多	-8.66097
塩	-8.66418
徳	-8.66583
を中心に	-8.66856
京	-8.66872
橋	-8.66905
のうち	-8.66911
日に	-8.67484
葉	-8.67507
京都市	-8.67529
これ	-8.67596
ところ	-8.67752
肉	-8.67852
および	-8.68161
ような	-8.68304
朝	-8.68326
▁特に	-8.68591
よく	-8.68703
戦	-8.68717
以降	-8.68852
ラ	-8.69352
塔	-8.69374
すること	-8.69586
を用いる	-8.69687
あ	-8.69786
相	-8.69927
之	-8.7053
技術	-8.70542
衣	-8.70877
京都府	-8.70942
25	-8.71161
が多い	-8.71201
殿	-8.71628
様々な	-8.71714
ぶ	-8.72615
ともいう	-8.7264
▁現在	-8.72671
春	-8.73153
千	-8.73282
画	-8.73355
公	-8.7345
場所	-8.73485
施設	-8.73486
もので	-8.73511
ノ	-8.73531
ではない	-8.73547
っ	-8.73814
すると	-8.73844
祭り	-8.73954
び	-8.74085
国宝	-8.74549
にかけて	-8.74688
具	-8.74697
雲	-8.74756
字	-8.74829
刀	-8.7499
マ	-8.7507
飯	-8.75151
これは	-8.75157
...	-8.75548
段	-8.75635
▁さらに	-8.75778
宗教	-8.75975
タ	-8.76088
活動	-8.76294
期	-8.76356
製	-8.76489
年間	-8.76951
法華経	-8.77058
初	-8.77133
大学	-8.77244
ど	-8.77263
ほう	-8.77461
であるが	-8.77462
等の	-8.77672
100	-8.77858
源	-8.78137
の上に	-8.78362
音楽	-8.78511
ことがある	-8.78753
もしくは	-8.7885
駅	-8.78852
にて	-8.78918
諸	-8.78974
階	-8.79002
したもの	-8.79022
ン	-8.79157
空	-8.79306
ること	-8.79329
赤	-8.79432
28	-8.79547
布	-8.7956
なかった	-8.79615
楽器	-8.79616
修行	-8.79821
22	-8.79821
のある	-8.79999
次	-8.8008
大きな	-8.80339
と共に	-8.80515
紋	-8.8052
全	-8.80565
女性	-8.80677
場合は	-8.80754
日本酒	-8.80868
んだ	-8.80906
歳	-8.80916
井	-8.80999
勝	-8.81107
鬼	-8.8112
ことを	-8.81166
々	-8.81569
経典	-8.82082
尊	-8.8218
としての	-8.82309
人の	-8.82316
表現	-8.82511
食品	-8.82631
それぞれ	-8.82643
とし	-8.82769
作品	-8.82866
しん	-8.82928
宗派	-8.83047
せ	-8.83101
部分	-8.83438
24	-8.83538
などがある	-8.83884
僧侶	-8.83887
になっている	-8.83978
角	-8.8405
資料	-8.84087
覚	-8.84127
蕎麦	-8.8419
池	-8.84431
研究	-8.84454
江戸	-8.84529
善	-8.84791
宝	-8.84798
官	-8.84857
基	-8.84934
自	-8.85
男	-8.85002
の一つ	-8.85048
ナ	-8.85139
政	-8.85217
とされ	-8.85225
ド	-8.85249
願	-8.85303
に対する	-8.85477
跡	-8.85541
常	-8.85839
軍	-8.8598
時間	-8.86235
夜	-8.86404
付け	-8.86441
総	-8.86467
よ	-8.86548
末	-8.866
天守	-8.86658
使用	-8.86744
知	-8.86746
以外の	-8.86763
27	-8.86926
庭園	-8.87071
ものは	-8.87111
両	-8.87196
密教	-8.87245
の中で	-8.87335
吉	-8.87357
寿司	-8.87648
おり	-8.87923
話	-8.88122
来	-8.88176
ウ	-8.8819
付	-8.88278
いて	-8.88298
青	-8.88374
右	-8.8838
時に	-8.88459
房	-8.88684
車	-8.88766
以上	-8.88878
られ	-8.89019
しない	-8.89152
聖	-8.89237
発	-8.89649
輪	-8.8967
儀式	-8.89759
用の	-8.89843
C	-8.89852
のため	-8.89923
23	-8.89929
命	-8.89943
50	-8.90185
左	-8.90225
制	-8.9028
されていた	-8.90285
服	-8.90497
フ	-8.90507
キ	-8.90541
根	-8.90614
関係	-8.90892
が多く	-8.90967
温泉	-8.90987
縁	-8.91365
オ	-8.91583
ね	-8.91735
の中に	-8.92006
当時	-8.92046
だけ	-8.92104
都	-8.92158
40	-8.92174
谷	-8.92369
油	-8.92549
ほか	-8.92594
状態	-8.92647
界	-8.92675
他	-8.92688
良	-8.92698
芸	-8.92713
構造	-8.92723
行事	-8.92968
桜	-8.93001
と言う	-8.9301
念仏	-8.93133
切	-8.93222
製造	-8.93267
食べる	-8.9373
と考えられている	-8.93739
器	-8.93782
美	-8.938
ものを	-8.93923
今	-8.94011
いわゆる	-8.94022
のために	-8.94176
ツ	-8.94186
天皇	-8.94422
の場合	-8.94423
問題	-8.95086
訳	-8.95171
何	-8.95499
意	-8.95717
現在では	-8.95735
熱	-8.95796
親	-8.95896
庵	-8.96071
と考えられる	-8.96147
年代	-8.96182
首	-8.96476
方法	-8.96483
世界	-8.97058
豆腐	-8.97281
にあった	-8.97705
歌舞伎	-8.97743
戸	-8.97816
造り	-8.97829
鉄	-8.9796
墨	-8.98065
印	-8.98076
指定	-8.98088
人物	-8.98203
守	-8.98438
客	-8.98615
生活	-8.98881
開	-8.98967
太	-8.99247
60	-8.99318
平安時代	-8.99367
霊	-8.99683
記録	-8.99746
形式	-8.99754
レ	-8.9976
▁京都	-8.99928
に関する	-9.00102
としている	-9.00161
悪	-9.003
させ	-9.00384
菓子	-9.00468
と思われる	-9.0055
龍	-9.00577
妙	-9.00771
庭	-9.00873
ものもある	-9.00907
▁このため	-9.0107
当	-9.01234
大阪	-9.0134
射	-9.01366
床	-9.01405
側	-9.01741
機	-9.01971
区	-9.02082
塚	-9.02116
80	-9.02143
なる	-9.02284
調	-9.02289
関	-9.02472
笛	-9.02689
メ	-9.02774
念	-9.02776
本尊	-9.02832
質	-9.02906
卵	-9.02968
ム	-9.0316
量	-9.03413
▁日本では	-9.03431
柄	-9.0345
の間	-9.03612
要	-9.03623
後の	-9.03979
”	-9.04028
秋	-9.04142
その後	-9.04183
ざ	-9.04269
ことで	-9.04303
治	-9.04423
華	-9.04545
鳥	-9.04674
言葉	-9.04683
▁昭和	-9.04851
骨	-9.04872
形態	-9.04886
連	-9.05135
26	-9.05249
棟	-9.05327
されて	-9.05372
しており	-9.05413
技	-9.05495
たもの	-9.05534
ぐ	-9.05549
産	-9.05594
広く	-9.05747
皮	-9.05806
チ	-9.05818
林	-9.06056
達	-9.06085
番	-9.06163
指	-9.06376
a	-9.06415
とう	-9.06503
太鼓	-9.06529
保存	-9.06635
席	-9.06725
になると	-9.06842
べ	-9.0693
感	-9.06989
味噌	-9.07014
横	-9.07025
思想	-9.07063
られている	-9.07348
麺	-9.07402
しゅ	-9.07618
販売	-9.07679
道具	-9.07726
月に	-9.078
藤原	-9.08044
つの	-9.08152
死	-9.08202
鎌倉時代	-9.08234
同じ	-9.08285
扇	-9.08387
章	-9.08398
A	-9.08426
ことは	-9.08483
福	-9.08487
へと	-9.08565
中に	-9.08624
持ち	-9.08634
宿	-9.08773
てきた	-9.08935
暦	-9.09064
広	-9.09068
結	-9.09097
なく	-9.09212
人が	-9.09336
をする	-9.09548
でもある	-9.09599
理	-9.09643
礼	-9.09756
させた	-9.09757
引き	-9.0981
にあたる	-9.09838
重要文化財	-9.09846
箏	-9.09895
奈良	-9.09927
版	-9.1005
条	-9.10229
茶道	-9.10348
日本では	-9.10484
智	-9.10702
袴	-9.10756
様式	-9.1079
とも呼ばれる	-9.10886
焼	-9.10996
周辺	-9.1124
の一種	-9.1124
忠	-9.11456
サ	-9.11461
職	-9.11579
29	-9.11749
如	-9.11843
団体	-9.11899
群	-9.11936
ニ	-9.1199
独特の	-9.1205
=	-9.12053
裏	-9.12148
打ち	-9.12202
ハ	-9.1258
組	-9.12609
制度	-9.12628
現在は	-9.12644
一般	-9.12647
ッ	-9.13118
に近い	-9.13377
世紀	-9.13393
▁だが	-9.13393
利	-9.13426
といい	-9.13445
尾	-9.13456
京都の	-9.13468
形状	-9.13507
になり	-9.13533
▁大	-9.13569
させる	-9.1365
糸	-9.13682
製法	-9.13728
意味	-9.1376
開発	-9.13826
を用いた	-9.1411
ロ	-9.14165
もあり	-9.14182
得	-9.14394
星	-9.14538
ジ	-9.14812
生産	-9.14873
久	-9.14899
夏	-9.15356
慶	-9.15374
調査	-9.15427
ものが	-9.155
前に	-9.15538
すでに	-9.1561
汁	-9.15632
剣	-9.15637
黄	-9.15696
弁当	-9.1593
津	-9.15959
百	-9.16016
▁一方	-9.16169
天台宗	-9.16447
u	-9.16475
袋	-9.16545
バ	-9.16627
保	-9.16734
以後	-9.16895
穴	-9.16915
ミ	-9.16917
i	-9.16969
社会	-9.16972
浄土	-9.17023
様	-9.17118
壁	-9.17139
たり	-9.17205
着物	-9.17232
建物	-9.17413
供養	-9.17512
▁日本の	-9.17599
袖	-9.17607
と同じ	-9.17672
→	-9.17678
多く	-9.17723
時期	-9.17766
』『	-9.17885
藤	-9.17946
だい	-9.18187
自然	-9.18307
独自の	-9.18352
園	-9.18482
取	-9.18487
史	-9.18493
によると	-9.18498
屋根	-9.1863
種類	-9.18635
を参照	-9.1866
九	-9.18692
武	-9.189
エ	-9.19017
初代	-9.19357
▁その他	-9.19387
岩	-9.19842
出し	-9.19905
永	-9.19936
名称	-9.19968
周	-9.19975
人形	-9.20094
通り	-9.20228
姿	-9.20369
店舗	-9.20417
にして	-9.20418
新しい	-9.20469
遺跡	-9.20555
それを	-9.20615
書き	-9.20931
なら	-9.20981
技法	-9.20989
公園	-9.21021
れる	-9.21032
祖	-9.21046
▁これらの	-9.21091
景	-9.21117
分類	-9.21273
腰	-9.21343
大正	-9.21358
遠	-9.21389
寸	-9.21392
神道	-9.21642
豊	-9.21646
薬	-9.21708
軒	-9.21931
を行った	-9.21991
端	-9.22036
せん	-9.22238
層	-9.22266
割	-9.22303
煮	-9.22334
仏像	-9.22344
一般に	-9.22411
組織	-9.22675
家の	-9.22725
三味線	-9.22867
転	-9.2288
建設	-9.22929
証	-9.2295
講	-9.22956
牛	-9.22976
退	-9.22981
鏡	-9.23007
と言われる	-9.23082
解	-9.23483
愛	-9.23525
如来	-9.23616
飾り	-9.23633
持	-9.2371
香り	-9.2376
藩	-9.238
高さ	-9.23824
本山	-9.23889
最	-9.2392
解釈	-9.23943
最も	-9.24033
きょう	-9.2415
級	-9.24166
古くから	-9.24216
ゆ	-9.24256
落	-9.24305
一部	-9.24396
ビ	-9.2452
毎年	-9.24533
▁現在では	-9.24601
までは	-9.24671
を使う	-9.2483
梅	-9.25088
ケ	-9.25607
▁これ	-9.25619
利用	-9.25627
31	-9.25644
菊	-9.25646
であったが	-9.25739
これらの	-9.25789
教え	-9.25863
引	-9.25941
衆	-9.25967
年には	-9.26059
権	-9.26063
作り	-9.26104
観音	-9.26121
居	-9.26274
粉	-9.26284
応	-9.2632
密	-9.26341
中の	-9.26357
者が	-9.26419
場合が多い	-9.26696
える	-9.26804
を受け	-9.26828
程度	-9.26869
全国	-9.2688
出す	-9.26958
なども	-9.27123
棒	-9.27211
志	-9.27301
れば	-9.27305
坊	-9.27321
浄土真宗	-9.27347
真言宗	-9.27427
▁これを	-9.27452
高い	-9.27493
を経て	-9.27519
の大	-9.27537
と言われている	-9.27561
術	-9.27742
精	-9.27815
とされた	-9.27907
増	-9.27944
助	-9.28022
言	-9.2805
尺	-9.28151
を持ち	-9.28177
修	-9.28193
の際に	-9.28222
以下	-9.2825
櫓	-9.28453
行われる	-9.2857
▁第	-9.28617
のもの	-9.28621
雑	-9.28622
長さ	-9.28711
g	-9.28849
斎	-9.28916
漫画	-9.28918
雪	-9.28944
出汁	-9.29093
単に	-9.2921
たい	-9.29227
管	-9.29323
ん	-9.29327
麹	-9.29418
のための	-9.29683
ぬ	-9.2989
ると	-9.29902
そのまま	-9.3002
武道	-9.301
o	-9.30111
岡	-9.30478
苦	-9.30567
極	-9.30605
によれば	-9.30719
弓矢	-9.30863
がない	-9.30971
父	-9.31108
S	-9.31165
対	-9.31217
物語	-9.3127
作業	-9.31341
を用いて	-9.31344
上の	-9.31426
弟子	-9.31476
豆	-9.31584
日蓮宗	-9.31666
んで	-9.31679
目的	-9.31823
カレー	-9.31834
武士	-9.32209
長い	-9.32227
進	-9.32296
宗家	-9.32337
模様	-9.32439
ことができる	-9.32496
打	-9.32537
と呼ばれ	-9.32584
ほとんど	-9.32601
かい	-9.32664
状の	-9.32864
のひとつ	-9.32989
和服	-9.32994
現代	-9.33032
とある	-9.33121
葬儀	-9.33146
病	-9.33181
河	-9.33254
若	-9.3326
を表す	-9.3336
民	-9.33369
以上の	-9.33415
秀	-9.33419
動	-9.33463
都市	-9.3349
向	-9.33526
t	-9.3354
素	-9.33549
餡	-9.33586
古い	-9.33599
一般的な	-9.3362
鎌倉	-9.33809
の意味	-9.33819
』、『	-9.33853
▁明治	-9.33909
としても	-9.33928
乗	-9.34017
玄	-9.34045
ていない	-9.34079
江戸時代	-9.34121
次第に	-9.34237
状	-9.34279
▁概要	-9.34321
略	-9.34406
声	-9.34422
伝統的な	-9.3443
70	-9.34671
海苔	-9.34728
絵画	-9.34813
おお	-9.34961
在	-9.35038
入り	-9.35054
ことも	-9.35138
ほ	-9.3524
直接	-9.35241
焼酎	-9.35334
前後	-9.35402
のことである	-9.35422
げん	-9.35427
砂糖	-9.35432
配	-9.35436
も多い	-9.35569
装束	-9.35583
(8	-9.3565
母	-9.35707
すなわち	-9.35711
腹	-9.35875
毛	-9.35916
はない	-9.35971
ろ	-9.36025
製品	-9.36032
行う	-9.3604
商品	-9.36113
場合がある	-9.36115
食事	-9.36127
再	-9.36147
たち	-9.36178
かった	-9.36182
折	-9.36318
阿	-9.36326
するため	-9.36384
銘	-9.36481
B	-9.36538
墓	-9.36596
禅宗	-9.36823
e	-9.36843
州	-9.36939
やすい	-9.37032
を含む	-9.37128
ご飯	-9.37148
込み	-9.37155
空間	-9.37267
強	-9.37489
曼荼羅	-9.37523
頃	-9.37543
枝	-9.37698
好	-9.37731
集団	-9.37771
おう	-9.3778
片	-9.37802
においても	-9.3793
歴史	-9.38274
0	-9.38356
私	-9.3837
インド	-9.3841
はその	-9.38505
公家	-9.38651
際に	-9.38675
を受けた	-9.38789
などは	-9.38797
正月	-9.38826
しゅう	-9.38883
非常に	-9.38931
ほぼ	-9.38945
されており	-9.39087
頼	-9.39309
ともに	-9.39375
弓道	-9.39428
のち	-9.39513
内容	-9.39558
状に	-9.39562
門徒	-9.39624
異	-9.39646
御所	-9.39713
一部の	-9.3976
ときに	-9.39794
断	-9.39799
りゅう	-9.39876
の名	-9.39877
らない	-9.39912
鍋	-9.39916
胡弓	-9.39948
調理	-9.39952
枚	-9.40093
絹	-9.40155
昆布	-9.40221
臨済宗	-9.40237
渡	-9.40244
事業	-9.40267
あん	-9.4033
尺八	-9.40448
泉	-9.40481
内に	-9.40543
っていた	-9.40553
すれば	-9.40575
伝承	-9.40604
珠	-9.40653
あまり	-9.40735
堀	-9.40788
鹿	-9.40812
杜氏	-9.40837
褌	-9.40844
奥	-9.40848
まず	-9.40903
せず	-9.40905
36	-9.40938
第一	-9.40993
深	-9.41076
蓮	-9.41112
家紋	-9.4119
▁歴史	-9.41297
士	-9.41334
令	-9.41367
さまざまな	-9.41369
▁現在の	-9.41384
ブ	-9.41387
狂言	-9.41395
本願寺	-9.41673
▁現在は	-9.41779
栽培	-9.41863
佐	-9.41908
s	-9.41968
図書館	-9.42097
競技	-9.42111
再び	-9.42126
試合	-9.42137
比較的	-9.42139
売り	-9.42165
ことも多い	-9.42181
と称する	-9.42237
に対し	-9.42246
▁それ	-9.42321
興	-9.42325
が存在する	-9.42376
更に	-9.42577
の一部	-9.42646
舞台	-9.4268
ズ	-9.42767
といわれている	-9.42797
のほか	-9.428
れた	-9.42855
遊	-9.42972
海外	-9.43041
畳	-9.43088
辺	-9.43103
効果	-9.43118
日本で	-9.43128
武家	-9.4313
醸造	-9.43154
調味料	-9.43219
顕	-9.4329
入れ	-9.43382
教育	-9.43384
一人	-9.43398
ガ	-9.43401
箏曲	-9.43432
▁日本	-9.43462
の場合は	-9.43477
野菜	-9.43481
小さな	-9.43493
かく	-9.43527
以下の	-9.43541
(12	-9.43568
酢	-9.43589
中国の	-9.43641
参照	-9.43679
文字	-9.43686
ダ	-9.43717
生地	-9.43782
関東	-9.43941
しばしば	-9.43976
ことになる	-9.4421
しゃ	-9.44382
作られた	-9.44436
の僧	-9.44455
武術	-9.44519
背	-9.44652
山城	-9.44665
個	-9.44804
演奏	-9.44815
▁したがって	-9.44913
現在でも	-9.44957
ラーメン	-9.45043
るようになった	-9.45045
格	-9.45067
江	-9.45086
やま	-9.45103
司	-9.4515
と呼ばれた	-9.45211
東寺	-9.45227
瓶	-9.45331
法要	-9.45341
妖怪	-9.45373
植物	-9.45399
成分	-9.4542
が行われる	-9.45454
時代の	-9.45528
箱	-9.45563
紐	-9.45578
“	-9.45627
使	-9.45646
えん	-9.45681
あった	-9.4577
ソース	-9.45795
の一	-9.45796
眼	-9.45909
空海	-9.45941
状況	-9.45986
P	-9.4599
を作る	-9.46142
かた	-9.46146
家元	-9.46158
行為	-9.46214
崎	-9.46258
内の	-9.46264
運	-9.46371
ものの	-9.46378
仏教の	-9.46413
自ら	-9.46437
沢	-9.46499
散	-9.46524
用語	-9.46562
までの	-9.46592
富	-9.46594
▁このような	-9.46686
掛け	-9.46797
ごとに	-9.46839
したり	-9.46882
成立	-9.46963
かけ	-9.47106
釈迦	-9.47195
ヤ	-9.47212
陽	-9.47302
難	-9.47333
つき	-9.47337
異なる	-9.47414
▁しかしながら	-9.4752
大名	-9.47547
十二	-9.47585
幕府	-9.47615
紅	-9.47828
温	-9.47835
薄	-9.47951
筋	-9.47993
35	-9.48002
まつり	-9.48017
延	-9.48039
天皇の	-9.48071
を使った	-9.48137
県	-9.48148
せい	-9.4823
管理	-9.48467
の子	-9.48519
供	-9.4854
宋	-9.48543
障子	-9.48615
選	-9.48623
紫	-9.48637
ようになり	-9.48773
ようである	-9.48815
品種	-9.48918
住	-9.48928
発酵	-9.48992
になって	-9.49001
の影響	-9.49036
完成	-9.49055
からは	-9.49098
重要な	-9.49133
しい	-9.49361
弦	-9.49387
往生	-9.49401
空手	-9.49448
加工	-9.49585
文献	-9.49613
関西	-9.49711
剣道	-9.49777
兵	-9.49777
一般的に	-9.49852
90	-9.49862
▁後に	-9.49865
比	-9.49884
ヒ	-9.49887
郷	-9.49985
ものが多い	-9.50014
規定	-9.50033
テ	-9.5009
が見られる	-9.50432
人気	-9.50569
稽古	-9.5065
胴	-9.50658
地蔵	-9.50659
賀	-9.50672
波	-9.50699
▁これが	-9.50734
_(	-9.50771
巻き	-9.50805
機能	-9.50972
しき	-9.51081
地歌	-9.51167
伝説	-9.51239
教義	-9.5124
東大寺	-9.51247
羽	-9.51288
住職	-9.51389
地区	-9.51411
博物館	-9.51418
北海道	-9.51667
形の	-9.51674
ちょう	-9.51694
グ	-9.51713
作法	-9.51735
必要	-9.51738
上に	-9.51842
出した	-9.51949
変	-9.52028
計	-9.52037
素材	-9.52065
運動	-9.52117
仁	-9.52155
ための	-9.5217
里	-9.52648
城郭	-9.52661
弁	-9.52697
雄	-9.52705
貞	-9.52756
甲	-9.52769
本来の	-9.52904
さい	-9.52932
日蓮	-9.53015
芸能	-9.53142
茶碗	-9.53261
良い	-9.53267
親鸞	-9.53272
破	-9.533
刃	-9.53345
使用する	-9.53413
東京都	-9.53434
ネ	-9.5352
を行い	-9.53539
評価	-9.53605
戒	-9.53618
系の	-9.53655
も多く	-9.5376
ころ	-9.53933
慶長	-9.53957
反	-9.53972
に用いる	-9.54031
余	-9.5406
める	-9.54086
賞	-9.54168
脇	-9.54205
開催	-9.54217
―	-9.54237
神楽	-9.54241
写真	-9.54255
モ	-9.54387
ていった	-9.54607
と呼び	-9.54651
歳で	-9.54705
時の	-9.54739
もん	-9.54748
倉	-9.54795
金剛	-9.54902
鶴	-9.54906
会社	-9.54952
はこの	-9.54974
だけでなく	-9.55002
小袖	-9.55059
となって	-9.55065
落語	-9.55198
九州	-9.55217
▁このように	-9.55238
高野山	-9.55277
戦国時代	-9.55373
酒造	-9.55389
加	-9.55417
編	-9.55465
放	-9.55519
):	-9.55527
などでは	-9.55544
教団	-9.55655
局	-9.55657
すべて	-9.55661
芸術	-9.55666
兼	-9.55677
抄	-9.55686
歯	-9.5569
貴族	-9.55697
満	-9.55727
立像	-9.55851
大和	-9.55888
期間	-9.55945
漬け	-9.55991
以来	-9.55998
酸	-9.56034
伝統	-9.56169
大きく	-9.56263
特	-9.56273
原料	-9.56276
喜	-9.56284
幸	-9.56314
脱	-9.56401
ダム	-9.56431
つけ	-9.56469
売	-9.56487
が行われた	-9.565
顔	-9.56675
近	-9.56797
ていく	-9.56832
(7	-9.56885
浄土宗	-9.56895
逆	-9.56911
鉢	-9.56919
日本料理	-9.57031
できない	-9.57048
まる	-9.57052
示	-9.57053
上方	-9.57123
文様	-9.57225
順	-9.57293
ことに	-9.57297
とき	-9.57359
▁7	-9.57476
なった	-9.57547
をもつ	-9.57668
報	-9.57804
結び	-9.57809
にあり	-9.57855
仏壇	-9.57884
コーヒー	-9.57888
粥	-9.5789
形で	-9.57901
盛	-9.57909
美術館	-9.58027
風味	-9.58165
残	-9.58192
存在	-9.5825
をもって	-9.58281
流れ	-9.58288
に由来する	-9.58288
法華	-9.58406
ものがある	-9.5846
に入る	-9.58631
江戸時代の	-9.58635
という意味	-9.58812
登録	-9.59027
男性	-9.5905
聞	-9.59096
産地	-9.59112
越	-9.59156
古代	-9.59213
本の	-9.59244
納豆	-9.59394
芸妓	-9.59395
素麺	-9.59408
門跡	-9.59451
学校	-9.59544
緑	-9.59665
けん	-9.59753
のことを	-9.59794
浜	-9.59863
材	-9.59936
立ち	-9.59958
樹	-9.60013
〜	-9.6009
部屋	-9.60132
雅楽	-9.60158
運営	-9.60159
ぼ	-9.60365
建	-9.60394
妻	-9.60445
大師	-9.60503
揚げ	-9.60544
▁中国	-9.60556
府	-9.60564
ものと	-9.60612
料	-9.60624
らい	-9.60667
まい	-9.60669
急	-9.60728
食材	-9.60767
市場	-9.60798
隆	-9.60886
を受けて	-9.60953
干し	-9.61016
中心	-9.61074
▁主に	-9.61112
かつ	-9.61125
蒸し	-9.61189
夫	-9.61237
団	-9.61244
自分の	-9.61316
興福寺	-9.61345
非	-9.61377
科	-9.614
屋敷	-9.61428
浄	-9.61457
丈	-9.61617
ホテル	-9.61684
情報	-9.6169
営業	-9.61693
坐像	-9.61717
こうした	-9.61738
ようになる	-9.6179
雅	-9.61806
ものとして	-9.61866
ワイン	-9.6187
程	-9.62035
張り	-9.62062
務	-9.62077
乱	-9.62103
ごと	-9.62151
しょ	-9.62244
森	-9.62251
員	-9.62307
ろう	-9.62339
称	-9.62413
J	-9.62454
武器	-9.62459
木造	-9.62463
計画	-9.62474
をはじめ	-9.62557
曲輪	-9.62594
結果	-9.62698
を受ける	-9.62698
近世	-9.62699
元号	-9.62741
既に	-9.62778
そして	-9.62782
▁11	-9.62805
者は	-9.6286
将軍	-9.62868
初めて	-9.62997
にした	-9.63018
菜	-9.63064
従	-9.63127
設計	-9.63187
バス	-9.63205
賢	-9.63205
環境	-9.63242
基準	-9.63245
細	-9.63267
の神	-9.63353
読み	-9.63374
作曲	-9.63438
前方後円墳	-9.63467
ものであり	-9.63525
といえる	-9.63568
句	-9.63777
寛	-9.63818
関連	-9.63912
前の	-9.6392
中央	-9.6393
変化	-9.63964
銭	-9.63966
を使用する	-9.6402
鐘	-9.64023
の弟子	-9.64135
これが	-9.64291
装飾	-9.6448
翌年	-9.64519
批判	-9.64549
ウナギ	-9.64576
国家	-9.64631
弘	-9.64706
伊勢	-9.64732
桂	-9.64737
慧	-9.64752
際	-9.64805
銃	-9.64808
儒教	-9.64824
のない	-9.64832
天正	-9.6486
展開	-9.64899
浄土教	-9.6497
の違い	-9.65069
法然	-9.65086
名物	-9.65227
判	-9.65252
厳	-9.65304
酵母	-9.65447
寿	-9.6545
いち	-9.65478
張	-9.65488
紀	-9.65496
を取り	-9.65578
筒	-9.65585
蓋	-9.65612
猿楽	-9.65634
悟り	-9.65666
表記	-9.65722
土地	-9.65777
を示す	-9.65799
重文	-9.658
特徴	-9.65807
近年	-9.65831
制作	-9.65876
しか	-9.659
人間	-9.65934
保護	-9.65955
と同様に	-9.66
だけで	-9.66023
製の	-9.66093
なくなった	-9.66222
もあった	-9.66363
太郎	-9.66366
荒	-9.66371
底	-9.66393
分け	-9.66413
天ぷら	-9.66428
するために	-9.66428
剣術	-9.66438
大仏	-9.66568
これら	-9.66588
ずつ	-9.66794
掛	-9.66858
雨	-9.66936
流通	-9.6698
札	-9.67003
移	-9.67068
文書	-9.67132
工程	-9.67158
▁例えば	-9.67219
イベント	-9.67241
刺身	-9.67276
パン	-9.67362
住宅	-9.67453
仙	-9.67779
綱	-9.67933
因	-9.67942
合わせ	-9.67945
未	-9.68002
よい	-9.68005
表示	-9.68015
構成	-9.68028
映画	-9.68043
翁	-9.6806
戒律	-9.68068
考え	-9.68106
積	-9.68137
の字	-9.68172
勢力	-9.68195
スト	-9.68223
▁こうした	-9.68223
清酒	-9.68239
身分	-9.68305
交	-9.68466
▁父は	-9.68528
文化財	-9.68686
街	-9.68702
寛永	-9.68737
らしい	-9.68737
列	-9.68775
なお	-9.68781
を見	-9.68795
に入り	-9.68813
ちゃ	-9.68816
民間	-9.68833
髪	-9.68851
延暦寺	-9.68856
の一つである	-9.68888
新たな	-9.68891
正面	-9.68899
てしまう	-9.68914
用途	-9.68947
の教え	-9.69077
られていた	-9.69081
大阪府	-9.69144
発展	-9.69192
勢	-9.69199
差	-9.69302
照	-9.69338
からである	-9.69444
に関しては	-9.69544
いん	-9.69583
理由	-9.69655
このような	-9.69668
D	-9.69703
で行われる	-9.69868
を意味する	-9.69925
不動	-9.69983
並	-9.70002
込んだ	-9.70028
初期	-9.70139
替え	-9.70182
灯	-9.70217
祭礼	-9.70243
d	-9.70271
工夫	-9.70276
学生	-9.70301
陵	-9.70312
%	-9.70349
経営	-9.70377
真言	-9.70423
の中	-9.70497
F	-9.70545
額	-9.70618
事件	-9.70665
初め	-9.70682
上げ	-9.70873
装	-9.70963
相撲	-9.71175
ブーム	-9.71207
縁起	-9.71229
▁これら	-9.71267
奉	-9.71305
亭	-9.71329
存在する	-9.71337
なし	-9.71338
最初の	-9.71432
振り	-9.71443
上人	-9.71445
参加	-9.71488
じゅう	-9.7157
英	-9.71591
プ	-9.71598
個人	-9.71625
一つ	-9.71676
生まれ	-9.71849
ぎょう	-9.71921
別当	-9.71931
飛	-9.72085
系統	-9.7222
によっては	-9.7223
p	-9.72236
みょう	-9.72262
上で	-9.72271
漢字	-9.72277
近代	-9.72281
弓術	-9.72298
指導	-9.72378
34	-9.72388
33	-9.72468
の中心	-9.7247
低	-9.72562
羅	-9.72644
茶室	-9.72651
各種	-9.72773
盛り	-9.72895
恵	-9.72927
織	-9.73073
荘	-9.73146
温度	-9.73148
後期	-9.73178
浮世絵	-9.7323
寺社	-9.73311
の世界	-9.73381
興行	-9.73396
にする	-9.73456
中世	-9.73472
起	-9.73489
布教	-9.73522
であるため	-9.73547
罪	-9.73563
それぞれの	-9.73584
食べ	-9.73655
もと	-9.73776
職人	-9.73829
使う	-9.73841
壇	-9.7385
の葉	-9.73862
氷	-9.73895
ギ	-9.73913
尼	-9.7392
絶	-9.74007
政治	-9.74097
も存在する	-9.74103
▁ちなみに	-9.7427
日本に	-9.74375
ものであった	-9.74392
陣	-9.74434
つつ	-9.7457
などから	-9.7465
影響	-9.74655
もっとも	-9.74699
虫	-9.74862
あい	-9.74868
かす	-9.75078
2006	-9.75133
の種類	-9.7514
リー	-9.75281
しながら	-9.75422
傾向	-9.75424
録	-9.75591
そのもの	-9.75601
伝来	-9.75654
属	-9.7568
の出身	-9.75688
風習	-9.7569
貝	-9.75697
忌	-9.75709
箸	-9.75749
放送	-9.7575
ビール	-9.75765
合気道	-9.75768
あたり	-9.75811
隠	-9.75864
の間で	-9.75887
かつて	-9.75939
神事	-9.75947
を加えて	-9.76025
化した	-9.76032
中期	-9.7606
南北朝時代	-9.76079
に用いられる	-9.76153
を入れる	-9.7619
注	-9.76282
商	-9.76304
だし	-9.76326
支	-9.76326
▁そこで	-9.76335
てん	-9.76339
M	-9.76372
▁所在地	-9.7651
伽藍	-9.76656
銅	-9.767
に属する	-9.76713
金堂	-9.76773
坂	-9.76896
k	-9.76907
任	-9.76933
天文	-9.7709
左右	-9.77091
切れ	-9.77109
塗	-9.77114
律	-9.77179
付近	-9.77201
やがて	-9.77214
比叡山	-9.77239
消費	-9.77254
展示	-9.77275
48	-9.77295
一方で	-9.77375
釜	-9.77501
普請	-9.77543
込む	-9.77546
夢	-9.7755
三郎	-9.7756
があるが	-9.77645
の間に	-9.7771
ワ	-9.7774
ール	-9.77784
つゆ	-9.77803
の代わりに	-9.77811
納	-9.77905
重要	-9.77905
乾	-9.77948
冬	-9.78006
向き	-9.78014
ぜん	-9.78055
動物	-9.78068
西洋	-9.78098
始	-9.7811
文明	-9.78131
望	-9.7815
以前の	-9.78253
至	-9.78281
けい	-9.78345
イメージ	-9.78351
網	-9.78419
復興	-9.78475
和歌	-9.78477
少し	-9.78504
決	-9.78509
書院	-9.78509
統一	-9.78511
王朝	-9.7853
と同じく	-9.78534
別の	-9.7857
染	-9.78643
成仏	-9.78733
領	-9.78753
道場	-9.78755
継承	-9.78782
阿弥陀如来	-9.78793
まま	-9.78853
ボ	-9.78861
少	-9.78872
を入れて	-9.78902
条件	-9.78965
らず	-9.79029
▁10	-9.79032
柳	-9.79033
琴	-9.79062
ことが多く	-9.79086
デ	-9.79107
違い	-9.79143
省	-9.7917
著	-9.79198
という説	-9.7925
倍	-9.79291
32	-9.79354
国際	-9.79356
に基づく	-9.79373
株式会社	-9.79377
談	-9.79387
老	-9.79389
具材	-9.7942
パ	-9.79428
2004	-9.79493
最澄	-9.79508
高く	-9.79512
ほん	-9.79585
が異なる	-9.79614
とその	-9.79627
名古屋	-9.79658
45	-9.79671
路	-9.79701
着用	-9.79773
イン	-9.7983
教学	-9.80019
本来	-9.80026
特定の	-9.80048
落ち	-9.80104
の三	-9.80124
受け	-9.80217
湖	-9.80303
由来	-9.80307
織田信長	-9.80314
宮殿	-9.80384
▁ただ	-9.80405
返	-9.80451
儀礼	-9.80458
協会	-9.80518
きん	-9.80538
敵	-9.80574
寒	-9.80579
先に	-9.80656
失	-9.80752
材料	-9.80772
盆	-9.80826
峰	-9.80956
実際に	-9.80979
呼称	-9.81053
詩	-9.81152
脚	-9.81159
兵庫県	-9.81237
朝鮮半島	-9.81238
合奏	-9.81245
下駄	-9.81251
水を	-9.81337
朝廷	-9.81345
c	-9.81392
つか	-9.81397
酒を	-9.81561
諸国	-9.81565
(16	-9.81567
▁16	-9.81577
離	-9.81627
施	-9.81648
▁8	-9.81658
改	-9.81678
独	-9.817
ヨーロッパ	-9.81742
山古墳	-9.81781
弾	-9.81819
舞鶴	-9.81828
的には	-9.819
燗	-9.81982
であっても	-9.8203
内部	-9.82056
砂	-9.82104
麻	-9.82112
アルコール	-9.82117
漆	-9.82154
メーカー	-9.8217
祭祀	-9.82188
季節	-9.82188
寄席	-9.82192
直径	-9.82192
場合には	-9.82203
始めた	-9.82253
背景	-9.82254
経済	-9.82258
能楽	-9.82279
を通じて	-9.82288
されていない	-9.82372
長く	-9.82386
決定	-9.82389
がいる	-9.82427
江戸時代に	-9.82453
元禄	-9.82581
が用いられる	-9.82621
程度の	-9.82655
敷	-9.8267
流儀	-9.82693
者の	-9.8276
容器	-9.82776
を行っている	-9.82802
ただし	-9.82814
乾燥	-9.82852
末期	-9.82868
2007	-9.8288
かなり	-9.82906
用いる	-9.82968
(18	-9.83006
舎	-9.83053
杉	-9.83055
物を	-9.83081
地下	-9.83084
静	-9.83103
×	-9.8313
を中心とした	-9.83135
源氏物語	-9.83136
機関	-9.83149
駅弁	-9.83281
塚古墳	-9.83314
大豆	-9.83378
頃から	-9.83413
起源	-9.83449
手法	-9.83492
旅	-9.83631
末寺	-9.83689
単	-9.8371
弱	-9.83716
味付け	-9.83823
奈良県	-9.83827
それが	-9.83834
であろう	-9.8396
奈良時代	-9.83971
処	-9.84
史料	-9.84109
地獄	-9.84116
ても	-9.84127
極めて	-9.84262
終	-9.84403
主な	-9.84487
廃	-9.8451
作る	-9.8454
休	-9.84584
一つの	-9.8463
と伝えられる	-9.84665
冠	-9.84675
陰	-9.84865
出版	-9.84922
葬	-9.8494
したものである	-9.8496
しく	-9.84962
代表的な	-9.84981
没	-9.84994
益	-9.85017
港	-9.85037
T	-9.85046
柔術	-9.85066
の名称	-9.85071
拡大	-9.85086
遊び	-9.85092
などと	-9.85102
美術	-9.85106
遺	-9.8516
のに対し	-9.85189
反対	-9.85204
1990	-9.85217
に見られる	-9.85227
祇園	-9.85266
飾	-9.85286
頂	-9.85296
漢	-9.85391
又は	-9.85437
東西	-9.85462
押し	-9.85517
作られる	-9.85581
我	-9.85654
だけの	-9.85704
一番	-9.85802
47	-9.85807
付き	-9.85807
ック	-9.85813
シャ	-9.85837
件	-9.85841
風の	-9.85886
復活	-9.85886
なか	-9.85909
棚	-9.85971
近く	-9.86001
誕生	-9.86014
以降は	-9.86033
裾	-9.86045
企業	-9.86046
月上旬	-9.86046
攻撃	-9.86047
日本書紀	-9.86063
発行	-9.86132
最古の	-9.86255
寄	-9.86262
の普及	-9.86294
つく	-9.86328
▁以後	-9.8636
一方	-9.86364
天台	-9.86432
に使われる	-9.86612
各地に	-9.86624
受	-9.8663
護	-9.86637
題	-9.86738
を使って	-9.86781
等で	-9.86787
醍醐寺	-9.86802
短	-9.86804
露	-9.86882
じん	-9.86909
竜	-9.87005
窓	-9.87007
ぞ	-9.87018
ット	-9.87037
早	-9.87169
国内	-9.87196
平安	-9.87227
l	-9.8725
意識	-9.87362
酒蔵	-9.87416
なので	-9.87419
置	-9.87437
ったり	-9.87442
を除く	-9.87488
縦	-9.87497
祈願	-9.87642
接	-9.8765
通称	-9.87673
セ	-9.87708
されるようになった	-9.87765
漁	-9.8788
踊り	-9.8792
ます	-9.87946
錦	-9.88007
儀	-9.88012
鎮	-9.88018
浄瑠璃	-9.88026
舟	-9.88027
位牌	-9.88038
博多	-9.88042
翌	-9.88072
職業	-9.88074
ける	-9.88132
日本刀	-9.88244
わけではない	-9.88271
の中でも	-9.88288
友	-9.88304
づ	-9.88315
大衆	-9.88321
こともあった	-9.88364
(10	-9.88382
娘	-9.88418
一度	-9.88476
そこに	-9.88506
寄せ	-9.88512
お好み焼き	-9.88646
われ	-9.8867
酒米	-9.88673
再興	-9.8872
大阪市	-9.88732
と呼ばれている	-9.88747
ここ	-9.88747
通常	-9.88759
洋	-9.88839
バー	-9.88847
43	-9.88849
承	-9.88871
康	-9.88882
肩	-9.88989
記念	-9.88997
幕	-9.89
とも言う	-9.8907
」・「	-9.8907
の願	-9.8911
一門	-9.89123
参	-9.89179
後述	-9.89187
牛肉	-9.89192
与	-9.892
2003	-9.89217
意見	-9.8922
文学	-9.89229
200	-9.89252
仕	-9.89294
再建	-9.89311
練り	-9.89362
でん	-9.89368
第二	-9.89374
I	-9.89389
減	-9.89416
日本人	-9.89434
中村	-9.89518
説法	-9.89529
染め	-9.89533
茶屋	-9.89537
食用	-9.89571
名前	-9.89607
江戸幕府	-9.89613
子供	-9.89627
を祀る	-9.89662
貫	-9.89688
わない	-9.89689
不明	-9.8974
もち	-9.8978
忍	-9.89805
▁江戸時代	-9.89909
屏風	-9.8997
麦	-9.89982
徒歩	-9.90001
評	-9.90033
請	-9.90037
固定	-9.90037
舞妓	-9.90041
おにぎり	-9.90066
鰹節	-9.90072
総合	-9.90077
演目	-9.90117
寛文	-9.90121
のお	-9.9015
ないし	-9.90157
衆生	-9.90217
▁同	-9.90365
同じく	-9.90374
祝	-9.90394
の名前	-9.9043
日間	-9.90446
読	-9.90564
はほとんど	-9.90619
則	-9.90627
たれ	-9.90639
(11	-9.90686
位置	-9.9069
道元	-9.90695
かわ	-9.90699
行われた	-9.90709
本堂	-9.90723
輸入	-9.90732
情	-9.90795
こともあり	-9.90821
に伴い	-9.90846
製作	-9.9087
壺	-9.90948
行われ	-9.90959
魔	-9.91054
サービス	-9.91058
侍	-9.91083
旅館	-9.91104
魂	-9.91133
の総称	-9.91135
つまり	-9.91157
始め	-9.91195
公式	-9.9123
民家	-9.91304
一時	-9.91377
視	-9.9149
糖	-9.91509
家庭	-9.91527
果	-9.91598
信者	-9.91682
ことにより	-9.91687
のまま	-9.91695
女性の	-9.91826
くる	-9.91869
大乗	-9.91941
の原型	-9.91943
国の	-9.91978
に伝わる	-9.9198
皿	-9.91984
ホ	-9.92004
のちに	-9.92047
センター	-9.92116
俊	-9.92132
E	-9.92135
彫刻	-9.92142
滋賀県	-9.92149
制限	-9.92149
坐禅	-9.92149
許	-9.9218
和菓子	-9.92198
日本語	-9.9222
深い	-9.92258
の上	-9.92268
立て	-9.92299
ゴ	-9.92324
(17	-9.92326
庶民	-9.92426
の第	-9.92556
種類の	-9.92567
メニュー	-9.92597
公開	-9.92644
政府	-9.9265
笠	-9.92663
していない	-9.92678
はじめ	-9.9273
追	-9.92735
焼く	-9.9275
慈	-9.92905
中で	-9.92942
以外に	-9.92978
後半	-9.9298
灰	-9.93106
丹	-9.9311
寂	-9.93147
O	-9.93166
論争	-9.93198
神輿	-9.93199
むしろ	-9.93214
特殊な	-9.93237
炭	-9.93257
代々	-9.93313
一切	-9.93353
理解	-9.93386
大日如来	-9.93395
内で	-9.93463
を持った	-9.93472
産業	-9.93523
規模	-9.9354
現在も	-9.93679
衣服	-9.93731
事から	-9.93849
息	-9.93914
防	-9.93981
やや	-9.93982
方向	-9.94022
の意	-9.94025
本来は	-9.94031
ぞう	-9.9406
貴	-9.94084
の部分	-9.94095
然	-9.94105
鉄道	-9.94111
持つ	-9.94118
旨	-9.94119
りょう	-9.94137
と称される	-9.94203
拍子	-9.94208
速	-9.94219
桐	-9.9424
ネギ	-9.94262
大石寺	-9.94263
▁13	-9.94282
皇子	-9.94316
間に	-9.94359
をさす	-9.9439
僧正	-9.94402
大谷	-9.94435
壁画	-9.94479
することで	-9.94514
ずに	-9.94529
屋台	-9.94592
リン	-9.94592
べき	-9.94617
普及	-9.94681
最大	-9.94747
動き	-9.94749
まだ	-9.94844
農	-9.94848
便	-9.94873
二条城	-9.94899
ベ	-9.94921
いない	-9.94943
早く	-9.94971
必ず	-9.95068
新聞	-9.95089
型の	-9.95094
する事	-9.95128
殺	-9.95151
芋	-9.95223
東山	-9.95241
仲	-9.95248
襖	-9.95251
時には	-9.95252
寺の	-9.95266
用いられた	-9.95316
彦	-9.9532
傷	-9.95323
H	-9.95324
襟	-9.95331
投げ	-9.95331
みりん	-9.95371
正装	-9.95374
通常の	-9.95418
体制	-9.9542
法華宗	-9.95423
短い	-9.95438
のみで	-9.95526
2002	-9.95544
ra	-9.95576
煎茶	-9.95596
各地で	-9.9565
禁止	-9.95669
全体	-9.957
ソ	-9.9577
次の	-9.9577
観光	-9.95787
主張	-9.95874
送	-9.9597
得度	-9.95971
をいう	-9.96012
とする説	-9.96034
白い	-9.96068
鼓	-9.96101
好み	-9.96105
の研究	-9.96116
であること	-9.96196
いくつかの	-9.96242
ていたが	-9.96261
行われている	-9.96274
建立	-9.96277
飲む	-9.96306
思	-9.96324
籠	-9.96336
茎	-9.96341
役者	-9.96361
税	-9.96361
宣	-9.96373
桶	-9.96393
落語家	-9.96404
純	-9.96412
検校	-9.96416
月中旬	-9.96418
K	-9.96418
世紀後半	-9.96429
▁こうして	-9.96435
エビ	-9.96436
根本	-9.96482
複数の	-9.96501
薄い	-9.96546
主義	-9.96549
ということ	-9.96557
▁一般に	-9.96598
大きさ	-9.9664
独立	-9.96654
山の	-9.96689
に入ると	-9.96731
2008	-9.96772
栄	-9.96856
が必要	-9.9688
150	-9.96917
出土	-9.96938
の変化	-9.96942
それに	-9.97028
を用い	-9.97035
に位置する	-9.97128
ためである	-9.97129
▁三	-9.97142
をした	-9.97236
かな	-9.97258
銀	-9.97279
小麦粉	-9.97304
2.	-9.9732
の中には	-9.97323
▁奈良	-9.97341
側面	-9.97385
記述	-9.97394
刻	-9.97453
須	-9.97477
率	-9.97478
ごろ	-9.97498
〈	-9.97516
いずれも	-9.9756
に当たる	-9.97574
とも言われる	-9.97623
地域の	-9.97653
即位	-9.97683
工事	-9.97758
54	-9.9777
くらい	-9.97785
同年	-9.97953
全く	-9.98103
創建	-9.98174
行き	-9.98213
2005	-9.98233
アメリカ	-9.98263
回り	-9.98278
出家	-9.98296
を出す	-9.98336
同時に	-9.98348
法主	-9.98354
丼	-9.98425
継	-9.98431
自分	-9.98438
らく	-9.98579
才	-9.98601
燈	-9.98623
特別	-9.98634
のみならず	-9.98635
多数の	-9.98636
規制	-9.98637
弘仁	-9.98638
もう	-9.98674
品質	-9.98699
前方部	-9.98716
▁つまり	-9.98743
おでん	-9.98752
三つ	-9.9877
業者	-9.98889
マン	-9.98914
96	-9.98941
を取る	-9.99013
軽	-9.99099
の手	-9.99152
改良	-9.99293
n	-9.99305
の娘	-9.99312
補	-9.99332
b	-9.99345
機械	-9.99382
44	-9.99449
沖縄	-9.99495
吹	-9.99519
庶民の	-9.99541
菩提	-9.99543
あげ	-9.9955
習	-9.99551
似	-9.99561
うち	-9.99563
▁小	-9.99569
出される	-9.99571
走	-9.99635
韓国	-9.99689
▁12	-9.99705
種の	-9.9973
腕	-9.99734
獅子	-9.99739
徐々に	-9.99751
簪	-9.99751
経緯	-9.99758
応永	-9.99772
が強い	-9.99793
合い	-9.99794
をはじめとする	-9.99823
が高い	-9.99845
機会	-9.99878
管長	-9.99943
自由	-9.9995
の下に	-9.99958
別院	-9.99984
現代の	-10.0002
加熱	-10.0002
という言葉	-10.0003
▁199	-10.0007
近年では	-10.0025
境内	-10.0026
を置く	-10.003
帝	-10.003
ばん	-10.0032
養	-10.0033
冷	-10.0035
をかける	-10.004
俗	-10.0046
下に	-10.0047
いく	-10.0053
地方の	-10.0055
えた	-10.0056
の存在	-10.0058
営	-10.0065
詞	-10.0066
各地の	-10.0073
案	-10.0076
の技術	-10.0077
随	-10.0081
ケース	-10.0084
釈	-10.0084
血	-10.0087
兵衛	-10.0087
月下旬	-10.0089
G	-10.0089
ザ	-10.0089
太刀	-10.009
一本	-10.009
複数	-10.0098
を持って	-10.01
寺院の	-10.0102
線香	-10.0102
これに	-10.0102
実際には	-10.0104
扇子	-10.0105
天狗	-10.0108
従来の	-10.0114
の際	-10.0115
▁近年	-10.0118
全国的に	-10.0127
(15	-10.0127
h	-10.0131
場面	-10.0132
るように	-10.0133
熟成	-10.0141
学者	-10.0143
嘉	-10.0143
最後の	-10.0147
田楽	-10.0148
ひと	-10.015
ないように	-10.0153
ha	-10.0156
300	-10.0157
劇	-10.016
▁古くは	-10.0166
歩	-10.0166
はなく	-10.0169
易	-10.0176
五山	-10.0182
収集	-10.0182
習慣	-10.0184
式の	-10.019
算	-10.0193
スタイル	-10.0194
イカ	-10.0196
敬	-10.0199
サンスクリット	-10.0199
にとって	-10.0199
の使用	-10.02
価格	-10.0204
留	-10.0205
紹介	-10.0208
ぼう	-10.0211
戻	-10.0212
団子	-10.0213
ともいわれる	-10.0213
側の	-10.0216
と呼んだ	-10.0222
されたもの	-10.0228
こそ	-10.0232
全て	-10.0235
包	-10.0243
逆に	-10.0249
の歴史	-10.0253
大型	-10.0257
区別	-10.0259
欠	-10.0259
抜き	-10.026
その他の	-10.0267
亀	-10.0268
新たに	-10.0273
水分	-10.0281
人々	-10.0296
頃に	-10.0303
したが	-10.0303
するという	-10.0305
流行	-10.0305
らが	-10.0307
不足	-10.031
牛丼	-10.0311
可	-10.0312
伊	-10.0313
)3	-10.0313
使い	-10.0316
テレビ	-10.0318
といって	-10.0319
右衛門	-10.032
相国寺	-10.032
胸	-10.032
イギリス	-10.032
健康	-10.032
コンブ	-10.0321
住居	-10.0322
劇場	-10.0323
家族	-10.0326
大規模な	-10.0327
建造物	-10.0329
復元	-10.0332
違う	-10.0334
をつける	-10.0334
見られる	-10.0337
譜	-10.0342
流し	-10.0346
仮	-10.0346
法隆寺	-10.0347
▁9	-10.0349
彼	-10.0363
の流れ	-10.0365
奈良市	-10.0373
副	-10.0376
しろ	-10.0392
功徳	-10.0394
たが	-10.0395
を作り	-10.0398
アン	-10.0399
続	-10.0402
優れた	-10.0404
岸	-10.0405
除	-10.0416
戦前	-10.0418
設置	-10.0418
▁京都府	-10.0424
巡	-10.0427
事を	-10.0428
使われ	-10.0428
家が	-10.043
隠居	-10.0434
姫	-10.0435
巫女	-10.0436
デザイン	-10.0438
美しい	-10.044
体験	-10.0441
伏見	-10.0444
ずる	-10.0448
土器	-10.045
築城	-10.0454
42	-10.0455
N	-10.0464
もともと	-10.0464
38	-10.0464
校	-10.0465
立場	-10.0467
成長	-10.0477
が行われ	-10.048
r	-10.048
めて	-10.0484
の伝統	-10.0486
申	-10.0486
サン	-10.0493
価値	-10.0494
提供	-10.0505
皇	-10.0512
開き	-10.0514
最初に	-10.0527
ター	-10.0529
した後	-10.053
残り	-10.0537
に入って	-10.0537
常に	-10.054
移動	-10.0541
執	-10.0549
瀬	-10.0551
給	-10.0553
が生まれた	-10.0554
でない	-10.0555
序	-10.0555
カツ丼	-10.0556
を説く	-10.0558
民衆	-10.0559
英語	-10.0562
に入った	-10.0562
太夫	-10.0566
上記	-10.0567
の形	-10.0567
生き	-10.0568
食感	-10.0572
滅	-10.0585
状態で	-10.0592
総本山	-10.0596
絵師	-10.0596
日本における	-10.0598
▁通常	-10.0598
の後	-10.0604
R	-10.0608
することができる	-10.061
込	-10.0611
であるという	-10.0614
可能	-10.0614
その他	-10.0618
会場	-10.0618
今日	-10.0619
拝	-10.0626
ときは	-10.0627
行列	-10.063
完全に	-10.0645
族	-10.065
大僧正	-10.0656
宇治	-10.0656
の長さ	-10.0661
孔	-10.0665
の流派	-10.0668
涅槃	-10.0673
策	-10.0673
詰め	-10.0674
カラオケ	-10.0677
55	-10.0678
政策	-10.0679
献上	-10.0679
意匠	-10.068
石垣	-10.0681
セット	-10.0682
酒の	-10.0683
箇所	-10.0685
小さい	-10.0687
説明	-10.0689
身を	-10.0693
の大きさ	-10.0694
の実	-10.07
の祖	-10.0701
記載	-10.0704
利休	-10.0708
▁これらは	-10.0715
仕立て	-10.0719
締め	-10.072
外国	-10.0731
の特徴	-10.0733
幹	-10.0743
古くは	-10.0744
兄	-10.0746
▁やがて	-10.0747
づけ	-10.0751
築	-10.0754
強く	-10.0759
たちが	-10.0765
させて	-10.0775
穂	-10.0782
相手	-10.0787
設立	-10.0788
つつある	-10.0793
含まれ	-10.0794
罰	-10.0794
を入れ	-10.0795
丁	-10.0795
前述の	-10.0796
あと	-10.0798
きゅう	-10.0799
朝鮮	-10.0799
を中心とする	-10.0799
まん	-10.08
きた	-10.0801
高級	-10.0801
さえ	-10.081
禅師	-10.081
残った	-10.0812
戦後	-10.0818
創作	-10.0818
調理法	-10.082
古典	-10.0835
であれば	-10.0843
割り	-10.0848
塗り	-10.0852
いい	-10.0853
と同	-10.0855
安置	-10.0861
ヶ	-10.0865
の地	-10.0866
厚	-10.0879
事が	-10.0882
込んで	-10.0886
タレ	-10.0887
コース	-10.0891
南部	-10.0894
開山	-10.09
浦	-10.0902
唄	-10.0903
不動明王	-10.0916
葛	-10.0916
勧進	-10.0919
座敷	-10.092
選択	-10.092
専用の	-10.0922
距離	-10.0922
化粧	-10.0922
孝	-10.0922
魚介類	-10.0923
麩	-10.0923
描写	-10.0923
茶の湯	-10.0923
火災	-10.0923
涅槃経	-10.0926
に分類される	-10.093
越前	-10.0931
刊行	-10.0934
事が多い	-10.0939
当主	-10.0941
ごく	-10.0943
活躍した	-10.0944
をしている	-10.0945
en	-10.0947
であることから	-10.0954
良く	-10.0958
孫	-10.0959
同様の	-10.0966
切った	-10.0972
日蓮正宗	-10.0972
を開いた	-10.0976
行われていた	-10.0978
ったもの	-10.0979
の寺院	-10.0981
と言い	-10.0981
ことによって	-10.1
焼失	-10.1005
を加え	-10.1012
囃子	-10.1022
の位置	-10.1025
将	-10.1029
思い	-10.1036
二条	-10.1041
とり	-10.1044
緒	-10.1045
ヨ	-10.1046
也	-10.1046
賛	-10.1047
+	-10.1048
連盟	-10.1048
皇族	-10.1048
カレーライス	-10.1048
現象	-10.1049
88	-10.1054
作った	-10.1054
羽織	-10.1055
漬物	-10.1056
天井	-10.1059
吉田	-10.106
だん	-10.1061
すぐ	-10.1061
模	-10.1067
裳	-10.1067
の儀式	-10.107
2001	-10.1071
年から	-10.1077
お盆	-10.1082
三条	-10.1082
59	-10.1088
37	-10.1091
修法	-10.1095
手に	-10.1103
造営	-10.1114
一般の	-10.1115
郎	-10.1118
じゅ	-10.112
▁2006	-10.1129
各地	-10.113
るため	-10.1132
対象	-10.1133
仏法	-10.1134
登	-10.114
▁重要文化財	-10.1142
日記	-10.1147
間の	-10.1153
粒	-10.1163
の花	-10.1163
倒	-10.1163
人は	-10.1165
鈴	-10.1169
広島	-10.1171
芝居	-10.1171
演	-10.1172
の本尊	-10.1172
49	-10.1173
稚児	-10.1173
柿	-10.1173
加賀	-10.1174
鎧	-10.1174
グループ	-10.1174
柔道	-10.1175
釈迦如来	-10.1175
キリスト教	-10.1179
豚肉	-10.118
食べられる	-10.1182
蓮華	-10.1183
男女	-10.1184
小豆	-10.1187
したという	-10.12
広い	-10.1201
作者	-10.1202
書物	-10.1205
するようになった	-10.1208
は通常	-10.1211
までに	-10.1212
本館	-10.1212
したため	-10.1218
の数	-10.122
現存	-10.1223
供される	-10.1227
カン	-10.1229
三曲	-10.123
解説	-10.123
多数	-10.1231
天台宗の	-10.1234
ぶつ	-10.1235
地元	-10.1236
台湾	-10.1236
適	-10.1238
現存する	-10.1238
長者	-10.1241
酒造り	-10.1248
の方が	-10.1248
を使用した	-10.125
電	-10.1262
用いられ	-10.1262
として知られる	-10.1265
の対象	-10.1275
禁	-10.1278
演出	-10.1278
入れる	-10.128
に至る	-10.1287
にまで	-10.1293
買	-10.1294
演歌	-10.1298
佛	-10.13
課	-10.1301
隣	-10.1301
犬	-10.1302
東北	-10.1302
ブランド	-10.1303
統制	-10.1303
公演	-10.1304
入浴	-10.1305
南禅寺	-10.1305
ならば	-10.1305
鶏肉	-10.1306
火葬	-10.1306
一覧	-10.1307
まり	-10.1309
豊臣秀吉	-10.1313
禅僧	-10.1314
次郎	-10.1316
派の	-10.1316
ものではない	-10.1317
先端	-10.1328
)」「	-10.1333
大乗仏教	-10.1334
帰	-10.1335
続く	-10.1343
二つ	-10.1345
てい	-10.135
用いられる	-10.1354
飲み	-10.1355
おく	-10.1356
時宗	-10.1357
段階	-10.1362
の時代	-10.1363
撥	-10.1364
65	-10.1366
所蔵	-10.1366
の場	-10.1373
が強く	-10.1374
秘	-10.1374
抹茶	-10.1376
こん	-10.1384
事実	-10.1388
を加える	-10.139
遺構	-10.1391
▁当時の	-10.1393
譲	-10.1396
国民	-10.14
▁かつては	-10.14
認定	-10.1402
強い	-10.1405
の高い	-10.1414
わり	-10.1415
意味合い	-10.142
後継者	-10.1422
液	-10.1426
趣	-10.1428
快	-10.143
肌	-10.143
栗	-10.1432
仕事	-10.1433
太陽	-10.1434
▁戦後	-10.1434
修理	-10.1435
に際して	-10.1438
軽く	-10.1439
といえば	-10.1453
の一種である	-10.1453
の御	-10.1454
方面	-10.1456
ぜ	-10.1461
トン	-10.1465
y	-10.1469
一体	-10.1472
たら	-10.1476
▁2007	-10.1482
一定の	-10.1494
それら	-10.1494
浮	-10.1511
自らの	-10.1515
彼ら	-10.1515
交流	-10.1526
室町時代	-10.1526
故	-10.1528
▁一方で	-10.1529
後は	-10.1532
被	-10.1536
存	-10.1536
古墳群	-10.1544
革	-10.1549
盛んに	-10.1551
行った	-10.1551
試み	-10.1556
深く	-10.1556
誌	-10.1558
乳	-10.1559
毒	-10.1564
生涯	-10.1564
年中行事	-10.1564
貞観	-10.1567
風俗	-10.1568
上下	-10.1571
騎射	-10.1571
輸出	-10.1575
同様に	-10.1577
▁江戸時代には	-10.1578
を食べる	-10.1578
分野	-10.1587
重ね	-10.1587
変更	-10.1588
注意	-10.1588
といわれ	-10.159
が多かった	-10.1604
大きい	-10.1614
面積	-10.1617
にくい	-10.1621
第三	-10.1637
は無い	-10.1637
兄弟	-10.164
業界	-10.1646
▁たとえば	-10.165
のが一般的である	-10.1654
とも呼ばれ	-10.1654
ごう	-10.1655
全長	-10.1656
に含まれる	-10.1661
時代に	-10.1663
を描いた	-10.1676
41	-10.168
ふく	-10.1684
問	-10.1687
邪	-10.1688
典	-10.169
帳	-10.1691
に応じて	-10.1691
炉	-10.1692
威	-10.1693
68	-10.1694
一種の	-10.1694
欲	-10.1695
土佐	-10.1696
七夕	-10.1696
流鏑馬	-10.1697
少年	-10.1699
釈尊	-10.1699
回向	-10.1703
広島県	-10.1705
の記述	-10.1705
んでいる	-10.1707
格子	-10.1708
▁現代	-10.171
ディ	-10.1712
奉納	-10.172
唱	-10.1721
番茶	-10.1726
観客	-10.1726
衣装	-10.1733
でなく	-10.1741
いだ	-10.1741
▁主な	-10.1742
許可	-10.1744
と同様	-10.175
使われている	-10.1759
開祖	-10.1765
されること	-10.1772
二人	-10.1775
後円部	-10.1778
の下	-10.1782
見る	-10.1785
瓦	-10.1793
献	-10.1794
体系	-10.1795
年頃	-10.1797
傘	-10.1802
過	-10.1804
授	-10.1809
謡	-10.1811
ロー	-10.1815
400	-10.1815
歴代	-10.1817
影	-10.1822
虎	-10.1823
開始	-10.1823
最高	-10.1824
添	-10.1826
盤	-10.1827
に基づいて	-10.1829
脂	-10.183
隊	-10.1831
梁	-10.1831
収穫	-10.1832
恩	-10.1832
L	-10.1832
スープ	-10.1832
ファン	-10.1833
彩色	-10.1837
づくり	-10.1837
集落	-10.1838
主催	-10.1838
分離	-10.1839
組合	-10.1839
たる	-10.1842
▁現在でも	-10.1845
役割	-10.1847
かない	-10.1853
向上	-10.1856
の系統	-10.1862
町人	-10.1872
していった	-10.1874
化する	-10.1883
権力	-10.1883
ちゅう	-10.189
山笠	-10.189
使われる	-10.1892
ただ	-10.1901
すべての	-10.1901
が高く	-10.1904
そのような	-10.1906
出された	-10.1906
他に	-10.1911
の起源	-10.1912
カツ	-10.1917
静岡県	-10.192
縫い	-10.1922
▁198	-10.1922
なければ	-10.1927
限	-10.1927
辞	-10.1929
女性が	-10.1932
整備	-10.1933
組み	-10.1938
祇園祭	-10.1941
有名な	-10.1942
さま	-10.1942
われる	-10.1943
熟	-10.1944
工	-10.1945
安土桃山時代	-10.1945
)...	-10.1947
体の	-10.1947
わず	-10.1949
双	-10.1954
鉄板	-10.196
揚	-10.1963
即	-10.1963
澄	-10.1968
繊維	-10.1969
昌	-10.1969
溝	-10.1969
樽	-10.1969
ガラス	-10.197
風呂	-10.1971
信徒	-10.1971
減少	-10.1972
大量に	-10.1973
親指	-10.1973
突き	-10.1974
すべき	-10.1975
と言える	-10.1978
仕込み	-10.1978
十三	-10.198
することを	-10.1984
の様式	-10.1989
ライ	-10.1994
項	-10.1997
となっていた	-10.2001
46	-10.2003
歴	-10.2005
浅	-10.2006
有力	-10.2013
最後に	-10.2016
可能性	-10.2021
阿弥陀仏	-10.2022
実施	-10.2022
39	-10.2023
途中	-10.2031
の僧侶	-10.2036
を迎える	-10.204
それは	-10.2044
に相当する	-10.205
境	-10.2052
62	-10.2056
止	-10.2058
全般	-10.2067
まれ	-10.2075
どの	-10.2078
幕末	-10.2079
るために	-10.2083
うた	-10.2085
の象徴	-10.2088
▁翌	-10.209
寝	-10.2092
当初は	-10.2095
きり	-10.2096
依	-10.2097
費	-10.2099
富士	-10.21
帖	-10.2104
年度	-10.2104
左衛門	-10.2107
鼻	-10.2108
書道	-10.2108
殆ど	-10.2108
料亭	-10.2109
光寺	-10.211
和風	-10.2114
織物	-10.2123
ることができる	-10.2125
という説もある	-10.2134
75	-10.2142
以前に	-10.2142
平面	-10.2144
一族	-10.2145
火鉢	-10.2152
がその	-10.2155
南北	-10.2156
られて	-10.2156
付ける	-10.2156
精神	-10.216
仏の	-10.2161
化し	-10.2167
でもあった	-10.2178
要素	-10.2181
▁これにより	-10.2189
味が	-10.2189
提	-10.2193
ティ	-10.2195
ar	-10.2198
・・・	-10.2199
120	-10.2201
っており	-10.2202
事例	-10.2202
前期	-10.2203
勤	-10.2205
伝授	-10.2211
楽曲	-10.2214
の時代に	-10.2215
ほどの	-10.2218
従来	-10.222
洗	-10.2224
いき	-10.2225
活	-10.2228
工業	-10.2228
67	-10.2233
するなど	-10.2236
雷	-10.2241
封	-10.2241
駒	-10.2242
径	-10.2242
針	-10.2244
博	-10.2244
那	-10.2246
発祥	-10.2247
印刷	-10.2248
杖	-10.2249
正倉院	-10.2249
滝	-10.2249
ソメイヨシノ	-10.2249
グレゴリオ暦	-10.2249
戦争	-10.2249
礼装	-10.2251
寛政	-10.2252
精進料理	-10.2252
カー	-10.2253
▁近年では	-10.2254
の多くは	-10.2254
』・『	-10.2254
木材	-10.2258
近畿地方	-10.2268
の内	-10.2277
の内容	-10.2293
58	-10.2296
安全	-10.2299
薩摩	-10.2301
止め	-10.2301
おき	-10.2306
ここで	-10.2308
ポ	-10.2311
名を	-10.2316
61	-10.2318
プロ	-10.2319
したこと	-10.232
をして	-10.2321
の多い	-10.2328
近江	-10.2328
が少ない	-10.2333
負	-10.2334
期の	-10.2336
▁本来	-10.2339
低い	-10.2341
勅	-10.2351
を引き	-10.2353
性格	-10.2363
に合わせて	-10.2367
垣	-10.237
家庭で	-10.2371
人々の	-10.2378
外側	-10.2379
配置	-10.2382
豚	-10.2384
奇	-10.2384
極楽	-10.2384
候	-10.2385
アジア	-10.2386
講談	-10.239
近江国	-10.2391
雑誌	-10.2392
ホール	-10.2393
室町幕府	-10.2395
選定	-10.2396
開館	-10.2397
紋様	-10.2397
仮名	-10.24
中止	-10.2401
で作られた	-10.2402
敷地	-10.2404
がなく	-10.2407
東南アジア	-10.2408
に比べて	-10.2409
63	-10.241
からなる	-10.2413
甘	-10.2413
重量	-10.2414
がく	-10.2415
ものに	-10.2418
)4	-10.242
以外にも	-10.2423
ジャ	-10.2424
はあまり	-10.2425
上記の	-10.2427
中国では	-10.2427
98	-10.2434
信心	-10.2442
根拠	-10.2444
地蔵菩薩	-10.2447
同一	-10.2447
抜	-10.2448
やすく	-10.2448
▁一	-10.2451
国立国会図書館	-10.2455
者を	-10.2463
ことである	-10.2463
の記録	-10.2466
優	-10.2467
色の	-10.2472
が行われている	-10.2474
が残っている	-10.2477
人を	-10.248
名は	-10.2484
と呼ばれていた	-10.2487
ではあるが	-10.2491
円形	-10.2492
の死後	-10.2493
檀	-10.2503
に入れて	-10.2504
してきた	-10.2507
が一般的である	-10.2508
容	-10.2511
分の	-10.2511
方が	-10.2513
宮中	-10.2516
蛇	-10.2516
町の	-10.2519
シテ	-10.2522
著書	-10.2522
出る	-10.2525
否定	-10.2526
束	-10.2528
缶	-10.2532
是	-10.2533
膳	-10.2533
豪	-10.2535
俵	-10.2535
煙	-10.2537
インターネット	-10.2537
スポーツ	-10.2537
洋服	-10.2539
世阿弥	-10.2539
味噌汁	-10.254
五郎	-10.2541
律宗	-10.2542
の小	-10.2542
がよく	-10.2547
なん	-10.2547
教授	-10.2557
和紙	-10.2557
防御	-10.2561
▁本来は	-10.2561
(14	-10.2566
元和	-10.2568
邸	-10.257
の事	-10.2572
山崎	-10.2574
たちは	-10.2578
で行う	-10.2578
作られている	-10.2579
ゆう	-10.2588
に似た	-10.259
と同時に	-10.2591
▁すなわち	-10.2596
時は	-10.2598
登場する	-10.26
蓮如	-10.2602
建てられた	-10.2602
を得た	-10.2603
の前に	-10.2614
(13	-10.2615
創	-10.2615
の発展	-10.2622
工場	-10.2623
以前は	-10.2627
日本庭園	-10.263
の作品	-10.2631
▁17	-10.2633
を得て	-10.2652
するための	-10.2653
されない	-10.2657
の屋根	-10.2657
の戦い	-10.2659
出して	-10.2659
襲	-10.2662
インドの	-10.2665
1995	-10.2665
復	-10.2669
を指し	-10.2673
笑	-10.2676
串	-10.2678
内裏	-10.2679
のではなく	-10.2681
泡	-10.2683
殻	-10.2683
耳	-10.2684
祈祷	-10.2684
慣習	-10.2684
阿闍梨	-10.2684
和歌山県	-10.2684
土塁	-10.2684
掛軸	-10.2684
江戸時代には	-10.2685
単なる	-10.2686
過ぎ	-10.2689
共	-10.2691
をとる	-10.2693
織り	-10.2695
世代	-10.2696
シュ	-10.2697
洗い	-10.2698
実現	-10.2703
鳥の子	-10.2704
主体	-10.2705
飛鳥時代	-10.2705
選手	-10.2705
てしまった	-10.2706
いった	-10.2707
手で	-10.2708
清水	-10.2713
井上	-10.2716
宴	-10.2717
天平	-10.2719
扱い	-10.2719
広まった	-10.272
二重	-10.272
f	-10.2722
消費者	-10.2725
注文	-10.2726
全ての	-10.2727
方式	-10.2735
コン	-10.2737
▁この時	-10.2737
86	-10.274
意味で	-10.2743
尚	-10.2745
うえ	-10.2746
大根	-10.2747
いで	-10.2755
弟子の	-10.2757
共通	-10.2757
使われていた	-10.2764
の他に	-10.2765
音色	-10.2767
するもの	-10.2768
▁他に	-10.277
が中心	-10.2772
天台座主	-10.2774
人に	-10.2776
概念	-10.2779
タイプ	-10.2781
徳川家康	-10.2788
人間の	-10.2788
の形式	-10.2791
彼の	-10.2795
亡	-10.2795
平安時代の	-10.2805
宗祖	-10.2814
500	-10.2819
鷹	-10.2822
碑	-10.2824
石室	-10.2824
朱	-10.2826
していく	-10.2827
介	-10.2827
親王	-10.2828
稲	-10.2828
薬師如来	-10.2828
綿	-10.2828
摩	-10.283
猿	-10.2831
了	-10.2831
粗	-10.2832
飲料	-10.2832
鈔	-10.2833
辻	-10.2833
アメリカ合衆国	-10.2833
聴	-10.2833
枕	-10.2833
感謝	-10.2834
戒壇	-10.2834
権威	-10.2834
側に	-10.2836
金属	-10.2837
本格的な	-10.2838
すい	-10.2838
控え	-10.2839
調整	-10.284
切腹	-10.2842
数珠	-10.2842
をかけて	-10.2846
を作った	-10.2846
専門	-10.2849
51	-10.2858
の修行	-10.2859
切る	-10.2863
年齢	-10.2863
ざけ	-10.2864
京都市左京区	-10.2869
手事	-10.2872
くなる	-10.2872
くじ	-10.2873
▁当時	-10.2885
神宮	-10.2888
のなかで	-10.2892
和尚	-10.2892
オン	-10.2906
▁仏教	-10.2909
でき	-10.2909
の問題	-10.2913
たん	-10.2914
拠点	-10.2916
は主に	-10.2917
もあるが	-10.2917
が出る	-10.2918
半分	-10.293
育	-10.2936
が一般的	-10.2937
たて	-10.294
われた	-10.2941
という意味で	-10.2943
展	-10.2944
以降の	-10.295
曹洞宗	-10.2952
▁14	-10.2953
飛鳥	-10.2954
らの	-10.2955
門下	-10.2958
薄く	-10.296
の姿	-10.2961
愛知県	-10.2962
を求める	-10.2965
ざる	-10.2973
没後	-10.2976
鶏	-10.2977
の要素	-10.298
毎月	-10.2981
伯	-10.2984
知識	-10.2984
婆	-10.2985
爪	-10.2985
ワサビ	-10.2985
埴輪	-10.2985
太平洋戦争	-10.2985
永禄	-10.2985
達磨	-10.2985
岡山県	-10.2986
議論	-10.2986
ぼん	-10.2998
細い	-10.2999
外観	-10.3
農業	-10.3006
とも称される	-10.3007
御殿	-10.3008
によるもの	-10.3008
をそのまま	-10.3012
56	-10.3015
採	-10.3018
困難	-10.3027
定義	-10.3027
客が	-10.3028
可能な	-10.3035
立つ	-10.3037
ピ	-10.3038
)5	-10.3039
花見	-10.304
についても	-10.3042
画家	-10.3053
左手	-10.3056
洋食	-10.3056
氏の	-10.3062
桃	-10.3063
合戦	-10.3067
存在した	-10.307
京都で	-10.3073
を持っている	-10.3076
ラン	-10.3077
必ずしも	-10.3082
だと	-10.3082
が大きく	-10.3088
会議	-10.3091
という説がある	-10.3095
れん	-10.3097
がい	-10.3097
共に	-10.3098
以外	-10.3101
いずれ	-10.3102
育成	-10.3103
を付け	-10.3107
は非常に	-10.3109
かみ	-10.3109
すり	-10.311
関係者	-10.3112
確認	-10.3113
成立した	-10.3116
徒	-10.3117
臨	-10.312
延暦	-10.3125
想	-10.3127
上げた	-10.3129
皆	-10.3135
に代表される	-10.3136
探	-10.3138
熊野	-10.3138
年賀状	-10.3139
折伏	-10.3139
缶コーヒー	-10.3139
計算	-10.3139
鶏卵	-10.3141
承和	-10.3142
をつけた	-10.3142
埋葬	-10.3145
まった	-10.3156
甘味	-10.3159
吹き	-10.3161
それまで	-10.3161
最初	-10.3162
の他	-10.3163
めん	-10.3167
)11	-10.3169
れない	-10.3174
だろう	-10.318
細かく	-10.318
食べ物	-10.318
ペ	-10.3183
が良い	-10.3185
にち	-10.3186
いつ	-10.3186
以	-10.319
は本来	-10.3193
た後	-10.3195
地に	-10.3196
見られ	-10.3199
創業	-10.32
この時期	-10.3202
とは異なる	-10.3204
▁このとき	-10.3205
が登場する	-10.3207
▁※	-10.3207
に行われる	-10.3211
発展した	-10.3211
本店	-10.3217
ることもある	-10.3221
▁18	-10.3222
童子	-10.3224
秀吉	-10.3232
アル	-10.3235
確立	-10.3238
とされていた	-10.3244
庫	-10.3246
で用いられる	-10.3247
書写	-10.3249
灌頂	-10.3251
扉	-10.3256
の高さ	-10.3258
おこ	-10.326
してしまう	-10.3263
法印	-10.3265
を見て	-10.3266
長男	-10.3267
球	-10.3267
江戸の	-10.327
像は	-10.3273
為に	-10.3275
童	-10.3276
かれ	-10.3278
理論	-10.3279
合う	-10.328
害	-10.3282
上演	-10.3284
昭	-10.3284
踏	-10.3287
刊	-10.3289
千手観音	-10.3289
範	-10.329
続いて	-10.3291
幾	-10.3295
知恩院	-10.3295
鯨	-10.3295
に限らず	-10.3295
水墨画	-10.3295
蒲鉾	-10.3295
石川県	-10.3295
即位灌頂	-10.3295
裏千家	-10.3296
協力	-10.3298
趣味	-10.3298
粉末	-10.3299
出来る	-10.3299
観世	-10.33
千利休	-10.3302
病気	-10.3302
売られている	-10.3304
密教の	-10.3304
を有する	-10.3309
に就任	-10.3313
が無い	-10.3315
日本酒の	-10.3316
なくなる	-10.3316
だけではなく	-10.3316
ところもある	-10.3322
ようになっている	-10.3325
口に	-10.3326
85	-10.3335
メートルの	-10.3336
本願	-10.3337
本殿	-10.3339
諸仏	-10.3341
かり	-10.3344
を入れた	-10.3348
大阪の	-10.335
抜け	-10.335
閣	-10.3356
その上に	-10.3357
山王	-10.3362
ついた	-10.3365
タン	-10.3365
が出	-10.3368
大和国	-10.3372
期待	-10.3374
項目	-10.3376
手を	-10.3386
数十	-10.3386
の建物	-10.3392
分解	-10.3393
あて	-10.3395
かせ	-10.34
通常は	-10.34
わか	-10.3402
れて	-10.3405
原因	-10.341
悟	-10.3413
部分に	-10.3415
目的で	-10.3417
八幡	-10.3423
主として	-10.3431
右手	-10.3432
磨	-10.3433
誉	-10.3437
規	-10.3439
夕	-10.3441
のもと	-10.3443
由	-10.3444
の技法	-10.3447
軸	-10.3448
芽	-10.345
又	-10.345
訓	-10.345
もこの	-10.3451
することが	-10.3453
剤	-10.3453
袍	-10.3453
猫	-10.3453
濁	-10.3453
此	-10.3454
十八	-10.3454
岐阜県	-10.3454
振袖	-10.3454
写本	-10.3454
トロ	-10.3455
処理	-10.3455
民族	-10.3455
鑑真	-10.3456
真宗	-10.3458
争い	-10.3458
明治以降	-10.346
の二	-10.3461
大小	-10.3464
源氏	-10.3466
絵巻物	-10.3468
食べ方	-10.347
文政	-10.3472
例外	-10.3474
を得る	-10.3476
京阪	-10.3477
農家	-10.3477
▁この場合	-10.3481
一条	-10.3486
▁鎌倉時代	-10.3487
190	-10.3489
76	-10.3491
法名	-10.3491
できた	-10.3495
硬	-10.3498
にわたって	-10.3499
著作	-10.3503
新暦	-10.3504
は約	-10.3506
小説	-10.351
門流	-10.3514
▁中	-10.3524
実践	-10.353
あら	-10.3531
練	-10.3542
てから	-10.3543
のものは	-10.3552
当時は	-10.3553
に比べ	-10.3554
座主	-10.3555
以前	-10.3558
を認め	-10.356
釈迦の	-10.3561
たという	-10.3566
赤い	-10.3568
実際の	-10.3572
食堂	-10.3576
53	-10.3577
日本において	-10.3585
仕上げ	-10.3593
幕府の	-10.3596
のか	-10.3597
を結ぶ	-10.36
推定	-10.3603
堺	-10.3607
芝	-10.3607
小笠原	-10.3608
に入れ	-10.3611
呉	-10.3611
畑	-10.3611
呂	-10.3611
雛	-10.3611
姓	-10.3613
膝	-10.3613
吟	-10.3613
▁平安時代	-10.3614
橘	-10.3615
大徳寺	-10.3615
ゲーム	-10.3615
を除き	-10.3615
1999	-10.3615
に師事して	-10.3615
確保	-10.3615
南無阿弥陀仏	-10.3615
千葉県	-10.3615
福岡県	-10.3618
色彩	-10.3618
細川	-10.3618
例えば	-10.362
成り	-10.3622
1970	-10.3623
採用	-10.3625
ばかり	-10.3626
▁更に	-10.3626
最近では	-10.3627
大坂	-10.3627
神戸	-10.3634
のほかに	-10.3634
出来	-10.3635
一乗	-10.3637
▁ところが	-10.3641
忍者	-10.3645
やはり	-10.3645
▁中世	-10.3646
鰻	-10.3647
天海	-10.3651
日本独自の	-10.3652
まき	-10.3655
わら	-10.3656
購入	-10.3662
本社	-10.3665
的屋	-10.3668
門弟	-10.3669
土間	-10.3671
の強い	-10.3686
着用する	-10.3692
万人	-10.3698
の上で	-10.37
日付	-10.3701
日本人の	-10.3702
学問	-10.3705
りん	-10.3705
十一面観音	-10.3709
限定	-10.3713
西日本	-10.3715
のみが	-10.372
ろく	-10.3724
支配	-10.3725
1993	-10.3727
死去	-10.3729
代表	-10.3732
浴衣	-10.3734
守護	-10.3735
黄色	-10.3741
らん	-10.3741
投	-10.3748
こうじ	-10.3749
▁当初は	-10.375
臭	-10.3753
四条	-10.3755
81	-10.3757
チャ	-10.3759
構え	-10.3761
晩年	-10.3772
児	-10.3774
京都市東山区	-10.3775
菌	-10.3776
西本願寺	-10.3776
一定	-10.3777
酒類	-10.3779
塀	-10.3779
聖徳太子	-10.3779
娯楽	-10.3779
キャベツ	-10.3779
渓	-10.3779
w	-10.3779
狐	-10.3779
硯	-10.3779
養殖	-10.3779
煩悩	-10.3779
参詣	-10.3779
宮廷	-10.3779
混乱	-10.3779
資格	-10.3779
世紀前半	-10.3779
▁俗姓は	-10.378
長崎	-10.378
ート	-10.378
を学び	-10.3781
金箔	-10.3781
とも言われている	-10.3783
設備	-10.3783
成人式	-10.3783
くり	-10.3784
目録	-10.3786
がん	-10.3787
初期の	-10.3788
円仁	-10.3788
複雑な	-10.379
せる	-10.3794
送り	-10.3794
を設け	-10.3794
を指して	-10.3796
▁水	-10.3797
店で	-10.3801
特別な	-10.3813
ビル	-10.3815
煮物	-10.3816
を学んだ	-10.3816
1998	-10.3827
で知られる	-10.3832
区分	-10.3833
衰退	-10.3839
所属	-10.3843
の具	-10.3845
登場	-10.3863
の販売	-10.3865
独立した	-10.3866
突	-10.3867
法を	-10.3867
室内	-10.3869
最大の	-10.3873
▁中国では	-10.3876
扱う	-10.3882
域	-10.3885
出身	-10.3885
子の	-10.3885
出身の	-10.3889
▁醤油	-10.389
もあって	-10.3895
:「	-10.3896
イタリア	-10.3897
吟醸酒	-10.3899
作家	-10.3912
美濃	-10.3912
秋の	-10.3913
観音菩薩	-10.3914
述	-10.3916
含	-10.3916
は日本の	-10.3917
試	-10.3917
参考	-10.3924
危険	-10.3927
と同様の	-10.3929
中には	-10.3929
済	-10.3931
発表	-10.3936
超	-10.3938
享保	-10.3939
奈良時代の	-10.3939
貴重な	-10.394
ロン	-10.394
部分を	-10.3942
充	-10.3943
を扱う	-10.3943
所有	-10.3943
競馬	-10.3944
滑	-10.3945
フィ	-10.3945
アミノ酸	-10.3945
改革	-10.3946
の行事	-10.3946
週間	-10.3947
ミカン	-10.3947
修験道	-10.3947
濃い	-10.3948
山形県	-10.3948
仏舎利	-10.3948
略称	-10.3949
同様	-10.3949
感覚	-10.3951
を楽しむ	-10.3955
付属	-10.3957
南側	-10.3957
柔らかく	-10.396
方は	-10.3962
唐紙	-10.3967
をつけて	-10.3967
在家	-10.397
サクラ	-10.397
蕎麦屋	-10.3971
別に	-10.3974
床の間	-10.3976
高僧	-10.3976
例もある	-10.3978
▁近世	-10.3983
女子	-10.3983
企画	-10.3992
室町	-10.3996
少ない	-10.3996
上方落語	-10.4005
64	-10.4006
舞鶴市	-10.4007
道教	-10.4007
成功	-10.401
招	-10.401
普及した	-10.401
71	-10.4011
ねん	-10.4013
古く	-10.402
世間	-10.4021
しま	-10.4024
名号	-10.4025
江戸期	-10.4028
竣工	-10.403
商人	-10.4031
平安時代中期	-10.4032
遍	-10.4034
ことが多かった	-10.4037
天皇が	-10.4047
おか	-10.4049
表面に	-10.4053
大正時代	-10.4053
上野	-10.4056
となっており	-10.4058
に使う	-10.4059
変わり	-10.406
ぶり	-10.4061
春の	-10.4071
一休	-10.4075
お茶	-10.4076
酒は	-10.4077
定められた	-10.4079
▁願	-10.408
淡	-10.4084
皇室	-10.4092
今日の	-10.41
いう	-10.41
財	-10.4101
拳	-10.4105
切って	-10.4106
藁	-10.4111
激	-10.4113
カップ	-10.4115
サイズ	-10.4115
練習	-10.4115
神奈川県	-10.4115
陶器	-10.4116
武将	-10.4116
えない	-10.4117
平安時代前期	-10.4118
を得	-10.4119
覚如	-10.412
寒天	-10.4122
便所	-10.4122
の乱	-10.4123
姿勢	-10.4123
著名な	-10.4124
社殿	-10.4125
番組	-10.4126
味わい	-10.4127
東京の	-10.4128
河内	-10.4128
関東地方	-10.4129
対立	-10.413
有名	-10.413
九条	-10.4131
まえ	-10.4131
塔頭	-10.4132
▁同年	-10.4134
と言った	-10.4135
の元	-10.4139
遺物	-10.4142
パート	-10.4143
邦楽	-10.4144
なければならない	-10.4146
法師	-10.4146
対応	-10.4149
をかけ	-10.4153
焼いた	-10.4156
飛び	-10.4157
などにも	-10.4162
名が	-10.4164
店の	-10.4164
救済	-10.4166
に始まる	-10.417
多くは	-10.4171
しめ	-10.4172
地位	-10.4173
大陸	-10.4175
かに	-10.4178
部分は	-10.4182
に加え	-10.419
▁2008	-10.4199
供物	-10.4205
等に	-10.4211
需要	-10.4214
かき	-10.4216
造られた	-10.4219
のみである	-10.4232
見られた	-10.4236
なま	-10.4237
坐	-10.4244
まれた	-10.4248
宇	-10.4251
鳴	-10.4253
行政	-10.426
貼り	-10.4261
を加えた	-10.4264
する場合	-10.4266
郷土料理	-10.4266
と称した	-10.4268
スター	-10.4269
の一人	-10.4273
遣	-10.4276
詳細は	-10.4276
を使い	-10.4277
しても	-10.4277
撃	-10.4278
手の	-10.4278
附	-10.4281
其	-10.4283
泰	-10.4284
▁最近では	-10.4284
交通	-10.4285
洞	-10.4286
刺	-10.4287
ゼ	-10.4287
磯	-10.4287
財団法人	-10.4287
羊羹	-10.4287
尻	-10.4287
イセエビ	-10.4287
一寸法師	-10.4287
埼玉県	-10.4287
のではないか	-10.4288
弾圧	-10.4288
篠笛	-10.4288
特色	-10.4288
座布団	-10.4289
円珍	-10.429
鹿児島県	-10.429
任命	-10.429
記念館	-10.4291
玄関	-10.4291
備	-10.4292
歌詞	-10.4293
飲用	-10.4294
に至るまで	-10.4295
付けられた	-10.4296
ある程度	-10.4296
処分	-10.4296
を与える	-10.4297
包丁	-10.4297
上皇	-10.4297
行動	-10.4303
の一環として	-10.4306
全国に	-10.4306
華道	-10.4307
共同	-10.4307
ナー	-10.431
山城国	-10.431
楼	-10.4319
小路	-10.432
天保	-10.432
行者	-10.4321
茶会	-10.4323
カラ	-10.4324
仁和寺	-10.433
からも	-10.4332
なくなり	-10.4333
僧侶の	-10.4333
が主流	-10.4333
みかん	-10.4334
晩	-10.4338
風流	-10.4338
説がある	-10.4344
発掘	-10.4347
収	-10.4352
時点で	-10.4353
維持	-10.4354
晴	-10.4356
化された	-10.4357
伏	-10.4362
ゲ	-10.4365
本丸	-10.4366
▁かつて	-10.437
男子	-10.4371
の開祖	-10.4372
についての	-10.4372
有り	-10.4374
ができる	-10.4379
道路	-10.4381
を立て	-10.4388
天下	-10.4394
炊き	-10.4395
というもの	-10.4395
史跡	-10.4398
能力	-10.44
まち	-10.4401
必要がある	-10.4406
観念	-10.4411
降	-10.4411
のことを指す	-10.4412
2000	-10.4415
料理である	-10.4415
性質	-10.4417
参拝	-10.4419
資料館	-10.442
願い	-10.4423
も少なくない	-10.4436
菱	-10.4437
四方	-10.4438
乗り	-10.4438
月には	-10.444
▁新	-10.4441
議	-10.4442
東海	-10.4443
君	-10.4448
ひら	-10.445
も見られる	-10.4451
懐	-10.4451
四天王	-10.4453
形式の	-10.4454
迫	-10.4455
▁江戸	-10.446
架	-10.446
裸	-10.4461
寮	-10.4461
毬	-10.4462
刺繍	-10.4463
群馬県	-10.4463
真宗大谷派	-10.4463
福井県	-10.4463
貯蔵	-10.4463
京都府京都市	-10.4463
派生	-10.4463
三曲合奏	-10.4463
荘厳	-10.4464
未満	-10.4464
利益	-10.4464
る事	-10.4465
続き	-10.4465
大蔵経	-10.4466
少女	-10.4467
無料	-10.447
日光	-10.447
を中心として	-10.4471
模写	-10.4472
記事	-10.4472
格式	-10.4473
ことによる	-10.4476
かつては	-10.4477
画面	-10.4481
様子	-10.4486
▁五	-10.4486
長野県	-10.449
急速に	-10.4491
ことや	-10.4491
射手	-10.45
52	-10.45
日から	-10.45
事は	-10.4501
造形	-10.4501
主要な	-10.4504
と呼ばれるようになった	-10.4508
出荷	-10.451
ヶ月	-10.4512
を利用して	-10.4515
の没後	-10.4517
集中	-10.4521
大人	-10.4523
をつけ	-10.4525
これも	-10.4528
御用	-10.4529
詰	-10.4532
語り	-10.4532
が入る	-10.4534
外部	-10.4537
する者	-10.4539
国立	-10.4539
地域では	-10.454
しゃく	-10.4545
絃	-10.4547
自体	-10.4556
下車	-10.4559
なもの	-10.4561
仏師	-10.4566
わずか	-10.4568
用いられている	-10.4568
のう	-10.457
後世の	-10.4575
大変	-10.4576
▁各	-10.4578
これらは	-10.4579
表面	-10.4585
茶入	-10.4588
を学ぶ	-10.459
と伝えられている	-10.4591
阿弥陀	-10.4593
当日	-10.4596
撰	-10.4598
彫	-10.4599
及	-10.4601
誓	-10.4604
告	-10.4607
包み	-10.4607
縄	-10.4612
捨て	-10.4616
鑑	-10.4619
着る	-10.4621
山荘	-10.4627
象	-10.4629
教会	-10.463
融	-10.463
杯	-10.4631
光院	-10.4632
和弓	-10.4633
とは別に	-10.4634
握り	-10.4634
を打つ	-10.4634
値	-10.4635
廟	-10.4635
縮	-10.4636
漉き	-10.4636
般若	-10.4636
丹波	-10.4637
腐	-10.4638
▁東大寺	-10.464
納め	-10.4641
三昧	-10.4641
に向かって	-10.4641
帝釈天	-10.4641
–	-10.4641
笙	-10.4641
笹	-10.4641
アワビ	-10.4641
香川県	-10.4642
山梨県	-10.4642
人口	-10.4642
ジャンル	-10.4642
戦闘	-10.4642
整理	-10.4642
地方自治体	-10.4643
師匠	-10.4643
拝殿	-10.4644
山車	-10.4644
導師	-10.4644
とは異なり	-10.4646
印相	-10.4649
料金	-10.4649
会館	-10.465
の関係	-10.4652
建具	-10.4652
応用	-10.4655
文永	-10.4656
街道	-10.4663
漢訳	-10.4666
東北地方	-10.4668
死者	-10.4669
単位	-10.4676
<	-10.4678
垂	-10.4678
と異なり	-10.4678
▁代表的な	-10.4685
等を	-10.4685
国師	-10.4687
しら	-10.4687
奏	-10.4688
カル	-10.4688
伝えられている	-10.4689
ップ	-10.4692
みな	-10.4696
分派	-10.4698
72	-10.4701
依頼	-10.4706
を通して	-10.4707
唐手	-10.4707
過程で	-10.4709
付く	-10.471
見える	-10.4713
▁よって	-10.4719
終わり	-10.4728
残っている	-10.473
室町時代に	-10.473
世紀の	-10.4731
▁古代	-10.4731
添え	-10.4732
を参照のこと	-10.4742
植え	-10.4745
千家	-10.4748
よし	-10.4749
日本へ	-10.4751
を多く	-10.4752
▁但し	-10.4753
と考える	-10.4756
酒が	-10.4757
蒸	-10.4757
を始め	-10.4759
中国で	-10.4762
事で	-10.4767
法会	-10.477
世紀末	-10.4771
めい	-10.4772
信長	-10.4773
消	-10.4778
を打ち	-10.4779
空海が	-10.4788
制定	-10.4788
陸	-10.4788
浄土真宗の	-10.4789
ようだ	-10.4789
沖縄県	-10.479
▁逆に	-10.4792
のが特徴	-10.4797
彩	-10.48
▁南	-10.48
▁江戸時代の	-10.4801
待	-10.4804
の墓	-10.4805
導入	-10.4807
明治時代	-10.4808
全国の	-10.4808
箇	-10.4811
裁	-10.4812
挙	-10.4813
荷	-10.4814
とする説もある	-10.4815
浸	-10.4816
57	-10.4816
圧	-10.4816
倭	-10.4817
茂	-10.482
たため	-10.4821
レストラン	-10.4823
鯛	-10.4823
祐	-10.4823
具体的な	-10.4823
監督	-10.4823
篳篥	-10.4823
繁殖	-10.4823
人々が	-10.4823
塵	-10.4823
豚カツ	-10.4823
鉄砲	-10.4824
装置	-10.4824
印象	-10.4824
有効	-10.4824
題材	-10.4824
豆乳	-10.4824
清浄	-10.4825
改修	-10.4825
足袋	-10.4825
っぱ	-10.4826
新潟県	-10.4826
服装	-10.4826
東福寺	-10.4827
階級	-10.4827
少数	-10.4828
先祖	-10.4831
斎宮	-10.4832
ノリ	-10.4834
地上	-10.4834
若い	-10.4834
永正	-10.4835
なっている	-10.4837
四国	-10.4841
が描かれている	-10.4846
と称された	-10.4846
94	-10.4848
文庫	-10.485
力を	-10.4851
はん	-10.4855
画像	-10.4857
外国人	-10.4861
射法	-10.4865
下の	-10.4867
月から	-10.4871
身の	-10.4876
ラー	-10.4887
たま	-10.4887
松明	-10.489
発見	-10.4898
上げる	-10.49
しなかった	-10.49
ってきた	-10.4903
on	-10.4903
種類がある	-10.4903
成人	-10.4907
植	-10.491
に登場する	-10.4915
のひとつである	-10.4916
さず	-10.4918
▁日本で	-10.4925
店が	-10.4936
もち米	-10.4936
じる	-10.4937
部分が	-10.4945
写	-10.4947
▁一般的に	-10.4954
迎え	-10.4954
百済	-10.4956
つけて	-10.4959
敗	-10.4962
西側	-10.4967
古墳時代	-10.4967
懸	-10.4978
武士の	-10.498
の際には	-10.4983
原則として	-10.4984
伸び	-10.4987
明治維新	-10.4987
▁文化財	-10.4989
はず	-10.4989
▁2005	-10.499
競	-10.4992
作成	-10.4993
は少ない	-10.4996
どこ	-10.4998
鵜飼	-10.5001
宿泊	-10.5001
庁	-10.5001
発売	-10.5001
湾	-10.5003
斉	-10.5007
粋	-10.5008
鵜	-10.5008
遇	-10.5008
規則	-10.5008
U	-10.5008
妙心寺	-10.5008
誠	-10.5008
饅頭	-10.5008
酛	-10.5008
髷	-10.5008
特有の	-10.5008
三重県	-10.5009
福島県	-10.5009
翻訳	-10.5009
振興	-10.5009
皇帝	-10.5009
高麗	-10.5009
供給	-10.5009
寄進	-10.501
とも書く	-10.501
おろし	-10.5011
師範	-10.5011
海老	-10.5013
追い	-10.5013
▁他の	-10.5013
之助	-10.5014
普通	-10.5015
甘み	-10.5015
開業	-10.5016
若者	-10.5017
傾向にある	-10.5017
家屋	-10.5018
二つの	-10.5019
調味	-10.5022
絵巻	-10.5023
干	-10.5024
を説いた	-10.5026
本体	-10.5027
毎日	-10.5028
)8	-10.5032
サー	-10.5036
を問わず	-10.5039
十郎	-10.5039
▁このほか	-10.5044
000	-10.5044
を有し	-10.5045
昔	-10.5045
二代目	-10.5046
紀元前	-10.5047
タイ	-10.5048
に任じられ	-10.5051
堅	-10.5052
教化	-10.5052
みつ	-10.5054
出現	-10.5062
食器	-10.5062
の成立	-10.5063
酒屋	-10.5063
であって	-10.5063
法律	-10.5064
ものと思われる	-10.5069
向けの	-10.5072
方を	-10.5073
クリ	-10.5077
言う	-10.508
それらの	-10.5085
酸化	-10.5087
辛	-10.5091
>	-10.5092
解体	-10.5093
を務めた	-10.5097
という名称	-10.5097
統	-10.5099
バラ	-10.51
が存在した	-10.5101
沼	-10.5109
すぐに	-10.511
▁京都市	-10.5123
大本山	-10.5124
マー	-10.5124
頭に	-10.5127
左手に	-10.5133
西方	-10.5139
66	-10.5141
化され	-10.5141
嵯峨	-10.5143
にん	-10.5152
と考えられ	-10.5153
城の	-10.5154
臣	-10.5165
もなく	-10.517
唯一	-10.5172
は不明である	-10.5177
摂	-10.5182
ざん	-10.5183
を代表する	-10.5183
ではなかった	-10.5184
大原	-10.5185
建築様式	-10.5185
旗	-10.5187
棹	-10.5188
弥	-10.5189
取る	-10.5191
讃	-10.5193
していたが	-10.5193
設定	-10.5193
返し	-10.5196
綾	-10.5197
ビタミン	-10.5197
あらかじめ	-10.5197
芯	-10.5197
熊本県	-10.5197
明かり障子	-10.5197
珍しい	-10.5198
としていた	-10.5198
かき氷	-10.5198
倉庫	-10.5198
継続	-10.5198
伊勢神宮	-10.5198
広まり	-10.5199
厳しい	-10.5199
身体	-10.5199
一向宗	-10.5199
えて	-10.52
ゴマ	-10.52
後醍醐天皇	-10.5201
木綿	-10.5203
方針	-10.5204
遊女	-10.5205
長唄	-10.5205
平安時代に	-10.5205
たか	-10.5208
双方	-10.5208
家康	-10.5209
おかず	-10.521
中央に	-10.5211
たとえ	-10.5211
の由来	-10.5212
米の	-10.5217
地方では	-10.5218
廃止	-10.5221
弥勒菩薩	-10.5222
仏塔	-10.5222
せた	-10.5226
を見る	-10.5228
こちら	-10.5231
じゃ	-10.5233
福寺	-10.5233
各派	-10.5236
近年は	-10.5236
専	-10.5237
大会	-10.5237
述べた	-10.5238
安定	-10.5239
考え方	-10.524
作用	-10.5244
口伝	-10.5247
弘法大師	-10.5248
の一つで	-10.5249
数え年	-10.5249
場合も多い	-10.525
頃まで	-10.5252
られており	-10.5252
表千家	-10.5255
とよばれる	-10.5255
mm	-10.5259
他にも	-10.5259
であるとされる	-10.5262
)10	-10.5264
南宋	-10.5264
木製の	-10.5266
▁このことから	-10.5268
160	-10.5269
ことが出来る	-10.5272
載	-10.5272
全体の	-10.5276
いま	-10.5276
風景	-10.5281
京の	-10.5282
▁浄土真宗	-10.5283
の各	-10.5285
北部	-10.5293
.0	-10.5294
an	-10.5296
入りの	-10.5298
どん	-10.5301
と読む	-10.5304
総称	-10.5305
使用される	-10.5305
かま	-10.5305
が必要である	-10.5307
宝物	-10.5308
方の	-10.5308
と言われ	-10.5308
作り方	-10.5311
発展し	-10.5314
自身が	-10.5316
の思想	-10.5322
することは	-10.5336
城主	-10.5337
地元の	-10.5338
で食べる	-10.534
起こ	-10.534
のもとで	-10.5341
77	-10.5342
を守る	-10.5348
無い	-10.5349
和食	-10.5352
資	-10.5353
中国から	-10.5355
用いた	-10.5356
の邸宅	-10.5358
代用	-10.5363
肴	-10.5365
現地	-10.5366
研究者	-10.5368
)(16	-10.5373
〉	-10.5374
誤	-10.5374
昇	-10.5377
棺	-10.5378
きょうと	-10.5379
容易に	-10.5384
通し	-10.5384
胡	-10.5384
の国	-10.5386
烏	-10.5386
ジョ	-10.5387
漫才	-10.5387
蘇	-10.5387
唐辛子	-10.5388
大工	-10.5388
槍	-10.5388
たけ	-10.5388
▁それは	-10.5389
掲	-10.5389
に基づき	-10.5389
妙法蓮華経	-10.5389
システム	-10.5389
礼拝	-10.539
吉兆	-10.539
風呂敷	-10.539
演劇	-10.539
細工	-10.539
摂津国	-10.5391
勝負	-10.5391
検	-10.5396
動作	-10.5397
吉野	-10.5399
養子	-10.54
飲食店	-10.5401
▁東京	-10.5402
2009	-10.5402
の色	-10.5404
関白	-10.5404
小倉	-10.5406
建築物	-10.5407
直線	-10.5407
の中では	-10.5408
ここに	-10.5413
自身の	-10.542
茶道具	-10.5421
)、『	-10.5422
事相	-10.5422
1000	-10.5425
などによって	-10.5425
日興	-10.5426
原則	-10.5426
御文	-10.5427
近い	-10.543
蒲焼	-10.5433
さか	-10.5433
唯一の	-10.5441
▁号は	-10.5441
の道	-10.5445
冬の	-10.5447
会長	-10.5448
建物の	-10.5449
六道	-10.5452
事もある	-10.5452
○	-10.5453
鑑賞	-10.5454
中国語	-10.5456
たとえば	-10.546
上部	-10.5465
○○	-10.5468
浅草	-10.547
の一つとして	-10.547
作られ	-10.5471
刀身	-10.5472
水に	-10.5474
で行われた	-10.5474
▁東	-10.5478
が有名	-10.5481
or	-10.5481
▁これに対して	-10.5482
圏	-10.5484
欧米	-10.5484
こく	-10.5486
宗門	-10.5488
化して	-10.5489
ことになった	-10.5492
るもの	-10.5494
緑茶	-10.5494
ものではなく	-10.5499
縁日	-10.5503
食文化	-10.5507
生成	-10.5509
伝えられた	-10.5509
焼け	-10.551
価	-10.5512
もない	-10.5517
92	-10.5532
支持	-10.5532
であったため	-10.5539
宴会	-10.5539
崇	-10.5545
行い	-10.555
▁白	-10.5555
さない	-10.5557
他宗	-10.5557
宅	-10.556
後も	-10.5565
と見られる	-10.5566
伝書	-10.5568
騎	-10.5571
の曲	-10.5574
が最も	-10.5575
吸	-10.5575
紅葉	-10.5575
株	-10.5576
潮	-10.5577
庄	-10.5581
払い	-10.5583
獣	-10.5584
苑	-10.5584
V	-10.5585
ヒンドゥー教	-10.5585
宮内庁	-10.5585
宗務支所	-10.5585
竈	-10.5585
囲炉裏	-10.5585
世紀初頭	-10.5585
当然	-10.5585
試験	-10.5585
▁従って	-10.5586
ジュ	-10.5586
授戒	-10.5586
束帯	-10.5588
見た目	-10.559
果実	-10.5591
方便	-10.5591
が入っている	-10.5594
銀行	-10.5595
定番	-10.5595
天武天皇	-10.5596
出た	-10.5598
を利用した	-10.5599
使った	-10.5601
法相宗	-10.5602
1940	-10.5602
舞踊	-10.5603
97	-10.5604
墳丘	-10.5609
千代	-10.5611
色は	-10.5612
山科	-10.5613
混ぜ	-10.5613
に建てられた	-10.5615
東本願寺	-10.5616
余り	-10.5617
現実	-10.5622
内宮	-10.5627
ふぐ	-10.5629
されてきた	-10.5634
1948	-10.5635
基本的な	-10.5639
ことはない	-10.5641
▁真言宗	-10.5641
で作った	-10.5642
とうじ	-10.5643
を描く	-10.565
の料理	-10.5653
前後の	-10.5655
は必ずしも	-10.5658
の言葉	-10.5659
したのは	-10.5659
そこで	-10.5661
江戸時代から	-10.5664
真言密教	-10.5665
茶漬け	-10.5665
詠	-10.5667
物である	-10.5668
景観	-10.5672
但し	-10.5673
現状	-10.5673
祭神	-10.5673
おい	-10.5674
旅行	-10.5677
戦い	-10.5677
つぶ	-10.5677
の材料	-10.5679
ついで	-10.5679
95	-10.5683
人数	-10.5687
連続	-10.5689
目の	-10.5692
前後に	-10.5695
は中国	-10.57
かず	-10.5702
濃	-10.5705
取り入れ	-10.5711
普通の	-10.5713
ほとんどが	-10.5715
最中	-10.5715
歴史的	-10.5719
をかけた	-10.5719
心を	-10.5722
省略	-10.5727
あわせ	-10.5727
つる	-10.5727
ュ	-10.573
江戸時代後期	-10.5731
明らかに	-10.5735
匠	-10.5741
伝統的	-10.5757
に移転	-10.5762
俗に	-10.5762
変わった	-10.5767
以下のように	-10.5769
)、「	-10.577
などでも	-10.577
秘密	-10.577
さし	-10.5772
家は	-10.5773
囲	-10.5774
還	-10.5774
寧	-10.5774
泥	-10.5775
鉾	-10.5776
自身	-10.5776
近衛	-10.5777
浴	-10.5777
との関係	-10.5777
鴨	-10.578
陀	-10.578
▁平成	-10.578
およそ	-10.5781
掘	-10.5782
自体が	-10.5783
損	-10.5783
涼	-10.5783
フェ	-10.5784
恋	-10.5784
大韓民国	-10.5785
コレクション	-10.5785
琉球	-10.5785
南蛮	-10.5785
般若心経	-10.5785
あらゆる	-10.5785
雰囲気	-10.5785
薪	-10.5785
かまぼこ	-10.5785
冷凍	-10.5786
消息	-10.5786
僧都	-10.5786
130	-10.5786
日には	-10.5786
善導	-10.5787
開扉	-10.5787
節句	-10.5787
団扇	-10.5787
細かい	-10.5788
説話	-10.5789
八幡宮	-10.5789
相続	-10.5789
酒粕	-10.5789
多い	-10.5789
フグ	-10.5789
連合	-10.5789
破風	-10.579
銭湯	-10.579
標準	-10.579
を構え	-10.579
見解	-10.5791
横笛	-10.5792
改正	-10.5792
免許	-10.5793
の形態	-10.5794
タコ	-10.5796
発生	-10.5796
号壁	-10.5798
西洋の	-10.58
するのは	-10.58
改めて	-10.5801
が見える	-10.5802
再生	-10.5807
京都市上京区	-10.5808
大いに	-10.5809
入り口	-10.5813
外宮	-10.5818
奏者	-10.582
厚く	-10.5821
してから	-10.5823
授与	-10.5824
住民	-10.5833
造られ	-10.5833
独自に	-10.5833
is	-10.5842
のみを	-10.5842
新年	-10.5844
唐の	-10.5858
日本画	-10.5858
弥勒	-10.586
正しい	-10.5862
いている	-10.5864
中華人民共和国	-10.5866
使用されている	-10.5867
歌舞伎の	-10.5869
▁明治時代	-10.5871
形を	-10.5871
後世	-10.5874
真言宗の	-10.5874
下り	-10.5876
1960	-10.5878
ときには	-10.588
ながらも	-10.5883
オープン	-10.589
無し	-10.589
物として	-10.5891
ではないか	-10.5893
葺	-10.5894
に指定	-10.5898
in	-10.5898
るが	-10.591
求	-10.5911
事情	-10.592
に位置し	-10.5923
後者	-10.5926
されることが多い	-10.5928
の次男	-10.5929
後ろ	-10.5929
一枚	-10.593
居住	-10.5941
醍醐	-10.595
パー	-10.5953
使用された	-10.5956
部門	-10.5956
ライス	-10.5957
▁その結果	-10.5958
と考え	-10.5959
小野	-10.5963
暗	-10.5963
地で	-10.5964
ものや	-10.5965
音階	-10.5965
かれる	-10.5966
)※	-10.5967
十五	-10.5971
置き	-10.5972
北側	-10.5973
悲	-10.5973
普	-10.5974
一般には	-10.5974
憲	-10.5976
したものを	-10.5977
阿弥	-10.5979
▁生	-10.598
痛	-10.5982
貴族の	-10.5983
冊	-10.5983
やく	-10.5983
基本	-10.5987
芳	-10.5987
ヘ	-10.5988
藩主	-10.5988
話題	-10.5988
入滅	-10.5988
69	-10.5988
緩	-10.5989
辰	-10.5989
國	-10.5989
コンビニエンスストア	-10.5989
糊	-10.5989
大分県	-10.5989
もっぱら	-10.5989
沿革	-10.599
永平寺	-10.599
火縄銃	-10.599
アニメ	-10.599
畿内	-10.599
1987	-10.599
平均	-10.599
カツオ	-10.5991
天の川	-10.5991
興隆	-10.5992
大量の	-10.5992
上がり	-10.5993
雑煮	-10.5993
笑い	-10.5993
ルール	-10.5994
生産量	-10.5995
固	-10.5996
秘仏	-10.5996
斬	-10.5996
ていなかった	-10.5997
ともいい	-10.5997
を付ける	-10.5997
相手の	-10.5999
法親王	-10.5999
せき	-10.6
孔子	-10.6
下着	-10.6001
文殊菩薩	-10.6001
に分けられる	-10.6001
略して	-10.6001
と呼んでいる	-10.6002
買い	-10.6002
疑	-10.6003
運行	-10.6005
進行	-10.6007
意図	-10.601
緑色	-10.6011
酒質	-10.6011
芸道	-10.6015
va	-10.6016
などにより	-10.6017
北山	-10.6018
雅楽の	-10.6021
ta	-10.6028
差し	-10.6029
食する	-10.6029
99	-10.6029
留め	-10.603
カビ	-10.6033
生まれた	-10.6033
それ以外の	-10.6056
本土	-10.6056
色が	-10.6062
目に	-10.6063
人もいる	-10.6068
山田	-10.6069
が使われる	-10.6071
東国	-10.6073
女神	-10.6077
かえ	-10.6082
▁戦国時代	-10.6084
用いられていた	-10.6086
中学校	-10.6088
攻	-10.6092
覆	-10.6094
部位	-10.6099
は基本的に	-10.6104
紋付	-10.6104
っと	-10.6111
各種の	-10.6111
ないため	-10.6115
範囲	-10.6115
の方	-10.6116
空海の	-10.6117
今日では	-10.6118
いし	-10.612
-1	-10.6121
元日	-10.6121
▁この頃	-10.6122
▁現代では	-10.6124
様々	-10.6124
にとっては	-10.6133
の舞	-10.6135
さら	-10.6136
考案された	-10.6139
ませ	-10.6139
本部	-10.614
派遣	-10.6141
山寺	-10.6142
登場した	-10.6143
と称して	-10.6143
と違い	-10.6143
しやすい	-10.6147
歌人	-10.6147
認識	-10.615
の音楽	-10.6154
が多数	-10.6155
籍	-10.6165
89	-10.6166
に至った	-10.6179
地域で	-10.6179
薬師	-10.6184
の始まり	-10.6184
払	-10.6185
もその	-10.6186
の産地	-10.6187
護摩	-10.6189
飴	-10.619
開花	-10.6193
賀茂	-10.6193
輩	-10.6193
健	-10.6196
醪	-10.6196
研	-10.6196
稲荷	-10.6197
委員会	-10.6197
杵	-10.6197
膠	-10.6197
潜	-10.6198
椀	-10.6198
牧	-10.6198
櫛	-10.6198
〔	-10.6198
〕	-10.6198
功績	-10.6198
聖武天皇	-10.6198
夫婦	-10.6198
審判	-10.6198
チーム	-10.6198
失敗	-10.6198
懐石	-10.6199
▁原文	-10.6199
立川流	-10.6199
商売	-10.6199
公案	-10.6201
過去	-10.6201
油揚げ	-10.6201
刀剣	-10.6202
うる	-10.6204
観世流	-10.6204
長崎県	-10.6205
こみ	-10.6205
数学	-10.6205
陣屋	-10.6205
江戸城	-10.6207
サンスクリット語	-10.6207
権現	-10.6207
シン	-10.6207
火入れ	-10.6209
人工	-10.621
河川	-10.621
一遍	-10.6213
として用いられる	-10.6214
正式な	-10.6217
舞楽	-10.6218
南朝	-10.6222
の前	-10.6225
技術が	-10.6225
飲食	-10.6228
海軍	-10.6229
反り	-10.6231
場所に	-10.6232
方法で	-10.6234
小型の	-10.6238
裂	-10.6239
(=	-10.624
-8	-10.624
巨大な	-10.624
を模した	-10.6242
もまた	-10.6248
1945	-10.6248
専門店	-10.625
正月に	-10.626
少なく	-10.626
と称し	-10.6263
自体は	-10.6263
いくつか	-10.6265
判断	-10.6267
リア	-10.6268
瑞	-10.6274
みず	-10.6275
ではないが	-10.6275
▁187	-10.6276
帰依	-10.6277
もつ	-10.6277
us	-10.6278
のちの	-10.6279
階層	-10.6281
利用される	-10.6282
日目	-10.6283
池田	-10.6283
十六	-10.6293
を出し	-10.6294
だという	-10.6294
園城寺	-10.6295
保管	-10.6296
の音	-10.6307
若干	-10.6312
たのは	-10.6312
900	-10.6316
▁高	-10.6319
語源	-10.632
救	-10.6325
五十	-10.6328
ないので	-10.6331
過程	-10.6331
働き	-10.6338
途	-10.6338
1.	-10.6339
徳川	-10.634
残る	-10.634
数多くの	-10.6343
が使用される	-10.6344
きわめて	-10.6344
宝塔	-10.6345
回転	-10.6345
大蔵	-10.6351
を使用し	-10.6352
修行者	-10.6353
本門	-10.6359
かれた	-10.6361
基本的に	-10.6368
出雲	-10.6375
近畿	-10.6379
終了	-10.638
料理屋	-10.6382
混	-10.6383
導	-10.6385
礼服	-10.6387
ないよう	-10.6388
▁もともと	-10.6392
丹後	-10.6396
回目	-10.6396
禄	-10.6396
偽	-10.6398
屋根の	-10.6401
材質	-10.6401
召	-10.6402
▁旧	-10.6404
賜	-10.6404
嵐山	-10.6405
隅	-10.6405
灯籠	-10.6406
センチ	-10.6406
勤め	-10.6407
はなかった	-10.6407
屈	-10.6407
都道府県	-10.6407
に渡り	-10.6408
月見	-10.6409
W	-10.6409
弥陀	-10.641
盗	-10.641
74	-10.641
▁前	-10.641
合掌	-10.641
栄養	-10.641
磐	-10.641
泉涌寺	-10.641
賓	-10.641
茨城県	-10.641
智顗	-10.641
稿	-10.641
審査	-10.6411
簡易	-10.6411
▁山号は	-10.6411
アルコール添加	-10.6411
周濠	-10.6411
被害	-10.6411
修復	-10.6412
雪舟	-10.6412
奉行	-10.6412
kg	-10.6413
テン	-10.6414
ダイ	-10.6414
経過	-10.6416
洋風	-10.6416
建仁寺	-10.6417
頭部	-10.6417
井戸	-10.6418
光明	-10.6418
再度	-10.6419
講義	-10.6421
成就	-10.6422
低下	-10.6423
廃れ	-10.6424
に入れる	-10.6424
▁中国の	-10.6425
水引	-10.6425
古今	-10.643
を知る	-10.6431
検討	-10.6432
ゆみ	-10.6432
馬場	-10.6433
移転	-10.6433
空気	-10.6435
ゆえに	-10.6436
阿弥陀仏の	-10.6436
中華	-10.6441
でもあり	-10.6445
と並んで	-10.6445
が最初	-10.6446
たものである	-10.6451
東洋	-10.6452
師の	-10.6452
それまでの	-10.6453
知られる	-10.6454
ぶん	-10.6456
と改称	-10.6456
夏の	-10.6457
末法	-10.6461
藩の	-10.6462
ようになったのは	-10.6466
数は	-10.6468
の時	-10.6468
オー	-10.647
利用する	-10.6471
唐代	-10.6474
祝日	-10.6474
暴	-10.6475
大津	-10.6482
効果がある	-10.6483
が普通	-10.6483
社寺	-10.6484
出てくる	-10.6486
りする	-10.6489
点を	-10.649
青年	-10.649
やき	-10.6494
上から	-10.6495
認められ	-10.6496
商業	-10.65
親鸞の	-10.6501
禅寺	-10.6503
出演	-10.6505
茶葉	-10.6515
が特徴	-10.6518
立てた	-10.6518
小笠原流	-10.6523
山頂	-10.6533
準備	-10.6544
実は	-10.6548
準	-10.6548
盛ん	-10.6553
統合	-10.6555
※	-10.6556
のほうが	-10.6556
二十	-10.656
面に	-10.6565
位置づけ	-10.6565
で作られる	-10.6567
方形	-10.6567
正式	-10.6576
年以上	-10.6578
けて	-10.658
ひとつ	-10.6587
有名である	-10.6593
の皮	-10.6594
にしたもの	-10.6596
の登場	-10.6602
労働	-10.6603
▁詳細は	-10.6604
一般的には	-10.6607
標	-10.6607
-7	-10.6613
複雑	-10.6614
天然	-10.6615
予	-10.6616
功	-10.6617
の主	-10.6617
昼	-10.6617
合わせる	-10.6617
数多く	-10.6618
響	-10.6618
▁近代	-10.6618
岳	-10.6618
を伝える	-10.6619
はまだ	-10.6619
にわたり	-10.662
書院造	-10.6621
の木	-10.6621
彼岸	-10.6624
契	-10.6624
舞う	-10.6624
金剛峯寺	-10.6625
ヌ	-10.6626
が少なく	-10.6626
卓	-10.6626
脇侍	-10.6626
たこ焼き	-10.6627
衿	-10.6627
ともいえる	-10.6628
御土居	-10.6628
コンニャク	-10.6628
にもかかわらず	-10.6628
びょう	-10.6628
ぼさつ	-10.6628
澤	-10.6628
濾過	-10.6628
被葬者	-10.6628
スーパーマーケット	-10.6628
デンプン	-10.6628
岩手県	-10.6628
を除いて	-10.6628
を祖とする	-10.6628
うなぎ	-10.6628
負担	-10.6628
終わった	-10.6628
配慮	-10.6628
五重塔	-10.6629
ユズ	-10.6629
平家物語	-10.6629
萬歳	-10.6629
東寺長者	-10.663
通し矢	-10.663
があげられる	-10.6631
メイン	-10.6631
調子	-10.6632
ガイ	-10.6633
と推定される	-10.6633
汁粉	-10.6633
ーン	-10.6636
を元に	-10.6637
神戸市	-10.6638
互いに	-10.664
作庭	-10.6642
の目的	-10.6643
多様な	-10.6643
を一	-10.6644
隠元	-10.6645
続ける	-10.6646
深さ	-10.6647
発音	-10.6647
▁弓	-10.6648
というのは	-10.6648
観光客	-10.6649
金具	-10.665
竹刀	-10.665
号を	-10.6651
以下のような	-10.6653
に於いて	-10.6657
るか	-10.6657
使用されていた	-10.6658
折り	-10.6659
▁まず	-10.6662
最終	-10.6666
140	-10.6667
建て	-10.6668
用に	-10.6674
を行って	-10.6677
整	-10.6678
レン	-10.6678
編纂	-10.6678
▁のちに	-10.668
台子	-10.6682
発掘調査	-10.6684
年代以降	-10.6689
遺品	-10.6693
と言えば	-10.6694
就任	-10.6695
かかる	-10.6696
答え	-10.67
が残る	-10.6701
議員	-10.6702
つま	-10.6703
ところから	-10.6708
作例	-10.6711
実に	-10.6711
地域によって	-10.6715
芸者	-10.6716
寸法	-10.6718
描いた	-10.6719
通説	-10.6721
参加者	-10.6721
隠し	-10.6722
したもので	-10.6724
造る	-10.6725
してある	-10.6729
味の	-10.6729
詳細	-10.6737
日置流	-10.6748
を用いている	-10.675
弘安	-10.6751
縁起物	-10.6754
に対しては	-10.6756
が増えた	-10.6757
際には	-10.6764
を張り	-10.6765
▁諱は	-10.6766
三弦	-10.6773
消滅	-10.6773
▁現代の	-10.6775
山門	-10.6775
▁もっとも	-10.6776
披露	-10.6777
くら	-10.6777
方法は	-10.6778
明王	-10.6782
世に	-10.6791
当たり	-10.6792
に入	-10.6792
▁日本における	-10.6796
正月の	-10.6801
熊	-10.6803
期に	-10.6806
考	-10.681
市民	-10.6812
の歌	-10.6813
みそ	-10.6813
あらわれ	-10.6814
▁2000	-10.6815
すみ	-10.6815
らなかった	-10.6818
枚の	-10.6821
日常	-10.6824
はほぼ	-10.6826
積極的に	-10.6828
再現	-10.6829
保持	-10.6833
郭	-10.6833
▁同じ	-10.6835
破壊	-10.6838
いわ	-10.6838
頃には	-10.6839
受賞	-10.684
輝	-10.6843
とおり	-10.6844
元来	-10.6845
科学	-10.6845
偈	-10.6846
形は	-10.6846
萬	-10.6848
丘	-10.6849
ドイツ	-10.685
紫宸殿	-10.685
蘭	-10.685
しばらく	-10.685
高等学校	-10.685
毘沙門天	-10.685
ページ	-10.685
読誦	-10.685
コーナー	-10.685
呪術	-10.6851
万葉集	-10.6851
決まり	-10.6851
自治体	-10.6852
民謡	-10.6852
予定	-10.6852
絶対	-10.6852
成果	-10.6854
初の	-10.6855
実態	-10.6855
政権	-10.6855
自在	-10.6856
されることもある	-10.6858
費用	-10.6859
日本古来の	-10.6859
珠光	-10.6859
は特に	-10.6859
ウン	-10.686
講堂	-10.686
細く	-10.686
力士	-10.686
km	-10.686
▁二	-10.6861
1992	-10.6863
大臣	-10.6865
なのか	-10.6866
日まで	-10.6866
薬師寺	-10.6868
直し	-10.6873
簡単に	-10.6873
上がる	-10.6875
住持	-10.6876
西暦	-10.6877
相当	-10.6878
着色	-10.6881
と書く	-10.6881
音が	-10.6882
日本国内	-10.6883
れい	-10.6887
相対	-10.6893
基礎	-10.6894
▁別名	-10.6896
の長男	-10.6897
が存在し	-10.6897
分布	-10.6897
引用	-10.69
林家	-10.6901
▁近年は	-10.6905
クロ	-10.6906
いていた	-10.6907
一般的	-10.691
生卵	-10.6912
経文	-10.6917
廻	-10.6922
シー	-10.6922
火を	-10.6922
▁インド	-10.6927
受戒	-10.6927
死後	-10.693
白米	-10.6933
ティー	-10.6933
長屋	-10.6935
向け	-10.6937
祈	-10.6938
くろ	-10.6939
普及する	-10.694
▁高野山	-10.694
心の	-10.6942
割れ	-10.6943
があるため	-10.6945
国道	-10.6946
もいる	-10.6952
▁室町時代	-10.6953
縫	-10.6956
を見た	-10.6959
ランド	-10.696
古来から	-10.6961
ボウ	-10.6962
産の	-10.6962
書かれ	-10.6965
存在し	-10.6965
始まった	-10.6969
ダー	-10.6969
背中	-10.6977
に大きな	-10.6978
JR	-10.6981
▁米	-10.6982
んでいた	-10.6994
が作られ	-10.6995
里山	-10.6997
清楽	-10.6998
▁上記	-10.7
チベット	-10.7001
そこ	-10.7002
フライ	-10.7003
▁能	-10.7004
神仏	-10.7008
家臣	-10.7009
てくる	-10.7011
全体に	-10.7015
の時に	-10.7016
春日	-10.7018
発達した	-10.7019
類似	-10.702
はこれ	-10.7024
大手	-10.703
を開く	-10.7032
▁大阪	-10.7035
会員	-10.7037
の文字	-10.7038
梵	-10.7038
次第	-10.7038
を意味し	-10.7039
▁ここで	-10.704
600	-10.7042
らせた	-10.7043
田中	-10.7043
▁構造	-10.705
茶人	-10.7053
弓の	-10.7059
の裏	-10.7065
北陸	-10.7066
炎	-10.7066
わる	-10.7066
致	-10.7067
と言って	-10.7067
ところで	-10.7067
かし	-10.7068
占	-10.707
衛生	-10.7071
麗	-10.7071
フランス	-10.7073
現代では	-10.7074
造られる	-10.7074
勘	-10.7076
篠	-10.7076
兜	-10.7076
希	-10.7076
鞠	-10.7077
黄檗宗	-10.7077
ふんどし	-10.7077
巌	-10.7077
宮崎県	-10.7077
高価な	-10.7077
島根県	-10.7077
皇后	-10.7077
青蓮院	-10.7077
撮影	-10.7077
恒	-10.7077
砕	-10.7077
疫病	-10.7078
笠懸	-10.7078
機構	-10.7078
わさび	-10.7078
確定	-10.7079
山口県	-10.7079
イクラ	-10.7079
襖障子	-10.7079
とあり	-10.7079
財政	-10.7079
ソバ	-10.708
直垂	-10.708
をしていた	-10.708
事務所	-10.708
香炉	-10.708
智慧	-10.7081
建久	-10.7081
金剛界	-10.7081
客の	-10.7082
キャ	-10.7082
文禄	-10.7082
小さく	-10.7083
金沢	-10.7083
に多く	-10.7086
押	-10.7088
小鼓	-10.7088
の概念	-10.7089
周囲	-10.7089
▁初期の	-10.7089
大仏殿	-10.709
鎌倉幕府	-10.709
具足	-10.7092
▁このうち	-10.7092
ひき	-10.7093
文章	-10.7094
具合	-10.7094
清水寺	-10.7094
に関して	-10.7095
ほとんどの	-10.7095
ヶ寺	-10.7096
ごろから	-10.7098
臨時	-10.71
要因	-10.7101
梅干し	-10.7103
通夜	-10.7103
十一	-10.7104
設け	-10.7108
ておらず	-10.7112
物が	-10.7113
施行	-10.7114
▁当時は	-10.7114
平安時代後期	-10.7115
所作	-10.7115
崩れ	-10.7116
さき	-10.7117
正座	-10.7118
を超える	-10.7123
本仏	-10.7125
▁元々は	-10.7125
厨子	-10.7128
日本の伝統的な	-10.7128
平安京	-10.7129
79	-10.7131
秋田	-10.7144
この時	-10.7146
学んだ	-10.715
者に	-10.715
ハイ	-10.7153
七日	-10.7153
違	-10.7157
焼失した	-10.7158
ものが多く	-10.7161
弟	-10.7164
知られている	-10.7167
替	-10.717
可能性がある	-10.7172
等が	-10.7178
を着用する	-10.7181
消え	-10.7181
白色	-10.7182
ことに由来する	-10.7182
レー	-10.7188
戦後の	-10.7189
開設	-10.7191
方向に	-10.7193
飲	-10.7197
の中から	-10.7198
記述がある	-10.72
長寿	-10.7201
肉を	-10.7204
友禅	-10.7205
えい	-10.7205
例として	-10.7205
枠	-10.7205
家に	-10.7215
の庭	-10.7216
のもとに	-10.7217
から見て	-10.7218
!	-10.7226
多少	-10.723
薬味	-10.723
てき	-10.7231
故人	-10.7232
尽	-10.724
協	-10.7241
言えば	-10.7241
伝わる	-10.7246
にかけての	-10.725
天長	-10.7254
限り	-10.7257
物質	-10.7261
るなど	-10.7266
ガン	-10.7268
東方	-10.7268
伴	-10.7272
しかない	-10.7274
の復興	-10.7277
和服の	-10.728
▁幕末	-10.728
という言葉は	-10.728
鎌倉時代に	-10.7282
働	-10.7284
(120	-10.7289
しさ	-10.7291
ってくる	-10.7294
▁後	-10.7296
とくに	-10.7297
ma	-10.73
幼	-10.7301
ジャー	-10.7302
逸	-10.7303
の区別	-10.7303
座る	-10.7303
酵素	-10.7304
始める	-10.7304
を設ける	-10.7305
概	-10.7305
旋律	-10.7306
曹	-10.7307
x	-10.7308
託	-10.7308
尋	-10.7309
米を	-10.7309
難波	-10.7309
▁北	-10.7309
拾	-10.731
コロッケ	-10.731
諦	-10.731
巣	-10.731
慣例	-10.731
大極殿	-10.731
推進	-10.731
テキスト	-10.731
宇宙	-10.731
を持たない	-10.731
党	-10.731
おこなわれ	-10.731
支援	-10.731
剥	-10.731
地の	-10.7311
すき焼き	-10.7311
この世	-10.7311
奈良県奈良市	-10.7312
1969	-10.7313
土俵	-10.7313
阿弥陀堂	-10.7314
自治	-10.7314
備前	-10.7314
にあたり	-10.7316
龍笛	-10.7317
遺骨	-10.7317
に加えて	-10.7317
徳利	-10.7319
進む	-10.7319
学習	-10.7319
堺市	-10.7321
学術	-10.7322
鷹狩	-10.7325
を混ぜて	-10.7326
問答	-10.7327
どちら	-10.7328
て食べる	-10.7329
仰	-10.733
臭い	-10.7331
めし	-10.7332
どころ	-10.7332
進出	-10.7334
▁真	-10.7336
造られている	-10.7336
をもとに	-10.7336
部に	-10.7338
が現れる	-10.7341
皇女	-10.7341
若手	-10.7342
に書かれた	-10.7344
そうめん	-10.7344
万円	-10.7344
歳の時	-10.7345
頭の	-10.7347
(118	-10.7348
門主	-10.7349
たらこ	-10.735
使われた	-10.7351
伝来した	-10.7352
命名	-10.7356
かけて	-10.7357
の製造	-10.7358
マイ	-10.7358
伝わった	-10.7359
▁上記の	-10.736
称名念仏	-10.7367
名塩	-10.7369
厚さ	-10.737
規模の	-10.737
理由は	-10.7375
松平	-10.7377
全体を	-10.7378
実用	-10.7378
法流	-10.7379
わた	-10.7389
起き	-10.7391
三男	-10.7394
古来	-10.7396
せずに	-10.7398
年より	-10.7399
漢詩	-10.7403
仏性	-10.7409
になっており	-10.7411
だから	-10.7412
まと	-10.7417
髪を	-10.7419
紙を	-10.7421
かる	-10.7423
▁一般的には	-10.7426
以来の	-10.7431
山水	-10.7439
を取り入れた	-10.7447
晴れ	-10.7448
乾燥させた	-10.745
を設置	-10.745
並び	-10.7451
るようになる	-10.7452
定着し	-10.7453
を切り	-10.7455
今後	-10.7457
応仁の乱	-10.746
唱える	-10.7461
多くの場合	-10.7462
形成	-10.7465
を表現する	-10.7465
生地を	-10.7466
三十	-10.7469
真実	-10.747
必要な	-10.747
に似ている	-10.7473
とされるが	-10.7476
の跡	-10.7483
造像	-10.7491
系統の	-10.7495
の女性	-10.7497
1973	-10.7498
黒田	-10.7498
(→	-10.75
のが一般的	-10.75
能の	-10.7501
木製	-10.7504
邦	-10.7507
トラ	-10.7507
皮を	-10.7507
上洛	-10.7509
ことができ	-10.7514
が生まれ	-10.7515
没した	-10.752
▁御	-10.7524
歩く	-10.7525
題目	-10.7526
専門の	-10.7526
経験	-10.7527
行事として	-10.7528
季	-10.7529
釣	-10.7537
縛	-10.7537
国産	-10.7539
の略	-10.754
魏	-10.754
肝	-10.7542
湿	-10.7542
呼び名	-10.7543
ワキ	-10.7544
横浜	-10.7545
がこれ	-10.7545
伸	-10.7545
操	-10.7546
醸	-10.7546
延喜	-10.7546
雁	-10.7547
鯉	-10.7547
茶筅	-10.7548
袿	-10.7548
おそらく	-10.7548
ワカメ	-10.7548
三十三間堂	-10.7548
叙	-10.7548
絣	-10.7548
洲	-10.7548
ハンバーグ	-10.7548
ヴァ	-10.7548
蹴鞠	-10.7548
鍔	-10.7548
ホーム	-10.7548
防衛	-10.7548
販売する	-10.7548
山田錦	-10.7549
豪族	-10.7549
宮城県	-10.7549
秋田県	-10.7549
義太夫節	-10.7549
皇居	-10.755
海藻	-10.755
一旦	-10.7551
演武	-10.7551
西大寺	-10.7552
ショウガ	-10.7552
顔料	-10.7553
シート	-10.7553
ネタ	-10.7553
荘園	-10.7554
結界	-10.7555
編集	-10.7555
魚の	-10.7555
とも言える	-10.7556
価値観	-10.7557
能楽師	-10.7557
sa	-10.7558
が現れ	-10.7558
1972	-10.7558
大和絵	-10.7559
山椒	-10.7559
講師	-10.7559
おん	-10.7561
精米	-10.7562
開店	-10.7562
/201	-10.7563
木の	-10.7564
を安置する	-10.7564
四天王寺	-10.7564
酸味	-10.7565
特性	-10.7567
あわせて	-10.7568
▁毎年	-10.7568
側は	-10.7569
になっていた	-10.7572
設	-10.7573
の縁	-10.7579
ほどに	-10.758
伝統的に	-10.7581
小学校	-10.7581
役所	-10.7584
入る	-10.7585
息子	-10.7587
の道具	-10.7588
阿修羅	-10.7589
1949	-10.7591
仏具	-10.7593
日本初の	-10.7593
明楽	-10.7597
武者	-10.7598
が増え	-10.7598
赤色	-10.7599
を切る	-10.7599
800	-10.76
という呼称	-10.7601
塩分	-10.7604
ゆかりの	-10.7604
蔵元	-10.7604
触れ	-10.7605
現在まで	-10.7609
南無	-10.7609
▁これに	-10.761
出家して	-10.7616
感じ	-10.7618
さけ	-10.762
4.	-10.7621
茶を	-10.7623
er	-10.7627
史上	-10.7634
を持っていた	-10.7635
一帯	-10.7635
るようになり	-10.7636
ないもの	-10.7644
卵を	-10.7644
があって	-10.7649
説明する	-10.765
町屋	-10.7652
は少なく	-10.7653
の拠点	-10.7657
入れて	-10.766
を与え	-10.7664
はじめて	-10.7666
例がある	-10.7667
▁一般的な	-10.7672
まつ	-10.7676
煮た	-10.7677
離れた	-10.7678
の末	-10.7679
左右の	-10.7679
帰国	-10.7683
が無く	-10.7685
チン	-10.7688
の作	-10.7688
00	-10.7691
ri	-10.7692
建物は	-10.7696
再開	-10.7697
込まれ	-10.7698
崩壊	-10.7699
されていたが	-10.77
主要	-10.7706
セン	-10.7706
レイ	-10.7708
文化が	-10.771
▁一般には	-10.7712
▁江戸時代に	-10.7712
明らか	-10.7718
ことなど	-10.7721
ユ	-10.7722
ようにして	-10.7724
はすべて	-10.7728
を含め	-10.7728
その中に	-10.7731
ていて	-10.7734
左右に	-10.774
すら	-10.7741
の形状	-10.7745
の弟	-10.7746
▁ここでは	-10.7748
不詳	-10.7751
人も	-10.7757
蓮如の	-10.7758
煮る	-10.7758
塩漬け	-10.7758
一大	-10.7762
客に	-10.7764
行われるようになった	-10.7765
福岡	-10.7765
に移	-10.7767
らせ	-10.7767
>199	-10.7768
の妻	-10.7769
混同	-10.777
噺	-10.7772
様式の	-10.7773
昭和初期	-10.7773
比較	-10.7774
渡来	-10.7775
▁黒	-10.7775
絡	-10.7785
用い	-10.7786
餓鬼	-10.7786
肥	-10.7786
発見された	-10.7786
が進み	-10.7787
粕	-10.7788
虚	-10.779
高倉	-10.779
釘	-10.7791
桑	-10.7791
旋	-10.7791
擬	-10.7792
メディア	-10.7792
リズム	-10.7792
鳳	-10.7792
暑	-10.7792
股	-10.7792
頓	-10.7792
タンパク質	-10.7792
愚	-10.7792
者不取正覺	-10.7792
喩	-10.7792
溶け	-10.7792
亡くなった	-10.7792
狩猟	-10.7792
交換	-10.7792
舌	-10.7792
とりわけ	-10.7792
つなぎ	-10.7792
八坂神社	-10.7792
疑問	-10.7793
携帯	-10.7793
幽玄	-10.7793
激しい	-10.7793
努力	-10.7793
二の丸	-10.7793
演奏する	-10.7793
変遷	-10.7793
射撃	-10.7794
農民	-10.7794
リーグ	-10.7794
の観点から	-10.7794
見つかっ	-10.7794
不受不施派	-10.7795
収蔵	-10.7795
を構成する	-10.7796
沢庵	-10.7796
ジェ	-10.7796
未来	-10.7796
1951	-10.7797
に師事し	-10.7797
反発	-10.7797
安価な	-10.7797
センチメートル	-10.7798
自由に	-10.7798
勤行	-10.7799
をなす	-10.78
削り	-10.78
散楽	-10.7801
役職	-10.7802
アイ	-10.7804
宝暦	-10.7804
武芸	-10.7804
▁彼は	-10.7805
山伏	-10.7805
支店	-10.7807
太鼓台	-10.7808
真理	-10.7808
ちん	-10.7809
早い	-10.7811
78	-10.7812
源信	-10.7812
将軍家	-10.7812
実際は	-10.7815
古筆	-10.7816
正殿	-10.7818
書かれた	-10.782
平家	-10.7823
番号	-10.7824
▁長	-10.7825
を覆う	-10.7825
付いて	-10.7829
少なくとも	-10.7829
地域もある	-10.783
図書	-10.7834
音頭	-10.7834
落とし	-10.7834
たく	-10.7834
発生した	-10.7835
正平	-10.7836
こし	-10.7836
これまで	-10.784
美濃国	-10.7842
が始まった	-10.7845
蒸した	-10.785
のようなもの	-10.7851
の死	-10.7852
京都御所	-10.7853
祝い	-10.7857
焼いて	-10.7857
を行なう	-10.7859
当初	-10.7861
ということで	-10.7861
の発達	-10.7865
第二次世界大戦	-10.7868
出され	-10.7868
の低い	-10.7869
の結果	-10.7869
正式に	-10.7871
天明	-10.7872
代将軍	-10.7877
屋号	-10.7878
南方	-10.7881
御前	-10.7882
日本各地に	-10.7887
中興	-10.7887
一年	-10.7893
美術品	-10.7893
地名	-10.7896
ができ	-10.7897
定め	-10.7899
(155	-10.79
いったん	-10.7901
っこ	-10.7904
だけを	-10.7905
だったが	-10.7905
次のような	-10.7908
書いた	-10.7917
は京都	-10.7921
最澄は	-10.7924
カリ	-10.7924
まとめ	-10.7928
の日記	-10.793
好んで	-10.7933
(158	-10.7933
東側	-10.7934
織田	-10.7934
の良い	-10.7934
に使用される	-10.7937
が主	-10.7937
くち	-10.7937
87	-10.7941
残されている	-10.7943
の呼称	-10.7943
武家の	-10.7944
出前	-10.7945
阿弥陀如来の	-10.7947
を付けた	-10.7951
マル	-10.7952
漉	-10.7955
させること	-10.796
▁矢	-10.7961
三世	-10.7963
上げて	-10.7972
担当	-10.7973
供する	-10.7974
を高め	-10.7977
を開催	-10.7978
として使われる	-10.7981
例である	-10.7981
一日	-10.7984
(180	-10.7984
巨	-10.7986
前半	-10.7986
そで	-10.7988
にあって	-10.7988
流行した	-10.7988
する場合もある	-10.7989
など様々な	-10.7989
見え	-10.799
態	-10.7994
の根	-10.7994
ぎん	-10.7999
91	-10.7999
上位	-10.8002
の誕生	-10.8004
▁基本的に	-10.8008
振	-10.8017
その起源	-10.8021
のに対して	-10.8022
広がり	-10.8025
渋	-10.8026
の代表的な	-10.8027
葵	-10.803
が用いられた	-10.803
珍	-10.8031
バリエーション	-10.8032
二階	-10.8033
伊賀	-10.8034
以外は	-10.8035
かね	-10.8039
が大	-10.8039
僧侶が	-10.804
定かではない	-10.8042
z	-10.8042
腸	-10.8042
陸奥国	-10.8042
紬	-10.8042
勧修寺	-10.8042
闇	-10.8042
覚鑁	-10.8042
桁	-10.8042
ベトナム	-10.8042
を目的とした	-10.8042
創価学会	-10.8042
燃料	-10.8042
ダイコン	-10.8042
▁六	-10.8042
皇太子	-10.8042
遊戯	-10.8042
華やかな	-10.8043
次々と	-10.8043
改築	-10.8043
主人公	-10.8043
仁親王	-10.8043
据え	-10.8044
評判	-10.8044
回復	-10.8044
柔らかい	-10.8045
足利	-10.8045
普賢菩薩	-10.8046
シソ	-10.8046
の無い	-10.8047
細長い	-10.8052
聖宝	-10.8052
配達	-10.8057
延長	-10.8058
日蓮の	-10.8061
世界の	-10.8061
内藤	-10.8063
につき	-10.8063
豪華な	-10.8064
名誉	-10.8068
▁そのほか	-10.8068
かどうか	-10.807
都市部	-10.807
育て	-10.8075
したのが	-10.8077
演者	-10.8077
打つ	-10.8077
描かれる	-10.8077
つである	-10.8079
▁字は	-10.8081
調べ	-10.8083
昔から	-10.8087
尾張	-10.8088
るべき	-10.8093
下げ	-10.8095
(187	-10.8096
無く	-10.8098
香木	-10.81
子孫	-10.8102
開発された	-10.8105
編み	-10.8105
▁他にも	-10.8108
徳一	-10.8111
を残している	-10.8112
周辺の	-10.8113
まったく	-10.8113
なめ	-10.8114
してしまった	-10.8122
▁西	-10.8123
十分	-10.8125
の地位	-10.8126
生前	-10.813
本家	-10.8131
プラ	-10.8131
と同じように	-10.8136
山口	-10.8138
様々である	-10.8139
ばら	-10.8141
階建て	-10.8142
という語	-10.8147
不可能	-10.8149
エン	-10.8152
そのものが	-10.8155
南都	-10.8166
の儀	-10.8166
本名	-10.8166
山本	-10.817
▁関西	-10.8174
に残る	-10.8176
▁台湾	-10.8176
手間	-10.8179
理由から	-10.8181
朝廷の	-10.8187
「○○	-10.8194
の住持	-10.8198
伝統芸能	-10.82
の動き	-10.8207
分かれ	-10.8208
▁通常は	-10.8209
を迎え	-10.821
研究所	-10.8211
1974	-10.8211
西部	-10.8213
仙台	-10.8219
を助け	-10.8224
箏の	-10.8225
煎茶道	-10.8226
に用いられた	-10.8226
73	-10.8226
変え	-10.8226
その年の	-10.8228
的なもの	-10.8228
選ばれ	-10.8229
料理を	-10.8229
金属製の	-10.823
概要	-10.8237
こととなる	-10.8237
の項を参照	-10.824
征夷大将軍	-10.824
それぞれに	-10.8245
うちに	-10.825
環	-10.8253
隔	-10.8254
の代表	-10.8261
に成立した	-10.8262
まって	-10.8262
とは別	-10.8265
正法	-10.8266
することもある	-10.8269
魚を	-10.8271
をよく	-10.8271
▁母は	-10.8273
のが特徴である	-10.8274
980	-10.8274
説いた	-10.8276
信じ	-10.8277
淀川	-10.828
歩き	-10.8281
外に	-10.8284
サイ	-10.8285
別れ	-10.8285
言葉である	-10.8287
する際に	-10.8287
大福	-10.8291
▁中でも	-10.8293
本格的に	-10.8293
報告	-10.8295
乙	-10.8296
閻魔	-10.8296
凶	-10.8297
檜	-10.8297
警察	-10.8297
烏帽子	-10.8297
刑	-10.8297
本拠	-10.8297
纏	-10.8298
七福神	-10.8298
衡	-10.8298
シーズン	-10.8298
精米歩合	-10.8298
老舗	-10.8298
靴	-10.8298
如意輪観音	-10.8298
菖蒲	-10.8298
鍛錬	-10.8298
大覚寺	-10.8298
転換	-10.8299
高知県	-10.8299
担ぎ	-10.8299
スタンド	-10.8299
帽子	-10.8299
に従い	-10.8299
焦げ	-10.8299
源頼朝	-10.8299
手裏剣	-10.83
回廊	-10.83
牛乳	-10.83
多宝塔	-10.83
ヘラ	-10.8301
習俗	-10.8301
将来	-10.8301
明確な	-10.8301
開放	-10.8303
正教会	-10.8303
延喜式	-10.8303
文字通り	-10.8303
梅若	-10.8304
理念	-10.8305
虎口	-10.8307
重視	-10.8307
蒔絵	-10.8308
森林	-10.8308
良源	-10.8309
狭い	-10.831
安永	-10.8311
流罪	-10.8314
新しく	-10.8314
女房	-10.8316
花街	-10.8317
東日本	-10.8317
じょ	-10.8318
に従って	-10.8318
空手道	-10.8319
個性	-10.8319
を含めた	-10.832
吉野家	-10.8321
うま	-10.8322
.1	-10.8322
祖師	-10.8326
国分寺	-10.8326
元祖	-10.8328
ローマ	-10.8328
の門人	-10.8332
▁興福寺	-10.8332
所に	-10.8333
平和	-10.8333
吸収	-10.8337
▁京	-10.8338
ついに	-10.8338
伴奏	-10.8339
この場合	-10.834
追加	-10.8341
ないこと	-10.8343
事故	-10.8344
なれば	-10.8349
蕎麦粉	-10.8349
区画	-10.835
の出	-10.8353
出版物	-10.8353
姿を	-10.8354
)(12	-10.8356
の一種で	-10.8359
遅れ	-10.8359
歌舞伎役者	-10.8359
詳しくは	-10.8362
を開始	-10.8362
去	-10.8364
の基本	-10.8364
al	-10.8368
の需要	-10.8373
大祭	-10.8374
つくられた	-10.8376
どり	-10.8376
登場し	-10.8377
特定	-10.8377
ることが多い	-10.8378
に帰	-10.8383
下記	-10.8385
狂	-10.8389
タイプの	-10.8389
山内	-10.839
オチ	-10.8392
全日本	-10.8394
を受けている	-10.8395
餅を	-10.8395
すこと	-10.8399
小屋	-10.84
ことはできない	-10.8401
林寺	-10.8403
灌頂を受け	-10.8404
コー	-10.8405
支え	-10.8405
山麓	-10.8408
を重ね	-10.8412
直後	-10.8415
両者	-10.8415
周囲に	-10.8416
(160	-10.8422
午前	-10.8424
明治時代に	-10.8426
されたものである	-10.8433
手首	-10.8434
に入れた	-10.8435
鎌倉時代の	-10.8441
茹で	-10.8444
近代化	-10.8444
悪い	-10.8451
玄室	-10.8451
そん	-10.8452
十四	-10.8452
内側	-10.8453
の割合	-10.8454
世日	-10.8454
わけ	-10.8454
場合に	-10.8456
-12	-10.8458
自然に	-10.8461
が成立した	-10.8462
が行われていた	-10.8465
クラ	-10.8467
室町時代の	-10.8471
麺類	-10.8471
帰り	-10.8475
ることで	-10.8476
ているが	-10.8478
店もある	-10.8483
途中で	-10.8484
ごま	-10.8488
の教義	-10.8489
神社の	-10.849
という言葉が	-10.8493
の名は	-10.8497
手前	-10.8499
られない	-10.8501
並ぶ	-10.8502
鮮	-10.8504
1985	-10.8506
を取り入れ	-10.8507
コマ	-10.8507
▁現在も	-10.851
喫茶	-10.8511
内では	-10.8511
品として	-10.8519
漬	-10.8521
手段	-10.8522
跡地	-10.8523
呼ばれる	-10.8526
仏教界	-10.8528
北方	-10.8528
遠く	-10.853
の規模	-10.8533
家系	-10.8534
を防ぐ	-10.8537
微	-10.8539
らによって	-10.8539
▁いずれも	-10.8545
を継いだ	-10.8546
様に	-10.8549
匹	-10.8552
寄り	-10.8554
労	-10.8555
の臨済宗の僧	-10.8556
億	-10.8558
楊	-10.8558
の分類	-10.8558
のものを	-10.8559
徹底	-10.856
暁	-10.856
醤	-10.856
舎利	-10.856
徹	-10.8561
奨	-10.8561
推測	-10.8561
琵琶湖	-10.8561
キャラクター	-10.8561
バランス	-10.8561
柵	-10.8561
劫	-10.8561
庇	-10.8561
輔	-10.8561
隋	-10.8561
峯	-10.8561
像の	-10.8561
神護寺	-10.8561
輸送	-10.8561
窯	-10.8562
をもたらす	-10.8562
修二会	-10.8562
偏	-10.8562
裃	-10.8562
ひやむぎ	-10.8562
発泡酒	-10.8562
を名乗る	-10.8562
ロシア	-10.8562
頻繁に	-10.8562
河原	-10.8562
に所在する	-10.8562
必須	-10.8562
腐敗	-10.8562
凡夫	-10.8562
崇拝	-10.8562
児童	-10.8562
ハウス	-10.8562
神仏習合	-10.8562
臨終	-10.8562
宗教法人	-10.8563
基盤	-10.8563
匂い	-10.8564
浄土真宗本願寺派	-10.8564
ようやく	-10.8565
チェ	-10.8565
建武	-10.8565
布団	-10.8565
改善	-10.8565
獅子舞	-10.8566
書籍	-10.8566
玉露	-10.8567
写経	-10.8567
結婚式	-10.8567
大晦日	-10.8569
縄文時代	-10.8569
仏典	-10.8569
単独で	-10.857
淀	-10.857
開基	-10.8571
を混ぜ	-10.8571
江戸時代中期	-10.8572
摺り	-10.8572
焼香	-10.8573
草庵	-10.8573
説もある	-10.8573
方丈	-10.8575
和太鼓	-10.8576
田市	-10.8577
甘い	-10.8577
地域によっては	-10.8577
広場	-10.8578
がなされている	-10.8579
霊場	-10.8579
0°	-10.8579
団地	-10.858
春秋	-10.858
右手に	-10.8581
北条	-10.8581
体育	-10.8582
を繰り返し	-10.8582
方言	-10.8582
名古屋市	-10.8584
年代に	-10.8585
に乗せ	-10.8585
廃寺	-10.8586
分割	-10.8586
ぐらい	-10.8592
駅から	-10.8592
▁平安時代の	-10.8593
以外では	-10.8593
渡し	-10.8594
宗教的	-10.8594
入口	-10.8596
発足	-10.8596
弓射	-10.8598
小紋	-10.8599
がこの	-10.86
数字	-10.8601
関西風	-10.8602
削	-10.8604
更	-10.8605
香道	-10.8607
▁その後も	-10.8608
▁尚	-10.8608
の前身	-10.8611
来る	-10.8612
山岳	-10.8612
専用	-10.8612
原材料	-10.8619
消化	-10.8622
流入	-10.8625
1946	-10.8625
春分	-10.8628
組み合わせ	-10.8629
▁いわゆる	-10.8629
が好まれる	-10.8632
を見せ	-10.8636
点で	-10.8637
るので	-10.8642
まし	-10.8645
アラ	-10.8646
色紙	-10.8648
北宋	-10.865
が出て	-10.8651
例としては	-10.8655
トリ	-10.8656
熱い	-10.8656
想定	-10.8658
▁JR	-10.8665
秘伝	-10.8665
時期に	-10.8667
横に	-10.8667
仏教では	-10.8667
が登場し	-10.8668
食物	-10.8669
一時期	-10.8669
んじ	-10.8669
理想	-10.8669
天神	-10.867
まれに	-10.8671
じき	-10.8674
自己	-10.8676
汚	-10.8683
と呼ばれることもある	-10.8685
固有の	-10.8685
奨励	-10.8686
小川	-10.8687
二本	-10.8688
地方によっては	-10.8691
中間	-10.8691
箔	-10.8693
が非常に	-10.8696
芸人	-10.8696
出店	-10.8698
ければ	-10.8699
を提供する	-10.8701
紙に	-10.8701
▁現存する	-10.8703
女性用	-10.8709
親鸞は	-10.871
ファ	-10.8711
行なわれる	-10.8711
次のように	-10.8717
都合	-10.8717
83	-10.8719
の北	-10.8726
固め	-10.8728
のことで	-10.8731
日本食	-10.8732
重箱	-10.8733
別名	-10.8734
ガス	-10.8737
-2	-10.8739
触	-10.874
東アジア	-10.8743
の端	-10.8749
を施した	-10.8752
を合わせて	-10.8753
歌合	-10.8754
用意	-10.8755
さく	-10.8757
かける	-10.8757
頃の	-10.8757
少量	-10.8758
代わりに	-10.8758
防止	-10.8759
を付けて	-10.876
周り	-10.876
はこれを	-10.8762
が難しい	-10.8763
の記事	-10.8767
ひとつの	-10.8767
怪	-10.877
三代目	-10.8771
吉祥	-10.8775
道を	-10.8776
観世音菩薩	-10.8778
活用	-10.878
明治天皇	-10.8781
~5	-10.8783
衰退した	-10.8786
京都市右京区	-10.8787
分ける	-10.8787
絶え	-10.8788
▁お	-10.8788
が広く	-10.8789
傾	-10.8792
由来の	-10.8793
は比較的	-10.8798
しゅん	-10.88
がつく	-10.88
5.	-10.8801
を置き	-10.8801
を集めた	-10.8804
物は	-10.8806
明確に	-10.8808
▁日本酒	-10.8809
性の	-10.8811
呼び方	-10.8814
)12	-10.8815
いか	-10.8817
傍	-10.8817
と見る	-10.8817
ばし	-10.882
分家	-10.8823
識	-10.8824
臼	-10.8825
盂蘭盆	-10.8827
着用した	-10.8827
到	-10.8828
嶋	-10.8829
撰述	-10.883
警	-10.883
鵺	-10.883
ことができた	-10.883
胎蔵界	-10.8831
進んで	-10.8831
ルーツ	-10.8831
妹	-10.8832
猛	-10.8832
スーパー	-10.8832
鮑	-10.8832
コンサート	-10.8832
鋼	-10.8832
中央の	-10.8832
秩序	-10.8832
盃	-10.8832
閉鎖	-10.8832
障害	-10.8832
楼閣	-10.8832
愛媛県	-10.8832
滅亡	-10.8832
丘陵	-10.8833
梵鐘	-10.8833
を以って	-10.8833
所在	-10.8833
内臓	-10.8833
を起こす	-10.8833
陸軍	-10.8833
プール	-10.8833
複合	-10.8834
伊藤	-10.8834
栃木県	-10.8834
財産	-10.8834
ペン	-10.8834
釈迦が	-10.8835
ちゃん	-10.8835
武蔵国	-10.8835
精霊	-10.8836
風潮	-10.8836
慈悲	-10.8836
予約	-10.8836
子ども	-10.8836
と見られている	-10.8836
正確な	-10.8836
典型的な	-10.8838
コスト	-10.8838
に限って	-10.8838
が使われている	-10.8838
律師	-10.8839
編成	-10.8839
蒸す	-10.8841
踏み	-10.8841
の例	-10.8842
このとき	-10.8842
いたり	-10.8844
を張った	-10.8844
建長寺	-10.8844
を祈る	-10.8844
の影響を受けて	-10.8846
原理	-10.8847
北朝	-10.8848
そこから	-10.8848
天かす	-10.8848
彫り	-10.8849
段位	-10.8849
度々	-10.885
技能	-10.8851
和様	-10.8851
与えられる	-10.8851
所持	-10.8851
mg	-10.8852
数百	-10.8852
名所	-10.8853
だけが	-10.8853
▁本尊は	-10.8854
の構造	-10.8854
有力な	-10.8854
の語源	-10.8855
穀物	-10.8855
の前で	-10.8862
事態	-10.8862
関西では	-10.8862
手事物	-10.8863
はないが	-10.8863
元服	-10.8863
日本国内で	-10.8868
とする説がある	-10.8869
段階で	-10.887
がき	-10.887
版木	-10.8871
泉寺	-10.8873
ゆき	-10.8874
とん	-10.8875
▁今日	-10.8876
辺り	-10.8881
国土	-10.8881
玉子	-10.8883
太い	-10.8884
の数は	-10.8885
も含む	-10.8889
重ねて	-10.8891
えり	-10.8891
江戸初期	-10.8892
日本独特の	-10.8893
連歌	-10.8894
作風	-10.8896
十二単	-10.8899
背景には	-10.89
勧め	-10.89
めの	-10.89
▁歌舞伎	-10.8901
使用した	-10.8911
三宝	-10.8912
昔は	-10.8913
こととなった	-10.8913
傾向がある	-10.8914
を襲名	-10.8915
と一緒に	-10.8917
立てる	-10.8917
以前から	-10.8918
かさ	-10.892
便器	-10.892
今でも	-10.8922
に指定されている	-10.8923
いまだ	-10.8923
187	-10.8925
知られ	-10.8925
北西	-10.8926
ふる	-10.8932
条第	-10.8933
学ぶ	-10.8933
三代	-10.8935
数の	-10.8936
難しい	-10.8936
閉	-10.8937
世紀頃	-10.8939
が加えられ	-10.8943
劣化	-10.8944
重い	-10.8945
の道場	-10.8945
回し	-10.8951
べし	-10.8955
和歌山	-10.8956
天部	-10.8957
今の	-10.8958
伝わっている	-10.8959
奈良時代に	-10.8962
が有名である	-10.8964
の舞台	-10.8972
同士	-10.8973
しているが	-10.8976
聖観音	-10.8976
江戸時代以降	-10.8978
京都市内	-10.8979
金銀	-10.898
行っている	-10.8982
を利用する	-10.8982
記した	-10.8984
1975	-10.8984
自己の	-10.8991
多様	-10.8992
を言う	-10.8994
弟子たち	-10.8998
点が	-10.9003
っても	-10.9003
▁以下	-10.9004
せつ	-10.9004
大宮	-10.9005
大型の	-10.9006
を出	-10.9008
に向けて	-10.9009
の量	-10.9009
教区	-10.9013
けた	-10.9014
の影響で	-10.9016
でいう	-10.9017
届	-10.902
人気がある	-10.9025
82	-10.9026
一郎	-10.9026
▁明治以降	-10.9028
訪	-10.903
登場している	-10.9031
が置かれ	-10.9031
三段	-10.9032
年間に	-10.9034
履	-10.9042
野菜を	-10.9043
▁石室	-10.9043
の姿を	-10.9043
るという	-10.9048
中身	-10.9054
呼ぶ	-10.9055
神話	-10.9056
複	-10.9058
工芸	-10.9061
際の	-10.9062
前で	-10.9063
がほとんど	-10.9064
沙	-10.9064
戦時	-10.9064
そもそも	-10.9065
そのうち	-10.9066
古式	-10.9068
称名	-10.9075
発明	-10.9077
鞍馬	-10.9082
に見える	-10.9085
ことなどから	-10.9085
斜面	-10.9085
梅干	-10.9086
嗣	-10.9095
1983	-10.9096
描かれた	-10.9096
につれ	-10.9096
臂	-10.9097
食料	-10.9099
存続	-10.9102
訴	-10.9104
討	-10.9106
閑	-10.9107
糠	-10.9108
京都駅	-10.9108
泊	-10.9108
桟	-10.9109
裕	-10.9109
有形文化財	-10.9109
チェーン店	-10.9109
軟	-10.9109
鉦	-10.9109
文化財保護法	-10.9109
券	-10.9109
マヨネーズ	-10.9109
古事記	-10.9109
宮内省	-10.9109
胤	-10.911
クリーム	-10.911
テーブル	-10.911
亜	-10.911
廂	-10.911
翼	-10.911
鏃	-10.911
春日大社	-10.911
に伴って	-10.911
自動車	-10.911
青森県	-10.911
足利義満	-10.911
兵庫	-10.911
収容	-10.911
短冊	-10.911
漁港	-10.9111
広告	-10.9111
に仕え	-10.9112
気候	-10.9113
烏丸	-10.9114
とも呼ぶ	-10.9114
武家社会	-10.9114
鬼の	-10.9114
高度な	-10.9114
高まり	-10.9115
受容	-10.9115
取引	-10.9115
念珠	-10.9115
1962	-10.9115
八木城	-10.9115
永久	-10.9116
展示室	-10.9116
寿命	-10.9116
参入	-10.9116
も同様	-10.9117
丹波国	-10.9118
焼き鳥	-10.9119
宝珠	-10.912
桜井	-10.9121
神社建築	-10.9121
広義には	-10.9122
おもに	-10.9123
シテ方	-10.9123
紅白	-10.9123
新羅	-10.9126
付けて	-10.9127
領主	-10.9128
嵯峨天皇	-10.9128
に見立て	-10.913
のあいだ	-10.913
に通じる	-10.913
ヶ所	-10.9134
に属し	-10.9138
たものを	-10.9139
1930	-10.9143
翌日	-10.9147
伸ばし	-10.9147
宗論	-10.9149
▁起源	-10.9151
古来より	-10.9155
をかけたもの	-10.9157
▁木造	-10.9158
音を出す	-10.9162
するとき	-10.9164
稀	-10.9174
ひろ	-10.9174
役目	-10.9175
振る	-10.9177
生物	-10.9177
何か	-10.9179
者として	-10.9181
の影響を受け	-10.9185
(186	-10.9185
重さ	-10.9187
遊行	-10.9194
大判	-10.9194
親しまれている	-10.9195
が主流である	-10.9196
はならない	-10.9196
▁関東	-10.9199
両端	-10.9202
を挙げる	-10.9203
ものだった	-10.9205
いろ	-10.9207
伝え	-10.9208
正面に	-10.9209
認め	-10.921
発展させ	-10.921
時間が	-10.9218
部分の	-10.9224
聖人	-10.9231
置いて	-10.9232
国会	-10.9235
の流れを汲む	-10.9237
軍事	-10.9237
るのは	-10.9239
所有者	-10.9241
レス	-10.9247
昭和時代	-10.9253
島原	-10.9253
▁天	-10.9254
が大きい	-10.9255
の食事	-10.9257
厳密には	-10.9257
を開け	-10.9257
伝法	-10.9258
▁明治維新	-10.9259
程度に	-10.9269
を備えた	-10.9271
つけた	-10.9272
議会	-10.9272
食べた	-10.9273
盛り付け	-10.9273
170	-10.9274
かたち	-10.9275
大寺	-10.9276
たちの	-10.9276
の項	-10.9279
をつくる	-10.9281
した場合	-10.9282
にあわせて	-10.9286
ca	-10.9287
が始まり	-10.9288
のついた	-10.9291
さくら	-10.9292
証明	-10.9292
的要素	-10.9293
奪	-10.9295
本曲	-10.9296
を迎えた	-10.9298
もり	-10.9305
に置く	-10.931
事がある	-10.931
訪れる	-10.9312
ā	-10.9312
期には	-10.9315
▁初め	-10.9319
点は	-10.9321
理由で	-10.9323
江戸時代初期	-10.9324
定められている	-10.9326
排	-10.9326
誤解	-10.9327
点から	-10.933
山形	-10.9334
の外	-10.9335
演奏される	-10.9338
)(13	-10.934
も含めて	-10.9342
今も	-10.9343
水分を	-10.9343
の整備	-10.9345
石造	-10.9345
料理の	-10.9352
祓	-10.9353
凝	-10.9358
しておく	-10.9359
穀	-10.9363
販売している	-10.9364
っか	-10.9366
借	-10.9368
狭	-10.937
▁四	-10.9371
の時期	-10.9375
するように	-10.9377
節分	-10.9377
を交配	-10.9378
掲載	-10.938
▁次に	-10.9381
静岡	-10.9383
業務	-10.9383
を離れ	-10.9384
寝殿造	-10.9385
▁これに対し	-10.9386
全国で	-10.9387
貨	-10.9388
付けた	-10.9389
したとされる	-10.939
ウマ	-10.939
鹿児島	-10.9391
であることを	-10.9391
前日	-10.9391
幡	-10.9392
販売されている	-10.9392
蝶	-10.9394
葱	-10.9395
Y	-10.9395
李	-10.9395
俳優	-10.9395
エピソード	-10.9395
かもしれない	-10.9395
篤	-10.9395
遣唐使	-10.9395
駐	-10.9395
ユガケ	-10.9395
愛好家	-10.9395
卵かけご飯	-10.9395
伺	-10.9395
古今和歌集	-10.9395
終わる	-10.9395
続いている	-10.9395
幻	-10.9395
沿岸	-10.9395
シロップ	-10.9395
あくまでも	-10.9395
珍しく	-10.9396
テーマ	-10.9396
個々の	-10.9396
鳥取県	-10.9396
を好む	-10.9396
永享	-10.9396
鐘楼	-10.9396
美人画	-10.9396
ういろう	-10.9396
真言律宗	-10.9397
包装	-10.9397
故郷	-10.9397
概ね	-10.9397
御影堂	-10.9397
を象徴する	-10.9397
細長	-10.9397
資源	-10.9397
たいてい	-10.9398
精舎	-10.9398
滞在	-10.9398
住まい	-10.9398
空襲	-10.9398
▁諡号は	-10.9398
混入	-10.9398
石州流	-10.9398
収入	-10.9399
即ち	-10.9399
杜氏集団	-10.9399
建長	-10.9399
電気	-10.94
上述の	-10.94
無量	-10.9401
1967	-10.9401
尊称	-10.9401
仏陀	-10.9401
世襲	-10.9401
民間信仰	-10.9401
主導	-10.9402
が入った	-10.9402
1954	-10.9402
に適した	-10.9403
午後	-10.9403
ジン	-10.9405
案内	-10.9405
に尽力した	-10.9405
登場人物	-10.9406
などと呼ばれる	-10.9406
間仕切り	-10.9406
奈良の	-10.9407
平城	-10.9408
刻み	-10.9409
につれて	-10.9409
木を	-10.9409
釣り	-10.9409
主珠	-10.941
▁古くから	-10.9411
仕掛け	-10.9412
されるが	-10.9412
十二天	-10.9412
仏堂	-10.9412
打楽器	-10.9412
安政	-10.9415
禅定	-10.9416
に仕えた	-10.9416
料紙	-10.9416
いり	-10.9417
三角形	-10.9418
安土	-10.9418
重源	-10.9419
がかり	-10.9421
文治	-10.9424
市内	-10.9424
が発達し	-10.9428
両方	-10.9431
増え	-10.9432
幅約	-10.9432
三河	-10.9432
帝国	-10.9434
作曲家	-10.9435
世界的に	-10.9438
稀に	-10.944
炒め	-10.9441
邸宅	-10.9442
その名	-10.9443
摂取	-10.9444
ものを指す	-10.9445
の郷土料理	-10.9447
大鼓	-10.9447
示す	-10.9448
渡り	-10.9452
木刀	-10.9452
が挙げられる	-10.9453
板を	-10.9455
の南	-10.9456
他人	-10.9458
して食べる	-10.9458
城壁	-10.9464
外見	-10.9468
最も古い	-10.9468
廃城	-10.9469
高野	-10.947
相伝	-10.9471
着付け	-10.9471
を掛け	-10.9473
命日	-10.9473
休日	-10.9477
違いがある	-10.9477
利用されている	-10.9479
摺	-10.9482
てきている	-10.9487
できず	-10.9488
世紀に	-10.9488
-16	-10.9489
平時	-10.9492
-9	-10.9493
者もいる	-10.9496
いなかった	-10.9497
三味線の	-10.9497
忠実	-10.9497
耐	-10.9497
石川	-10.9502
東京国立博物館	-10.9502
酒税法	-10.9506
本寺	-10.9507
この時代	-10.9507
片手	-10.9511
甘く	-10.9512
▁浄土宗	-10.9514
称号	-10.9515
の伝承	-10.9517
強化	-10.9521
方等	-10.9522
々に	-10.9523
制定された	-10.9529
で使われる	-10.9532
京都市北区	-10.9533
子供の	-10.9536
あま	-10.9537
▁唐	-10.9538
は大きく	-10.9541
おいて	-10.9542
コク	-10.9543
高さ約	-10.9544
(169	-10.9544
に必要な	-10.9549
うら	-10.955
の顔	-10.9551
であったという	-10.9552
紀州	-10.9554
を祝う	-10.9554
のみの	-10.9556
水が	-10.9558
十七	-10.9558
建てた	-10.9558
▁北海道	-10.9559
に移り	-10.9559
命を	-10.956
とほぼ同じ	-10.9565
時代から	-10.9567
▁ほかに	-10.9569
▁京都の	-10.9572
折れ	-10.9573
西山	-10.9573
子供が	-10.9575
は全く	-10.9582
刺し	-10.9583
つい	-10.9586
を描き	-10.9587
仕舞	-10.9591
かつての	-10.9592
-6	-10.9594
老人	-10.9597
に行われている	-10.9597
祭事	-10.9598
桜の	-10.9599
のなかに	-10.9601
弥生時代	-10.9601
年後の	-10.9601
相手に	-10.9603
▁元禄	-10.9605
入れた	-10.9605
楽譜	-10.9606
同寺	-10.9609
する際	-10.9612
オリ	-10.9612
類の	-10.9613
の起源は	-10.9613
伝播	-10.9613
法然の	-10.9615
主流	-10.9616
開け	-10.9622
蒲	-10.9622
の基礎	-10.9622
分裂	-10.9624
へん	-10.9624
地形	-10.963
であると考えられている	-10.9633
茶器	-10.9634
存在である	-10.9637
る場合もある	-10.9638
はもちろん	-10.9639
▁単に	-10.9644
で販売されている	-10.9649
を発売	-10.9655
やその	-10.9656
取られ	-10.9656
1.5	-10.9657
日野	-10.9659
しまい	-10.9661
が良く	-10.9665
正統	-10.9668
両面	-10.9669
効	-10.967
ブラ	-10.967
の西	-10.9672
用具	-10.9683
なみ	-10.9683
簾	-10.9684
爆	-10.9685
祥	-10.9685
甚	-10.9686
藻	-10.9687
枯山水	-10.9687
審	-10.9687
柏	-10.9687
己	-10.9688
ものであるが	-10.9688
鎌	-10.9688
符	-10.9689
陳	-10.9689
溜	-10.9689
勇	-10.9689
朗	-10.9689
迦	-10.9689
酉	-10.9689
棗	-10.9689
坪	-10.9689
紺	-10.9689
オリジナル	-10.9689
桓武天皇	-10.9689
おしぼり	-10.9689
一念三千	-10.9689
陀羅尼	-10.9689
ひょう	-10.9689
富山県	-10.9689
或いは	-10.9689
ヴィ	-10.9689
陶磁器	-10.969
何度も	-10.969
商店街	-10.969
効率	-10.969
おおむね	-10.969
催馬楽	-10.969
もたらされた	-10.969
人たち	-10.969
観無量寿経	-10.969
公認	-10.9691
スペース	-10.9691
ゆく	-10.9691
大幅に	-10.9691
区域	-10.9692
補強	-10.9692
カフェ	-10.9692
うす	-10.9692
善光寺	-10.9693
などもある	-10.9693
始祖	-10.9693
歩射	-10.9693
湿度	-10.9693
声聞	-10.9693
要請	-10.9693
と推定されている	-10.9693
もろみ	-10.9693
格好	-10.9693
美しく	-10.9694
こういった	-10.9694
ウィ	-10.9694
ハモ	-10.9694
文化庁	-10.9694
ふれ	-10.9694
契約	-10.9694
温州	-10.9694
1953	-10.9694
資金	-10.9695
武田流	-10.9695
創立	-10.9695
ようで	-10.9696
わせる	-10.9697
いれ	-10.9697
目立つ	-10.9697
液体	-10.9698
吸い物	-10.9699
ハン	-10.9699
紋章	-10.9699
地謡	-10.97
ふりかけ	-10.97
唐揚げ	-10.97
年現在	-10.9701
一致	-10.9702
武田	-10.9702
▁その一方で	-10.9702
いたもの	-10.9703
主題	-10.9703
長らく	-10.9703
抽出	-10.9704
閉じ	-10.9704
誤り	-10.9705
言語	-10.9706
も参照	-10.9707
用法	-10.9707
で使用される	-10.9707
しむ	-10.9709
実戦	-10.9709
▁花	-10.9711
建設された	-10.9712
うん	-10.9714
亭主	-10.9715
祭壇	-10.9716
を支える	-10.9717
射的	-10.9717
酒母	-10.9718
本調子	-10.9723
毎	-10.9724
化したもの	-10.9725
高級な	-10.9725
釈迦仏	-10.9725
にその	-10.9726
年以降	-10.9727
場合もあり	-10.9727
を参考に	-10.9728
ショー	-10.9732
は不明	-10.9733
三角	-10.9737
神職	-10.9739
の状態	-10.974
)9	-10.974
果物	-10.9743
卒業	-10.9744
に及ぶ	-10.9744
意義	-10.9746
各流派	-10.9747
求め	-10.9747
大夫	-10.9749
と記されている	-10.975
らせる	-10.9752
原型	-10.9754
なくても	-10.9754
生命	-10.9754
本願寺の	-10.9757
であるとする	-10.9759
後者は	-10.976
、199	-10.9765
選ばれた	-10.9771
別々	-10.9774
▁日本刀	-10.9774
を立てる	-10.9775
増加	-10.9776
時代には	-10.9776
部の	-10.9776
es	-10.9778
1979	-10.9779
(127	-10.9784
近隣	-10.9784
の遺構	-10.9785
は現在	-10.9787
大規模	-10.9789
があること	-10.9789
の少ない	-10.9792
を残す	-10.9795
根元	-10.9795
中山	-10.9796
囃子方	-10.9797
?	-10.9799
四代目	-10.9801
で行われている	-10.9802
が残されている	-10.9809
取った	-10.981
だけに	-10.9812
の組み合わせ	-10.9814
の主流	-10.9818
の活動	-10.9818
松本	-10.9819
七条	-10.982
ぐる	-10.9821
明け	-10.9823
の真言宗の僧	-10.9825
わす	-10.9826
がなされ	-10.9828
に任じられた	-10.983
坂本	-10.9831
糖化	-10.9832
の価値	-10.9832
天台教学	-10.9835
日本全国	-10.9835
攻め	-10.984
存在している	-10.9841
月現在	-10.9844
記す	-10.9845
元は	-10.9848
演じる	-10.9848
に行く	-10.9849
埋め	-10.9853
が出土している	-10.9856
~16	-10.9861
云	-10.9862
清め	-10.9863
ていること	-10.9868
相手を	-10.9869
▁そのような	-10.9869
二年	-10.987
は多い	-10.9872
保存会	-10.9872
の構成	-10.9875
▁その中で	-10.9879
程度である	-10.9883
比率	-10.9884
遷都	-10.9888
グリ	-10.9892
所で	-10.9898
▁神	-10.99
を残した	-10.9903
逸話	-10.9904
壁面	-10.9912
併せて	-10.9913
流布	-10.9916
伝えた	-10.9918
米飯	-10.992
結婚	-10.9922
がみられる	-10.9924
に大きく	-10.9927
医	-10.9929
明治政府	-10.9929
側から	-10.993
出来た	-10.9932
に配	-10.9934
を出した	-10.9939
すく	-10.994
することが多い	-10.994
をとって	-10.9944
大坂城	-10.9944
構築	-10.9945
の多くが	-10.9947
の遺	-10.9949
壷	-10.995
獲得	-10.9954
わった	-10.9957
人々は	-10.9958
シカ	-10.9958
ることなく	-10.9964
ぬき	-10.9966
遷	-10.9967
を作って	-10.9967
の保存	-10.9968
性を	-10.9968
欠かせない	-10.9969
側が	-10.9975
できなかった	-10.9976
考えられ	-10.9976
怒	-10.9977
特殊	-10.9979
いたが	-10.9979
地面	-10.998
元の	-10.998
明治期	-10.9981
諸説	-10.9981
葬式	-10.9983
丁目	-10.9983
猪	-10.9983
来迎	-10.9985
見られない	-10.9985
鷺	-10.9985
店では	-10.9986
襦袢	-10.9986
限られた	-10.9987
叡	-10.9987
ごろに	-10.9987
完	-10.9988
弔	-10.9988
掌	-10.9989
華厳	-10.999
精進	-10.999
という名	-10.999
喪	-10.999
謝	-10.9991
貧	-10.9992
繁	-10.9992
犯	-10.9992
続日本紀	-10.9992
五輪塔	-10.9992
と比べて	-10.9992
&	-10.9992
市町村	-10.9992
三宝院	-10.9992
⇒	-10.9993
佃煮	-10.9993
博覧会	-10.9993
しかも	-10.9993
六尺褌	-10.9993
灯篭	-10.9993
破却	-10.9993
タイ王国	-10.9993
和泉	-10.9993
孔雀	-10.9993
惣菜	-10.9993
援助	-10.9993
摂受	-10.9993
苦しみ	-10.9993
技巧	-10.9993
公卿	-10.9993
詩吟	-10.9993
無量寿	-10.9993
に至り	-10.9994
規格	-10.9994
言及	-10.9994
日常生活	-10.9994
崩御	-10.9994
引き続き	-10.9994
市街地	-10.9995
日本国外	-10.9995
を重視する	-10.9995
チャン	-10.9995
の入った	-10.9995
西京極	-10.9996
1950	-10.9996
華厳経	-10.9996
揉み	-10.9996
刻んだ	-10.9997
解散	-10.9997
布施	-10.9997
鴨川	-10.9998
をのせ	-10.9998
巻藁	-10.9999
非難	-11
像容	-11.0001
嵐	-11.0001
工芸品	-11.0001
合計	-11.0001
革新	-11.0002
約束	-11.0002
日常的に	-11.0002
徳川家	-11.0004
盛平	-11.0004
電子	-11.0005
日本三大	-11.0006
階段	-11.0007
内にある	-11.0007
の作法	-11.0009
境界	-11.001
行く	-11.0011
繰り	-11.0011
はそれぞれ	-11.0011
好き	-11.0011
の境地	-11.0012
長浜	-11.0013
市販されている	-11.0013
刀を	-11.0013
大同	-11.0014
画風	-11.0015
1928	-11.0016
玄米	-11.0016
唐草	-11.0018
あつ	-11.0018
鷲	-11.0019
茅葺	-11.0022
正方形	-11.0023
の名残	-11.0023
められた	-11.0023
神々	-11.0024
の風習	-11.0025
間違い	-11.0025
大路	-11.0028
一代	-11.0028
に対応する	-11.003
内観	-11.003
を示し	-11.0035
戦国	-11.0036
行基	-11.0036
』1	-11.0039
を占める	-11.0039
やぐら	-11.0039
していて	-11.0039
一向	-11.004
戒名	-11.004
世界に	-11.0041
場合でも	-11.0042
対比	-11.0042
南に	-11.0043
二条家	-11.0044
にほん	-11.0047
方角	-11.0048
始められた	-11.005
に乗り	-11.005
がついた	-11.0052
を務め	-11.0056
参り	-11.0057
生業	-11.0061
ておく	-11.0067
形が	-11.0067
酒に	-11.0068
加えて	-11.007
どのような	-11.0071
海岸	-11.0072
の指導	-11.0072
当て	-11.0073
おから	-11.0074
劣る	-11.0075
大相撲	-11.0075
優れ	-11.0076
合わせて	-11.0078
用として	-11.008
唐衣	-11.0082
建造	-11.0083
峰山	-11.0084
は江戸時代	-11.0086
の生活	-11.0087
部材	-11.0087
蔵人	-11.009
劣	-11.0092
貸	-11.0092
花火	-11.0094
できるように	-11.0097
制作された	-11.01
が始まる	-11.01
と述べている	-11.0102
さらには	-11.0103
▁元は	-11.0105
ことがあった	-11.0108
(133	-11.0108
に存在する	-11.0108
素人	-11.0109
小手	-11.0111
のことであり	-11.0111
白く	-11.0114
門人	-11.0117
付近に	-11.0118
▁初	-11.0118
新酒	-11.0121
店は	-11.0122
の保護	-11.0123
▁初代	-11.0128
状のもの	-11.013
の流行	-11.0131
誰	-11.0134
てゆく	-11.0135
生地に	-11.0135
という伝説	-11.0135
木版	-11.0137
縦に	-11.0138
の人気	-11.0141
のあった	-11.0141
形式である	-11.0143
主人	-11.0145
1977	-11.0147
の教えを	-11.0149
を開き	-11.015
の対立	-11.0152
サラ	-11.0152
故に	-11.0153
の源流	-11.0153
目を	-11.0155
もよい	-11.0156
正しく	-11.0157
火で	-11.0158
アー	-11.0159
▁大正	-11.016
の製法	-11.0161
の奥	-11.0162
250	-11.0163
代表的	-11.0168
離れ	-11.0168
の四	-11.0171
ぶっ	-11.0173
があったが	-11.0179
平安時代初期	-11.0182
ピー	-11.0182
ようと	-11.0182
揃	-11.0184
ばい	-11.0186
創始	-11.0187
を利用し	-11.0187
姿で	-11.019
ことが多いが	-11.0191
年後に	-11.0191
のとき	-11.0194
硬く	-11.0195
年創業	-11.0203
教団の	-11.0205
ってしまう	-11.0209
低く	-11.021
期間中	-11.021
四つ	-11.0212
三味線音楽	-11.0213
器具	-11.0215
ブル	-11.0215
▁以上	-11.0219
点前	-11.0222
物や	-11.0223
の父	-11.0224
▁法隆寺	-11.0224
開いた	-11.0229
の人々	-11.0233
パリ	-11.0233
五色	-11.0235
te	-11.0236
寺院に	-11.0236
寄付	-11.0237
提出	-11.0241
ことば	-11.0242
の衣装	-11.0247
ものだ	-11.0248
本地	-11.0254
融合	-11.0257
民俗	-11.026
積み	-11.0261
入門	-11.0266
中世の	-11.0267
会津	-11.0269
の声	-11.027
刷	-11.027
なかったため	-11.0271
くず	-11.0274
▁この間	-11.0276
ヤマ	-11.028
最古	-11.0281
系譜	-11.0281
くれ	-11.0282
付きの	-11.0285
つめ	-11.0286
の周囲	-11.0286
截金	-11.0287
粘	-11.0288
やまと	-11.0291
販売される	-11.0292
裁判	-11.0292
のものが	-11.0293
浪	-11.0293
開創	-11.0296
欧	-11.0296
岐	-11.0297
拭	-11.0299
食べて	-11.03
透	-11.03
必	-11.03
後には	-11.03
べく	-11.0302
疎	-11.0304
キリシタン	-11.0304
ふすま	-11.0304
プラスチック	-11.0304
▁1970	-11.0305
旬	-11.0305
羊	-11.0305
つながり	-11.0305
姉	-11.0305
を実施	-11.0305
貌	-11.0305
金剛頂経	-11.0305
朱子学	-11.0305
婦人標準服	-11.0305
而	-11.0305
壮	-11.0305
横穴式石室	-11.0305
鳴らす	-11.0305
妃	-11.0305
定額寺	-11.0305
ポイント	-11.0305
滴	-11.0305
淵	-11.0305
アルコール度数	-11.0305
手水鉢	-11.0305
曼殊院	-11.0305
艶	-11.0305
聖護院	-11.0305
NHK	-11.0305
雌	-11.0305
イワシ	-11.0305
▁いっぽう	-11.0305
框	-11.0305
検査	-11.0305
に伴う	-11.0305
朱雀	-11.0305
徳島県	-11.0305
報恩	-11.0305
富士門流	-11.0306
数寄屋	-11.0306
登録有形文化財	-11.0306
マグロ	-11.0306
往来	-11.0306
中興の祖	-11.0306
勧学会	-11.0307
ヒット	-11.0307
麹菌	-11.0307
を以て	-11.0307
解禁	-11.0307
習得	-11.0308
元興寺	-11.0308
カード	-11.0308
近辺	-11.0308
わび茶	-11.0308
平城京	-11.0308
活字	-11.0309
改暦	-11.0309
歌謡	-11.0309
ウェ	-11.0309
外交	-11.0309
ばれ	-11.0309
紙の	-11.0309
北東	-11.0309
湿気	-11.031
との交流	-11.031
回収	-11.031
拝読	-11.031
西洋音楽	-11.031
衣冠	-11.031
表情	-11.0311
沿い	-11.0311
1968	-11.0311
相承	-11.0311
相談	-11.0313
勝利	-11.0315
場合によっては	-11.0315
高温	-11.0316
未だ	-11.0316
がよい	-11.0316
を組み合わせた	-11.0316
慈円	-11.0317
記載されている	-11.0318
見物	-11.0321
こふん	-11.0322
教如	-11.0323
▁1950	-11.0323
内容は	-11.0324
生酒	-11.0324
半ば	-11.0325
差別	-11.0327
無理	-11.0327
明応	-11.0327
交配	-11.0327
日本においては	-11.0328
戦場	-11.0329
ばち	-11.0329
明暦	-11.033
発願	-11.033
宇治市	-11.0331
と呼ぶことがある	-11.0332
だす	-11.0332
転用	-11.0333
93	-11.0333
書状	-11.0334
露地	-11.0334
他宗派	-11.0334
母屋	-11.0337
一貫	-11.0338
に移った	-11.0338
安楽	-11.0338
現存している	-11.0341
父の	-11.0345
無かった	-11.0346
全部	-11.0347
神明造	-11.0348
略式	-11.0349
に至って	-11.035
の働き	-11.035
福知山	-11.0351
各々	-11.0354
の調査	-11.0355
区別する	-11.0355
▁火	-11.0357
建立された	-11.0357
を務める	-11.0363
を図る	-11.0365
とみられる	-11.0367
開催された	-11.0368
文楽	-11.0368
筆頭	-11.0371
沈	-11.0374
(166	-11.0377
馬上	-11.0377
年月日	-11.0377
出品	-11.0379
首を	-11.0379
一対	-11.038
音楽として	-11.0383
宮中で	-11.0383
▁詳しくは	-11.0387
王子	-11.0388
現世	-11.0388
演芸	-11.0392
技術者	-11.0392
一派	-11.0392
ものも多い	-11.0392
の子孫	-11.0393
壊	-11.0395
黒い	-11.0396
両手	-11.04
平行	-11.0402
が設けられた	-11.0405
とは別の	-11.0407
各宗派	-11.0411
代替	-11.0413
次男	-11.0413
」(「	-11.0414
を行っていた	-11.0416
文化的	-11.0416
曲線	-11.0419
発達	-11.0419
日常の	-11.0423
認められた	-11.0425
を求め	-11.0426
幕府は	-11.0431
1978	-11.0431
神田	-11.0432
を使うこと	-11.0432
▁後円部	-11.0432
禁止された	-11.0436
対抗	-11.044
を使用	-11.0446
を記した	-11.0446
前座	-11.0446
-14	-11.0449
として知られている	-11.0453
巻く	-11.0454
▁それらの	-11.0459
下部	-11.046
元々	-11.0462
悪人	-11.0471
考えられている	-11.0472
プレ	-11.0472
▁父	-11.0478
バン	-11.0478
四季	-11.0479
で言う	-11.0481
豊臣秀吉が	-11.0482
la	-11.0483
握	-11.0484
ハー	-11.0485
国立国会図書館の	-11.0486
考えられる	-11.0489
象徴	-11.0492
人間が	-11.0493
国指定	-11.0496
本書	-11.0497
進め	-11.0501
ここから	-11.0501
が現れた	-11.0505
短く	-11.0506
(157	-11.051
事により	-11.0513
仏事	-11.0514
化学	-11.0515
保存性	-11.0515
の孫	-11.0515
許された	-11.0516
狭義の	-11.0518
はい	-11.0522
天地	-11.0523
築造	-11.0528
の浄土真宗の僧	-11.0528
の重要な	-11.0529
に分けて	-11.053
前方後円墳である	-11.0533
蒸留	-11.0536
が発達した	-11.0536
まれる	-11.0537
重要視	-11.0538
江戸で	-11.0538
したりする	-11.054
位置に	-11.054
na	-11.0544
を展示	-11.0546
落とす	-11.0548
インドで	-11.0548
江戸に	-11.0548
明神	-11.0549
転じて	-11.055
この頃	-11.055
現れ	-11.0552
どちらも	-11.0557
一面	-11.0559
を引く	-11.0559
せない	-11.0562
特徴的な	-11.0564
▁もともとは	-11.0565
卒	-11.0568
含む	-11.0572
地方で	-11.0573
長安	-11.0573
の中の	-11.0575
敷き	-11.0577
下記の	-11.058
▁タン	-11.0581
ものとしては	-11.0583
るのが	-11.0584
狩り	-11.0587
以後の	-11.059
後述する	-11.0593
韓	-11.0593
布袋	-11.0594
獲	-11.0595
どれ	-11.0597
小山	-11.0598
▁その後は	-11.06
ーズ	-11.0601
得る	-11.0605
年まで	-11.0605
によって異なる	-11.0605
ときの	-11.0606
数々の	-11.0609
屋外	-11.0609
せば	-11.0609
はな	-11.0611
の形に	-11.0611
例は	-11.0612
の伴奏	-11.0614
焚	-11.0621
婚	-11.0625
奈	-11.0626
叩き	-11.0626
冬至	-11.0626
観察	-11.0627
てる	-11.0627
乃	-11.0627
紹	-11.0627
ぢ	-11.0627
抵抗	-11.0627
こんにゃく	-11.0627
持ち帰った	-11.0627
焙	-11.0627
萩	-11.0627
膜	-11.0627
レシピ	-11.0627
スパゲッティ	-11.0627
当該	-11.0627
大日本武徳会	-11.0628
鞘	-11.0628
二箇相承	-11.0628
八ッ橋	-11.0628
ラジオ	-11.0628
孤	-11.0628
大量生産	-11.0628
千鳥の曲	-11.0628
に過ぎない	-11.0628
を行なった	-11.0628
大根おろし	-11.0628
ぜんざい	-11.0628
阿弥陀仏の本願	-11.0628
訓練	-11.0628
還俗	-11.0628
権大僧都	-11.0628
ピン	-11.0629
チョウ	-11.0629
に載せ	-11.0629
連絡	-11.0629
絶滅	-11.0629
羽二重	-11.0629
選抜	-11.0629
三重塔	-11.063
国民服	-11.063
実験	-11.063
吸い	-11.063
ジョン	-11.0631
種々の	-11.0631
人形浄瑠璃	-11.0631
看板	-11.0631
わけではなく	-11.0631
ゴム	-11.0631
治承	-11.0631
1984	-11.0631
中央区	-11.0632
京都府宇治市	-11.0632
だし汁	-11.0632
まぶし	-11.0632
弁慶	-11.0633
防具	-11.0633
隙間	-11.0633
京都府舞鶴市	-11.0633
廃業	-11.0633
1961	-11.0634
弦楽器	-11.0634
歴史的に	-11.0634
延宝	-11.0635
宣伝	-11.0635
鳥居	-11.0635
戦乱	-11.0635
頼政	-11.0635
モノ	-11.0635
一連の	-11.0635
死者の	-11.0637
大津市	-11.0639
義満	-11.0639
挿し	-11.0639
路線	-11.0639
読経	-11.0639
第四	-11.0639
社長	-11.0641
寛正	-11.0641
宝永	-11.0642
豊作	-11.0642
が付く	-11.0642
上がった	-11.0643
禅宗の	-11.0643
自宅	-11.0644
千葉	-11.0645
すず	-11.0645
勝ち	-11.0645
ねぎ	-11.0645
並べ	-11.0645
おび	-11.0646
石山寺	-11.0647
に際し	-11.0647
遺体	-11.0648
厚い	-11.0648
みん	-11.0649
富士山	-11.065
日本酒の歴史	-11.065
日本舞踊	-11.065
八代	-11.0651
重宝	-11.0653
ようとする	-11.0654
頂上	-11.0654
を目的として	-11.0655
が生じ	-11.0658
なぜ	-11.0659
聖天	-11.0661
することによって	-11.0662
番地	-11.0667
うちわ	-11.0667
仏画	-11.067
鎌倉市	-11.067
に達する	-11.0672
に立ち	-11.0672
はもともと	-11.0672
演じられる	-11.0672
場所で	-11.0676
台座	-11.0677
創始した	-11.0677
かれている	-11.0678
とも呼ばれた	-11.0678
▁そもそも	-11.068
の系譜	-11.0681
じつ	-11.0682
観光地	-11.0683
一辺	-11.0683
祖先	-11.0684
たところ	-11.0686
ができた	-11.0686
出ている	-11.0687
に伝わった	-11.0687
▁奈良時代	-11.0687
新館	-11.069
とも考えられる	-11.0691
からくり	-11.0693
名勝	-11.0695
を被	-11.0696
―『	-11.0697
絵像	-11.0698
そく	-11.07
が長く	-11.07
はいずれも	-11.0703
理由として	-11.0704
▁以前は	-11.0705
を著し	-11.0707
の範囲	-11.0709
ものとされる	-11.071
▁西日本旅客鉄道	-11.071
大文字	-11.0713
柱間	-11.0719
勤める	-11.0723
科の	-11.0724
月琴	-11.0724
を指す言葉	-11.0726
製法は	-11.0728
いかに	-11.0729
が確認されている	-11.0735
上手	-11.0736
5%	-11.0736
成熟	-11.0738
がいた	-11.074
の変	-11.0742
続け	-11.0743
開く	-11.0743
使われるようになった	-11.0744
役人	-11.0746
描き	-11.0747
枯れ	-11.0748
以後は	-11.0748
の中央	-11.0751
書風	-11.0751
諸宗	-11.0752
を継承し	-11.0757
▁当初	-11.0758
あわ	-11.0759
ヨーロッパの	-11.0761
弱い	-11.0764
恐れ	-11.0764
汁物	-11.0767
歌手	-11.0768
辛味	-11.0769
出来ない	-11.0772
武士が	-11.0775
激しく	-11.0775
ti	-11.0778
現れた	-11.0781
政治的	-11.0781
たび	-11.0783
ることを	-11.0784
三蔵	-11.0784
を止め	-11.0784
▁法華経	-11.0787
勝手	-11.0788
南西	-11.0791
線を	-11.0791
年竣工	-11.0792
糸を	-11.0794
という意味である	-11.0795
仏道	-11.0797
それ以降	-11.0801
即位式	-11.0803
出家し	-11.0805
この地	-11.0808
に住む	-11.0809
夜に	-11.081
内部に	-11.0811
哲学	-11.0814
このころ	-11.0818
本人	-11.0819
~8	-11.082
場合と	-11.0823
その後の	-11.0825
描	-11.0825
この説	-11.0826
障	-11.0827
日本一	-11.0829
号は	-11.0831
自然の	-11.0831
本尊の	-11.0832
を書き	-11.0834
の中央に	-11.0835
過去に	-11.0837
利用者	-11.0841
として用いる	-11.0841
冷や	-11.0843
たこと	-11.0846
その後は	-11.0846
を特に	-11.0847
インターチェンジ	-11.0848
広げ	-11.0849
徒歩約	-11.0849
古代の	-11.0853
』(『	-11.0856
学派	-11.0856
1981	-11.0859
門前	-11.0862
あるが	-11.0862
抱え	-11.0863
墳丘の	-11.0863
の管理	-11.0865
スク	-11.0865
ナイ	-11.0866
垂れ	-11.087
になること	-11.0871
備え	-11.0873
中国大陸	-11.0874
創設	-11.0874
出している	-11.0876
あっても	-11.0876
▁上方	-11.0878
の建設	-11.088
モデル	-11.088
を伝えた	-11.0883
▁石	-11.0884
と対	-11.0886
擁	-11.0887
▁比叡山	-11.0888
たりする	-11.0889
▁<	-11.0892
合成	-11.0893
700	-11.0897
のイメージ	-11.09
こちらは	-11.0901
せっ	-11.0904
取り付け	-11.0905
伝来の	-11.0908
後方	-11.091
ことと	-11.0911
唯	-11.0912
みられる	-11.0913
に分け	-11.0914
かえって	-11.0916
田辺	-11.092
ソー	-11.0921
カイ	-11.0922
隠れ	-11.0924
すべてを	-11.0929
の下で	-11.0929
つくり	-11.0931
の演奏	-11.0931
法華経を	-11.0933
音域	-11.0933
時から	-11.0938
楽器として	-11.0938
は多く	-11.094
▁元来	-11.0942
の影響を受けた	-11.0943
覧	-11.0943
楽しむ	-11.0944
の大きな	-11.0945
斜	-11.0947
出入り	-11.0947
脈	-11.0949
揺	-11.0949
藍	-11.095
が発祥	-11.0951
▁宝	-11.0953
かは	-11.0954
極楽浄土	-11.0955
貼る	-11.0955
晋	-11.0957
は白	-11.0958
凍	-11.0959
由緒	-11.0959
鳩摩羅什	-11.096
考慮	-11.096
彌	-11.0961
躍	-11.0961
宗旦	-11.0961
熨斗	-11.0961
純米酒	-11.0961
甲冑	-11.0961
詔	-11.0961
インスタント	-11.0961
サツマイモ	-11.0961
明智光秀	-11.0961
迎賓館	-11.0961
パターン	-11.0961
嘱	-11.0961
湛	-11.0961
百貨店	-11.0961
瞑想	-11.0961
敏	-11.0961
武者小路千家	-11.0961
繋がり	-11.0961
しっかり	-11.0961
勢至菩薩	-11.0961
堕	-11.0961
広隆寺	-11.0961
撤去	-11.0961
長谷寺	-11.0961
ビジネス	-11.0961
號館	-11.0961
廃仏毀釈	-11.0961
真如苑	-11.0961
拡張	-11.0961
南無妙法蓮華経	-11.0961
注意が必要である	-11.0961
滋賀県大津市	-11.0961
南方録	-11.0962
狩衣	-11.0962
合併	-11.0963
ボール	-11.0963
のが普通である	-11.0963
次いで	-11.0963
採取	-11.0963
ッシュ	-11.0963
野球	-11.0963
寛弘	-11.0964
を置いた	-11.0964
値段	-11.0964
あえて	-11.0964
低温	-11.0964
雛祭り	-11.0964
山水図	-11.0964
つける	-11.0965
調弦	-11.0965
写実	-11.0965
一行	-11.0965
温かい	-11.0965
カレーソース	-11.0966
服飾	-11.0966
幅広い	-11.0966
農村	-11.0966
シャン	-11.0966
知恵	-11.0966
標高	-11.0967
べん	-11.0967
に関わる	-11.0967
顕如	-11.0967
濃度	-11.0967
周囲の	-11.0967
付加	-11.0967
の新	-11.0968
銘柄	-11.0968
常住	-11.0968
命令	-11.0968
語録	-11.0969
の学僧	-11.0969
金銅	-11.097
1932	-11.0971
上級	-11.0972
をとり	-11.0973
古文書	-11.0975
実如	-11.0975
有利	-11.0975
全面	-11.0976
気持ち	-11.0976
出土品	-11.0977
熊手	-11.0978
硬い	-11.0978
何らかの	-11.0978
派祖	-11.0979
台所	-11.0979
河内国	-11.0979
正宗	-11.0979
利用された	-11.098
を含めて	-11.098
江戸時代末期	-11.0982
暦法	-11.0983
行幸	-11.0983
と称している	-11.0983
に描かれた	-11.0984
近衛家	-11.0985
絵具	-11.0986
切断	-11.0988
尊重	-11.0988
後見	-11.0989
日本人が	-11.099
声明	-11.099
東密	-11.0991
檀家	-11.0991
雄町	-11.0992
▁青	-11.0995
芸風	-11.0996
松竹	-11.0998
とらえ	-11.0998
保存されている	-11.0998
藤原氏	-11.1001
付いた	-11.1001
いっ	-11.1002
矢を	-11.1005
歳のとき	-11.1006
円満	-11.1008
止める	-11.1008
(2006	-11.1011
高級品	-11.1015
グラ	-11.1016
を用いず	-11.1018
まわり	-11.1018
仏教における	-11.1018
伝えられる	-11.1021
三輪	-11.1024
成道	-11.1025
蔵書	-11.1026
独自	-11.1027
の化身	-11.1027
だて	-11.1029
わせ	-11.1031
五徳	-11.1032
火事	-11.1032
入母屋造	-11.1034
礼法	-11.1035
をもった	-11.1035
の定義	-11.1035
の様子	-11.1035
)(10	-11.1036
北区	-11.1037
炊	-11.1038
種目	-11.1039
同県	-11.1041
柴	-11.1042
預	-11.1044
くう	-11.1049
が基本	-11.1053
濃く	-11.1055
背後	-11.1059
を施す	-11.1062
越後	-11.1064
さる	-11.1067
室町時代中期	-11.1068
という概念	-11.1068
の差異	-11.1072
形をしている	-11.1073
代の	-11.1077
京都に	-11.1078
最高の	-11.1079
?-	-11.1081
を書いた	-11.1081
地歌三味線	-11.1084
浸透し	-11.1085
豊臣秀吉の	-11.1085
そのため	-11.1086
出世	-11.1086
寺に	-11.1091
ミン	-11.1095
の生産	-11.1097
▁全国	-11.1097
がち	-11.1099
の方法	-11.1099
添加	-11.11
玄人	-11.1101
ドラ	-11.1101
を建立し	-11.1102
re	-11.1103
最澄が	-11.1106
途絶え	-11.1111
墓所	-11.1112
無地	-11.1113
胡弓楽	-11.1115
に入ってから	-11.1117
三方	-11.1117
江戸中期	-11.112
▁空海	-11.1121
習慣は	-11.1121
にあたって	-11.1122
社会的	-11.1126
普及し	-11.1131
原形	-11.1132
を着た	-11.1133
の別名	-11.1135
開かれた	-11.1136
煉瓦	-11.1137
学び	-11.114
の名所	-11.114
唐物	-11.1142
汚れ	-11.1147
以降に	-11.1148
固める	-11.115
関東では	-11.115
てしまい	-11.1151
風に	-11.1152
▁鬼	-11.1155
主食	-11.1157
好みの	-11.116
なき	-11.116
▁それを	-11.1162
平安時代末期	-11.1164
失われた	-11.1165
と呼ぶようになった	-11.1165
っていない	-11.1166
本覚	-11.1166
新潟	-11.1167
担い	-11.117
一家	-11.1171
既存の	-11.1173
を訪れ	-11.1173
女性は	-11.1174
を見せる	-11.1176
大王	-11.118
ないと	-11.1181
曳	-11.1181
▁南北朝時代	-11.1182
和え	-11.1183
唱え	-11.1185
継ぎ	-11.1185
個の	-11.1185
酢飯	-11.1188
▁○	-11.1188
数年	-11.1193
整え	-11.1193
法度	-11.1194
姿は	-11.1194
メリ	-11.1194
の条に	-11.1195
▁天台宗	-11.1195
▁この他	-11.1204
の天台宗の僧	-11.1205
it	-11.1207
の頃	-11.1208
月末	-11.1208
に分かれ	-11.1209
地歌の	-11.121
のひとつで	-11.1212
土産	-11.1216
バイ	-11.1219
ようとした	-11.122
ということである	-11.1222
を禁じ	-11.1223
木像	-11.1223
が広まった	-11.1227
一流	-11.1233
境地	-11.1234
上流	-11.1235
大日如来の	-11.1239
の両	-11.124
語である	-11.124
方法が	-11.1242
日本でも	-11.1244
受け入れ	-11.1246
っぽ	-11.1247
の語源は	-11.1248
原料の	-11.1248
は全て	-11.1253
(168	-11.1257
返す	-11.1261
展示されている	-11.1262
胎	-11.1263
せられる	-11.1263
茹でた	-11.1264
南東	-11.1268
出家した	-11.127
二分	-11.127
閏	-11.1271
ここでは	-11.1272
も増え	-11.1274
の相	-11.1274
写し	-11.1278
チェーン	-11.1278
衰退し	-11.1282
回忌	-11.1282
廃絶	-11.1283
-18	-11.1283
後漢	-11.1285
を基に	-11.1286
の地名	-11.1287
々と	-11.1289
したとき	-11.1289
促進	-11.129
独立して	-11.129
事実上	-11.129
論じ	-11.1293
大部分	-11.1295
あくまで	-11.1296
寺で	-11.1296
升	-11.1297
就	-11.1299
窮	-11.1299
鰹	-11.1299
拳法	-11.1299
籤	-11.13
霞	-11.1301
伊豆	-11.1301
暖	-11.1302
竹林	-11.1302
することがある	-11.1302
監	-11.1304
鋳	-11.1304
幣	-11.1304
一部では	-11.1305
淳	-11.1305
鉱	-11.1305
ヲ	-11.1305
窟	-11.1305
亀の尾	-11.1305
厄	-11.1306
碧	-11.1306
有職故実	-11.1306
縮緬	-11.1306
唐招提寺	-11.1306
後水尾天皇	-11.1306
鳳凰	-11.1306
黙	-11.1306
高松塚古墳	-11.1306
かんざし	-11.1306
甥	-11.1306
秒	-11.1306
石清水八幡宮	-11.1306
ほうじ茶	-11.1306
スペイン	-11.1306
印明伝授	-11.1306
城下町	-11.1306
をあらわす	-11.1306
暮らし	-11.1306
適宜	-11.1306
椅子	-11.1306
タマネギ	-11.1306
律令	-11.1306
ハワイ	-11.1306
大日経	-11.1306
殺菌	-11.1306
▁前者	-11.1306
サッカー	-11.1306
弥右衛門	-11.1306
叔父	-11.1307
夜叉	-11.1307
足利義政	-11.1307
接待	-11.1307
藤原道長	-11.1307
天竺	-11.1307
霊験	-11.1307
がついている	-11.1307
収納	-11.1307
重要無形文化財	-11.1307
クラブ	-11.1307
女王	-11.1307
▁多くは	-11.1307
平安神宮	-11.1307
訪問着	-11.1307
エリア	-11.1307
満年齢	-11.1307
を本尊とする	-11.1307
紀伊国	-11.1308
鋳造	-11.1308
を願う	-11.1308
遺族	-11.1308
統治	-11.1308
に比べると	-11.1308
信濃国	-11.1308
兼任	-11.1308
粘土	-11.1309
異なった	-11.1309
忍術	-11.1309
変形	-11.131
仕切り	-11.131
強制	-11.131
あげる	-11.131
年代後半	-11.131
武田氏	-11.131
阿波	-11.131
▁具体的には	-11.131
平等院	-11.131
1966	-11.1311
の先	-11.1311
シーン	-11.1311
復古	-11.1311
はるかに	-11.1311
外郭	-11.1312
1939	-11.1312
流れる	-11.1313
に置かれた	-11.1313
タンク	-11.1313
サケ	-11.1313
1955	-11.1313
を形成し	-11.1313
教養	-11.1314
左近	-11.1314
発言	-11.1314
マツ	-11.1315
政府の	-11.1315
辛口	-11.1315
の命により	-11.1316
反論	-11.1316
執行	-11.1316
信三郎	-11.1316
想像	-11.1316
贈答品	-11.1317
福井	-11.1317
交互に	-11.1317
工法	-11.1317
(148	-11.1318
国の史跡に指定され	-11.1319
田舎	-11.1319
前提	-11.132
巡行	-11.1321
与え	-11.1321
絹糸	-11.1321
焼肉	-11.1322
上昇	-11.1322
破門	-11.1323
意思	-11.1323
消費量	-11.1323
確認できる	-11.1323
僧録	-11.1324
中でも	-11.1325
住所	-11.1325
夏場	-11.1326
内陣	-11.1326
建つ	-11.1327
六条	-11.1327
高田	-11.1329
言い	-11.1329
恵方	-11.1329
(199	-11.1329
が増えている	-11.133
らは	-11.1331
というのが	-11.1331
世俗	-11.1332
図柄	-11.1333
の名で	-11.1333
小学生	-11.1333
含み	-11.1333
創建された	-11.1334
移築	-11.1334
茶道の	-11.1335
一色	-11.1335
履物	-11.1335
ようになっていった	-11.1335
虚空蔵菩薩	-11.1335
赤飯	-11.1337
と言われた	-11.1337
の際の	-11.1337
下ろし	-11.1337
甘酒	-11.1338
合図	-11.1338
を行うこと	-11.1339
神の	-11.1339
事前に	-11.134
成分が	-11.134
を建立した	-11.1341
ごとく	-11.1342
曲げ	-11.1342
のいずれか	-11.1342
行なわれた	-11.1342
代わり	-11.1343
教室	-11.1343
▁日本においては	-11.1345
普及している	-11.1346
とは違い	-11.1347
十王	-11.1349
発祥の	-11.1351
がなされた	-11.1351
商家	-11.1351
地方もある	-11.1353
兵法	-11.1353
太子	-11.1355
だら	-11.1355
じゅん	-11.1359
御霊	-11.1359
鬼門	-11.1359
手事もの	-11.136
ぞく	-11.136
五位	-11.1361
壁画の	-11.1362
義経	-11.1367
▁これによって	-11.1371
道徳	-11.1373
説く	-11.1376
▁ここに	-11.1379
にかけ	-11.138
を兼ね	-11.1386
とても	-11.1389
(128	-11.139
が違う	-11.139
通用	-11.1391
一文字	-11.1392
そのものは	-11.1392
実物	-11.1394
形成された	-11.1395
いも	-11.1396
ごん	-11.1398
近世の	-11.1398
が同じ	-11.14
を食べ	-11.1402
東部	-11.1404
書体	-11.1404
ざい	-11.1409
改め	-11.141
丸い	-11.1411
科学的	-11.1411
生産地	-11.1411
鉄筋コンクリート造	-11.1411
に耐え	-11.1411
昔の	-11.1417
影響を与え	-11.1424
現代でも	-11.1429
禅宗寺院	-11.143
かか	-11.1431
▁黒壁	-11.1432
が起源	-11.1433
んじん	-11.1433
が建てられ	-11.1434
種子	-11.1434
▁落語	-11.1435
の妙	-11.1438
までの間	-11.1439
にしたがって	-11.144
大勢	-11.1442
竹を	-11.1447
を載せた	-11.1448
例大祭	-11.145
呼ばれ	-11.1451
描かれ	-11.1451
ライン	-11.1452
だけである	-11.1452
の名手	-11.1453
108	-11.1453
から始まった	-11.1456
を着る	-11.1458
の白	-11.1463
合同	-11.1466
発見されている	-11.1466
を求めた	-11.1467
の意味で	-11.1468
も用いられる	-11.1468
列車	-11.1469
石を	-11.1471
を占め	-11.1471
の特徴は	-11.1473
住む	-11.1478
▁塩	-11.1479
和田	-11.1479
なが	-11.1481
関係の	-11.1483
揚げる	-11.1487
ちり	-11.1487
しまう	-11.149
日本各地で	-11.1492
町家	-11.1492
とか	-11.1496
自分で	-11.1498
▁→	-11.1499
先の	-11.1501
京都新聞	-11.1503
とされているが	-11.1504
曲を	-11.1505
中央部	-11.1506
三国	-11.1507
五条	-11.151
しよう	-11.1512
答	-11.1515
前から	-11.1515
小正月	-11.1515
故人の	-11.1516
の装飾	-11.1517
1873	-11.1518
心に	-11.1518
にくく	-11.1521
▁日蓮正宗	-11.1521
疏	-11.1522
場合が多く	-11.1522
ポリ	-11.1522
チョ	-11.1525
の表記	-11.1528
山に	-11.1531
▁実際	-11.1541
年にかけて	-11.1541
するものである	-11.1542
料理法	-11.1543
渡す	-11.1545
指摘し	-11.1548
▁日蓮宗	-11.1549
づく	-11.1551
つぼ	-11.1553
を模して	-11.1554
内外	-11.1555
新成人	-11.1555
も行われている	-11.1557
立地	-11.156
物など	-11.1561
蓄	-11.1565
は江戸	-11.1566
ずら	-11.1571
た場合	-11.1572
の語	-11.1572
▁すると	-11.1574
長年	-11.1574
▁正式には	-11.1575
包んで	-11.1575
のあと	-11.1575
見た	-11.1578
しようとする	-11.1579
ョ	-11.158
的中	-11.1581
襲名	-11.1582
(178	-11.1585
尊像	-11.1585
再建された	-11.1589
)―	-11.1589
番目	-11.159
製麺	-11.1591
吉村	-11.1593
続けた	-11.1594
を模したもの	-11.1596
貢献	-11.1598
奏法	-11.16
を呼び	-11.16
松山	-11.1601
110	-11.1605
巨大	-11.1606
もく	-11.1607
になるように	-11.1609
はあくまで	-11.1612
時間を	-11.1612
ことはなかった	-11.1612
(164	-11.1613
業者が	-11.1614
説かれる	-11.1615
でできた	-11.1617
消滅した	-11.1617
対策	-11.1618
のなかでも	-11.1619
これらを	-11.1628
を築いた	-11.1629
ダン	-11.1631
ませる	-11.1633
認	-11.1633
ことを示す	-11.1636
映	-11.164
午	-11.1642
検出	-11.1642
嗜好	-11.1645
陶	-11.1646
がら	-11.1647
を授け	-11.1647
呪	-11.165
郷土	-11.165
を許され	-11.1652
といっても	-11.1653
諸派	-11.1655
le	-11.1656
闘	-11.1656
嫁	-11.1656
和算	-11.1656
の一派	-11.1657
遂	-11.1657
混合	-11.1659
曖昧	-11.1659
収録	-11.1659
看	-11.1659
であったこと	-11.166
合った	-11.1661
の養子	-11.1661
注釈	-11.1661
祝儀	-11.1661
貢	-11.1662
眠	-11.1662
貨幣	-11.1662
ケチャップ	-11.1663
袂	-11.1663
ナポリタン	-11.1663
勲	-11.1663
天平勝宝	-11.1663
夷	-11.1663
朔	-11.1663
竿	-11.1663
マスコミ	-11.1663
年に品種登録	-11.1663
百人一首	-11.1663
考古学	-11.1663
俳句	-11.1663
凝固	-11.1663
潤	-11.1663
膾	-11.1663
シイタケ	-11.1663
土蜘蛛	-11.1663
大きく分けて	-11.1663
拙	-11.1663
四十八願	-11.1663
斗	-11.1663
理趣経	-11.1663
汗	-11.1663
特異な	-11.1663
に次ぐ	-11.1663
競争	-11.1663
漆喰	-11.1663
運搬	-11.1663
蛋白質	-11.1663
農耕	-11.1663
世紀中頃	-11.1663
繁栄	-11.1663
古墳時代前期	-11.1663
仮設	-11.1663
レベル	-11.1663
枡席	-11.1664
ミルク	-11.1664
新義真言宗	-11.1664
決まった	-11.1664
釈迦牟尼仏	-11.1664
玩具	-11.1664
木津川	-11.1665
博士	-11.1665
博多織	-11.1665
非公開	-11.1665
衆徒	-11.1665
可能性が高い	-11.1665
旧来の	-11.1665
です	-11.1666
吉備	-11.1666
見受けられる	-11.1666
初詣	-11.1666
電話	-11.1666
親族	-11.1667
刀工	-11.1667
送り火	-11.1667
ソン	-11.1667
と呼んでいた	-11.1667
美意識	-11.1668
そういった	-11.1668
片岡	-11.1668
マーク	-11.1668
煮込み	-11.1669
1956	-11.1669
レコード	-11.1669
祀られている	-11.1669
宇治橋	-11.167
偈文	-11.167
1965	-11.167
前述のように	-11.1671
三論宗	-11.1671
戦国大名	-11.1671
掛け声	-11.1671
葺石	-11.1671
数え	-11.1672
を司る	-11.1672
ハレ	-11.1672
図案	-11.1673
短刀	-11.1673
武官	-11.1673
絞り	-11.1673
横浜市	-11.1674
1933	-11.1674
~6	-11.1675
宗旨	-11.1675
死んだ	-11.1676
)→	-11.1676
調製	-11.1677
を建て	-11.1677
武具	-11.1679
達成	-11.1679
金太郎	-11.168
産卵	-11.168
ウス	-11.168
交渉	-11.168
1931	-11.1681
点である	-11.1681
穢れ	-11.1683
九品	-11.1683
▁彼らは	-11.1684
はその後	-11.1685
越前国	-11.1686
の帰依を受け	-11.1686
宋代	-11.1687
新聞社	-11.1687
事務	-11.1688
物件	-11.1688
を開いて	-11.1688
或は	-11.1689
変わる	-11.1689
1895	-11.1689
朝食	-11.169
竹輪	-11.169
ものと考えられる	-11.169
フル	-11.1691
代表作	-11.1691
の歴史は	-11.1692
を通す	-11.1692
子内親王	-11.1692
自家	-11.1692
樹木	-11.1693
解決	-11.1694
出版された	-11.1696
頂点	-11.1696
切妻造	-11.1697
白河	-11.1697
七宝	-11.1697
の着用	-11.1697
などが挙げられる	-11.1698
伝承されている	-11.1698
菩提寺	-11.1698
走り	-11.17
が知られる	-11.1703
出席	-11.1704
ya	-11.171
流派によって	-11.171
長期	-11.1711
乾燥させる	-11.1712
貴人	-11.1717
燃え	-11.1719
▁平	-11.1721
決して	-11.1721
に師事した	-11.1722
入唐	-11.1723
安心	-11.1724
▁このことは	-11.1724
▁本堂	-11.1725
という話	-11.1725
子供たち	-11.1727
使い分け	-11.1733
小道具	-11.1735
東大寺の	-11.1738
集会	-11.174
が入って	-11.174
煮詰め	-11.174
の力	-11.1742
前者	-11.1742
上記のような	-11.1743
の利用	-11.1746
完全な	-11.1746
締める	-11.1746
全体が	-11.1747
てある	-11.1749
まさ	-11.1752
ゴー	-11.1753
っこう	-11.1753
生食	-11.1755
されたため	-11.1757
~17	-11.1758
を見ると	-11.1762
活躍し	-11.1766
詳しく	-11.1766
で見られる	-11.1768
衆生の	-11.1768
三種	-11.1768
に代わって	-11.1769
1890	-11.1769
建物を	-11.1769
を唱えた	-11.177
も含まれる	-11.177
出発	-11.1772
えば	-11.1773
墓地	-11.1773
の高弟	-11.1774
と推測されている	-11.1775
を着用し	-11.1776
ウナギの	-11.1776
を変え	-11.1777
を送る	-11.1779
この時期に	-11.178
築かれ	-11.1782
もらう	-11.1784
に行われた	-11.1786
無事	-11.1786
むら	-11.179
達が	-11.179
目は	-11.1796
が起こる	-11.1796
直後に	-11.1796
が使われ	-11.1796
乱れ	-11.1797
見学	-11.1797
呼	-11.1798
日曜日	-11.1799
で有名な	-11.1799
不定	-11.18
の布	-11.1802
市川	-11.1803
桃山	-11.1805
舞い	-11.1805
客は	-11.1806
▁八	-11.1807
外れ	-11.1808
られるようになった	-11.181
の酒	-11.1811
▁それぞれ	-11.1813
くさ	-11.182
くま	-11.1821
ーク	-11.1822
男性の	-11.1825
こともあって	-11.1826
場所は	-11.183
806	-11.1831
埋	-11.1832
女人	-11.1833
早くから	-11.1833
に指定された	-11.1833
生まれる	-11.1835
行事である	-11.1835
はじめた	-11.1837
等により	-11.1837
鍋料理	-11.1838
留学	-11.184
ッド	-11.184
アミ	-11.184
初期に	-11.1842
を抱え	-11.1842
家伝	-11.1845
度の	-11.1846
習慣が	-11.1847
べきである	-11.1849
弦を	-11.1849
収め	-11.185
伊達	-11.1853
とく	-11.1853
東西に	-11.1855
の住宅	-11.1855
内部は	-11.1858
が約	-11.1862
矢が	-11.1862
順に	-11.1862
かけた	-11.1863
下賜	-11.1865
認知	-11.1865
pa	-11.1866
は同じ	-11.1866
もんぺ	-11.1867
の東	-11.1868
を聞く	-11.1869
死後に	-11.1869
見えない	-11.1871
歌い	-11.1871
を確立した	-11.1874
この地域	-11.1875
を求めて	-11.1876
▁元	-11.1877
舞台に	-11.1878
げい	-11.1879
に帰依し	-11.188
屋町	-11.1882
今では	-11.1883
居館	-11.1884
曲群	-11.1884
残された	-11.1886
その間	-11.1886
らに	-11.1887
というものである	-11.189
の為に	-11.1891
hi	-11.1895
見て	-11.1899
を移し	-11.19
挿	-11.19
世の	-11.1904
すぎ	-11.1905
唐から	-11.1905
最勝	-11.1909
が正しい	-11.191
の称号	-11.191
ng	-11.1911
竹の	-11.1916
周年	-11.1916
にわたる	-11.1917
▁以下に	-11.1919
▁今日では	-11.1919
が付いた	-11.192
タラ	-11.1921
追放	-11.1923
近くの	-11.1924
▁総本山	-11.1925
利休の	-11.1927
を設立	-11.1931
▁それまで	-11.1934
踊る	-11.1936
で約	-11.1936
に達し	-11.1937
和暦	-11.1939
入道	-11.194
包む	-11.194
の一部を	-11.1941
に相当	-11.1945
の名称は	-11.1946
という考え	-11.1949
しょく	-11.1951
の中間	-11.1951
が作られた	-11.196
がなかった	-11.1962
京極	-11.1962
の中にも	-11.1964
忘れ	-11.1966
江戸時代初期に	-11.1967
道長	-11.1969
を備え	-11.1971
を始めた	-11.1971
月第	-11.1971
さまざま	-11.1972
▁以下は	-11.1972
せられた	-11.1974
へい	-11.1978
加える	-11.1983
開始された	-11.199
の住職	-11.1991
180	-11.1995
に努め	-11.1996
が誕生した	-11.1996
洛	-11.1998
発表した	-11.1998
かという	-11.1998
を信じ	-11.1998
えび	-11.1999
かけられ	-11.2
されていった	-11.2001
その中で	-11.2004
争	-11.2006
日本美術	-11.2007
を著した	-11.2007
▁その他の	-11.2008
に作られた	-11.2009
とはいえ	-11.2009
との間に	-11.2009
呑	-11.2009
の完成	-11.201
番目の	-11.201
最近	-11.201
免	-11.2011
応え	-11.2011
災	-11.2012
ru	-11.2012
ベース	-11.2019
趣向	-11.2019
元々は	-11.2021
ザー	-11.2022
無形文化財	-11.2022
挟	-11.2024
一般庶民	-11.2025
廊	-11.2025
食べられている	-11.2026
透明	-11.2026
鎖	-11.2026
木喰	-11.2028
秦	-11.2029
爾	-11.2029
貞享	-11.2029
究	-11.2029
輪郭	-11.203
販	-11.2032
灘	-11.2032
曾	-11.2033
篭	-11.2033
曜日	-11.2033
副葬品	-11.2033
烈	-11.2033
適当な	-11.2033
少なからず	-11.2033
全日本弓道連盟	-11.2033
四度加行	-11.2033
弁才天	-11.2033
四十九日	-11.2033
教科書	-11.2033
椿	-11.2033
ジャポニズム	-11.2033
トッピング	-11.2033
祠	-11.2033
鶯	-11.2033
文部省	-11.2033
純粋な	-11.2033
推古天皇	-11.2033
淀川水系	-11.2033
総じて	-11.2033
生没年不詳	-11.2033
怨霊	-11.2033
は以下の通り	-11.2034
酉の市	-11.2034
血脈	-11.2034
にちなんで	-11.2034
討ち	-11.2034
データ	-11.2034
ふつう	-11.2034
肥料	-11.2034
異なっている	-11.2034
十刹	-11.2034
シェア	-11.2034
提灯	-11.2034
チーズ	-11.2035
に戻り	-11.2035
源義経	-11.2035
茶杓	-11.2035
太平記	-11.2035
すり鉢	-11.2035
打突	-11.2035
鳥の子紙	-11.2036
ネット	-11.2036
少しずつ	-11.2036
連想	-11.2036
たくさん	-11.2036
一気に	-11.2036
呉服	-11.2036
端唄	-11.2036
豊かな	-11.2037
和讃	-11.2037
簡単な	-11.2037
津軽	-11.2037
工房	-11.2037
活発	-11.2037
果汁	-11.2037
岡崎	-11.2037
華厳宗	-11.2038
空也	-11.2038
関与	-11.2038
吉兵衛	-11.2038
鎮守	-11.2038
吊るし	-11.2038
根来寺	-11.2038
筒袖	-11.2038
漆器	-11.2039
映像	-11.2039
志向	-11.2039
もこれ	-11.2039
執筆	-11.2039
徳川幕府	-11.2039
ワン	-11.204
明かり	-11.204
▁この寺は	-11.204
最も一般的な	-11.204
施工	-11.2041
原本	-11.2041
証如	-11.2041
威力	-11.2042
厳しく	-11.2042
量は	-11.2042
懐石料理	-11.2042
長押	-11.2043
宗務	-11.2044
気を	-11.2044
いろいろな	-11.2044
ビン	-11.2044
二郎	-11.2045
ウメ	-11.2045
事項	-11.2046
占い	-11.2046
を発	-11.2047
つまみ	-11.2047
照明	-11.2047
覆い	-11.2047
彫像	-11.2047
を用いること	-11.2048
熱湯	-11.2048
顕教	-11.2049
知られた	-11.2049
音程	-11.205
金銭	-11.205
はっきり	-11.2051
名前の由来	-11.2051
と異なる	-11.2052
三千家	-11.2053
を添える	-11.2054
調和	-11.2054
正応	-11.2056
小麦	-11.2057
土壁	-11.2057
レース	-11.2057
報道	-11.2058
味覚	-11.2059
真乗	-11.206
一回	-11.206
土曜日	-11.206
持統天皇	-11.2061
家光	-11.2062
の壁画	-11.2062
神である	-11.2062
斬り	-11.2062
資本	-11.2062
特別に	-11.2063
仏殿	-11.2065
中陰	-11.2065
一般化し	-11.2066
煮て	-11.2067
)~	-11.2069
内には	-11.2069
2.5	-11.2069
医学	-11.207
祖父	-11.207
真如	-11.207
病院	-11.2071
紹介されている	-11.2072
法眼	-11.2074
lo	-11.2075
どんな	-11.2076
香りが	-11.2076
法令	-11.2077
国鉄	-11.2078
ひとり	-11.2078
語で	-11.2078
記録されている	-11.2078
真言密教の	-11.2078
▁実際に	-11.2078
合せ	-11.2081
個人の	-11.2081
檀林	-11.2081
と思われ	-11.2081
~7	-11.2082
させている	-11.2082
を大きく	-11.2082
配合	-11.2082
故事	-11.2082
明治維新後	-11.2087
▁元来は	-11.2088
乾物	-11.2088
高度	-11.2089
皿に	-11.2089
茶湯	-11.2093
十方	-11.2094
日本文化	-11.2095
踊	-11.2096
口を	-11.2096
キュ	-11.2096
ゆで	-11.2097
一生	-11.2099
世紀末から	-11.2102
明治時代以降	-11.2104
、2000	-11.2105
下げる	-11.2105
採用された	-11.2107
信仰の対象	-11.2108
の森	-11.211
片方	-11.2112
▁床	-11.2112
がほとんどである	-11.2113
所在地	-11.2114
っていく	-11.2117
結ぶ	-11.2118
化している	-11.2119
の立場	-11.2122
▁197	-11.2123
者たち	-11.2125
木村	-11.2125
するので	-11.2126
仕切	-11.2127
門下の	-11.2129
西洋料理	-11.213
的場	-11.2131
わい	-11.2133
水着	-11.2134
対面	-11.2135
きく	-11.2135
を保つ	-11.2137
岡山	-11.2139
混ぜて	-11.2139
大内	-11.2142
出てきた	-11.2147
が可能である	-11.2147
小松	-11.2147
を拝	-11.2148
の建立	-11.2148
を避けるため	-11.2149
最上	-11.2152
該当	-11.2152
にかかる	-11.2153
それほど	-11.2156
延年	-11.2159
を集め	-11.2159
後世に	-11.2159
の法門	-11.2162
加賀国	-11.2163
ことになっている	-11.2165
そうした	-11.2166
を唱え	-11.2167
を数える	-11.2167
に近いもの	-11.2171
付けられている	-11.2171
歌う	-11.2172
に生まれた	-11.2172
であることが	-11.2175
事ができる	-11.2178
疏水	-11.2178
などにおいて	-11.2183
▁東寺	-11.2187
廃れた	-11.2189
面を	-11.2192
などさまざまな	-11.2192
した上で	-11.2194
注目	-11.2195
飾る	-11.2198
を付けたもの	-11.22
名称は	-11.2202
であることが多い	-11.2202
つで	-11.2202
1200	-11.2204
関西歌舞伎	-11.221
松原	-11.221
基本的には	-11.2211
それらを	-11.2211
観音像	-11.2212
の書	-11.2212
にもなっている	-11.2213
使者	-11.2213
の扱い	-11.2213
が発生した	-11.2213
とするもの	-11.2215
で作る	-11.2216
彼らの	-11.2218
魚肉	-11.222
弟子に	-11.222
を表している	-11.222
(117	-11.2223
学部	-11.2224
の境	-11.2224
演能	-11.2226
彼が	-11.2228
空海は	-11.223
高山	-11.2232
一切の	-11.2236
を感じ	-11.2242
イオン	-11.2245
▁享年	-11.2245
にしたり	-11.2246
朝日	-11.2247
一般的である	-11.2247
を売る	-11.2249
出土した	-11.2249
にしか	-11.2254
衆生を	-11.2256
料理が	-11.2258
に発展した	-11.2258
を発表	-11.2258
残した	-11.226
経由	-11.2264
認識され	-11.2264
の原因	-11.2266
を乗せ	-11.2266
物で	-11.2268
を設けて	-11.2269
最後	-11.2273
枯	-11.2274
薩摩藩	-11.2275
のなかには	-11.2276
を否定し	-11.2278
本願寺第	-11.2279
に出る	-11.228
は存在しない	-11.2281
を変える	-11.2281
▁その際	-11.2282
頭を	-11.2283
ばな	-11.2286
のみや	-11.2286
日本人は	-11.2286
-10	-11.2287
という表現	-11.2287
友人	-11.2289
ぎり	-11.229
廻し	-11.229
京都では	-11.2291
つぎ	-11.2291
ぶえ	-11.2291
同志社	-11.2292
ることがある	-11.2293
鎌倉時代初期	-11.2294
仏教寺院	-11.2294
描く	-11.2297
v	-11.2297
燻	-11.2298
のときに	-11.2298
を表し	-11.2304
行なわれ	-11.2306
色を	-11.2307
活躍	-11.231
なれ	-11.2314
▁これも	-11.2315
を掲げ	-11.2318
なってきた	-11.2321
作られていた	-11.2321
中部	-11.2322
意味がある	-11.2323
移行	-11.2323
変化する	-11.2324
的である	-11.2333
相違	-11.2333
に住した	-11.2334
を使用している	-11.2335
考案	-11.2338
野村	-11.2338
▁古	-11.2339
する必要がある	-11.2339
粉を	-11.234
を描いたもの	-11.2341
確	-11.2342
衰え	-11.2346
でありながら	-11.2346
は無く	-11.2347
両者の	-11.2347
に完成した	-11.2348
しなければならない	-11.235
であったことから	-11.235
指定文化財	-11.2352
の様に	-11.2355
ことが可能	-11.2359
奈良時代には	-11.236
などによる	-11.2362
存在しない	-11.2363
世尊	-11.2363
昭和天皇	-11.2365
取り上げ	-11.2367
んじょう	-11.2368
葺き	-11.2369
三大	-11.2369
碗	-11.2369
を担当	-11.237
簡素な	-11.2371
接触	-11.2372
繰り返し	-11.2373
浄土真宗では	-11.2378
が多いが	-11.2379
器に	-11.2381
異なり	-11.2381
最澄の	-11.2382
親しまれ	-11.2383
没年	-11.2383
権律師	-11.2388
刺激	-11.2388
に生まれる	-11.2388
併	-11.2391
平安時代以降	-11.2392
に分かれる	-11.2393
往	-11.2394
詣	-11.2394
が用いられ	-11.2395
穢	-11.2396
この日	-11.2397
▁半	-11.2399
文殊	-11.24
蒸米	-11.24
袖丈	-11.2402
リング	-11.2402
が続く	-11.2403
驚	-11.2404
鳥羽	-11.2405
で用いる	-11.2405
それ以前	-11.2405
受け継がれ	-11.2405
諱	-11.2405
絞	-11.2406
駄	-11.2408
と書いて	-11.241
と称され	-11.2411
嘆	-11.2411
伽	-11.2412
に来る	-11.2412
呼吸	-11.2412
若狭	-11.2413
杜	-11.2415
幽	-11.2415
が強かった	-11.2416
の息子	-11.2416
雀	-11.2416
▁特徴	-11.2416
アクセス	-11.2417
征	-11.2417
旭	-11.2417
すき	-11.2417
吐	-11.2417
ギャ	-11.2417
凡	-11.2417
戴	-11.2417
賊	-11.2417
牙	-11.2417
沸	-11.2418
武徳会	-11.2418
幕の内弁当	-11.2418
トンネル	-11.2418
圓	-11.2418
紗	-11.2418
ウスターソース	-11.2418
阻	-11.2418
にまつわる	-11.2418
キャンペーン	-11.2418
前方後方墳	-11.2418
大谷廟堂	-11.2418
楮	-11.2418
哀	-11.2418
慕	-11.2418
鮨	-11.2418
を目指す	-11.2418
蝋	-11.2418
シリーズ	-11.2418
浄土三部経	-11.2418
笄	-11.2418
簀	-11.2418
多宝如来	-11.2418
に倣って	-11.2418
"	-11.2418
を競う	-11.2418
女人禁制	-11.2418
七五三	-11.2418
懺悔	-11.2418
鮮やかな	-11.2418
土壌	-11.2418
洞窟	-11.2418
冷蔵庫	-11.2418
象牙	-11.2418
開拓	-11.2418
乳酸菌	-11.2418
テープ	-11.2418
大安寺	-11.2418
トイレ	-11.2418
慈照寺	-11.2418
萬福寺	-11.2418
加わり	-11.2418
清涼殿	-11.2418
承認	-11.2418
関西の	-11.2419
を聞いて	-11.2419
独占	-11.2419
が流行した	-11.2419
源氏物語絵巻	-11.2419
護持	-11.2419
婚礼	-11.2419
趣旨	-11.2419
纏向	-11.2419
教育委員会	-11.2419
廻向	-11.2419
下がり	-11.242
末法思想	-11.242
盆踊り	-11.242
亀甲	-11.242
コピー	-11.242
草履	-11.242
順序	-11.242
讃岐国	-11.242
到着	-11.2421
加減	-11.2421
講演	-11.2421
運び	-11.2421
遠州	-11.2421
発想	-11.2421
造り酒屋	-11.2421
待ち	-11.2422
年代の	-11.2422
禁制	-11.2422
上賀茂神社	-11.2422
電車	-11.2422
喜多	-11.2422
現存天守	-11.2422
難波宮	-11.2422
昨今	-11.2422
を説き	-11.2422
甲斐国	-11.2423
反応	-11.2423
播磨国	-11.2423
共有	-11.2423
挟み	-11.2423
優位	-11.2423
永仁	-11.2423
1957	-11.2424
退治	-11.2424
義太夫	-11.2424
大正琴	-11.2425
CD	-11.2425
香港	-11.2425
器楽	-11.2425
はさらに	-11.2426
親珠	-11.2426
の伝説	-11.2426
1958	-11.2426
摂関家	-11.2426
異端	-11.2427
おどり	-11.2427
本拠地	-11.2427
が設けられている	-11.2427
死ぬ	-11.2428
判定	-11.2428
離宮	-11.2428
投入	-11.2429
石棺	-11.2429
1934	-11.243
姫路	-11.2431
お笑い	-11.2431
仮面	-11.2432
に用いた	-11.2432
水飴	-11.2432
完全	-11.2433
をなし	-11.2433
真雅	-11.2434
が発生し	-11.2434
屋の	-11.2434
カレー粉	-11.2434
台密	-11.2434
斎王	-11.2434
ナン	-11.2435
配布	-11.2435
反面	-11.2435
祀った	-11.2436
米国	-11.2436
山鉾	-11.2436
仲間	-11.2437
実家	-11.2438
出仕	-11.2438
濃厚な	-11.2439
はかなり	-11.2439
▁それゆえ	-11.2441
ているため	-11.2442
の初	-11.2443
換え	-11.2444
堂射	-11.2444
所管	-11.2444
弾き	-11.2445
専門家	-11.2446
能舞台	-11.2448
条約	-11.2448
作成された	-11.2449
につながる	-11.245
菱形	-11.245
他力	-11.2452
法務	-11.2454
?)	-11.2455
江戸では	-11.2456
類似した	-11.2456
て作る	-11.2457
梵天	-11.2457
過去帳	-11.2457
▁宗祖	-11.2458
当代	-11.2459
天暦	-11.246
中学生	-11.246
さから	-11.2461
チャー	-11.2461
下級	-11.2464
ふん	-11.2464
好まれる	-11.2464
故実	-11.2465
製紙	-11.2465
修行僧	-11.2466
丸く	-11.2467
融通念仏	-11.2467
が低い	-11.2471
▁国宝	-11.2472
者も	-11.2472
わん	-11.2474
を理由に	-11.2474
の通称	-11.2474
八重	-11.2475
系図	-11.2478
大きく異なる	-11.2479
変化し	-11.2479
境内に	-11.248
められ	-11.2481
関西形式	-11.2482
▁日本には	-11.2483
小型	-11.2483
歳以上	-11.2483
調理方法	-11.2484
明和	-11.2484
きっかけ	-11.2485
駐車場	-11.2486
日本最古の	-11.2486
干物	-11.2486
こそが	-11.2487
関西地方	-11.2487
著者	-11.2488
年代には	-11.2491
じり	-11.2492
▁明治時代に	-11.2493
を要する	-11.2494
小麦粉を	-11.2495
誕生した	-11.2496
煮込んだ	-11.2496
城跡	-11.2496
を定めた	-11.2497
削った	-11.2498
をおこなう	-11.2499
が置かれた	-11.2499
音写	-11.2499
土木	-11.25
に沿って	-11.2501
氏子	-11.2504
比叡山の	-11.2504
を重視し	-11.2506
の相違	-11.2507
調理する	-11.2508
~15	-11.251
を備える	-11.2511
得意	-11.2511
によるものである	-11.2512
の仕事	-11.2513
がそれぞれ	-11.2513
に直接	-11.2517
▁通称	-11.2518
の主要	-11.2522
に伝えられた	-11.2523
日本酒は	-11.2526
母は	-11.2526
地域に	-11.2529
の部分を	-11.2531
百済観音	-11.2531
縁側	-11.2532
瓦葺	-11.2533
本朝	-11.2534
などがあり	-11.2536
国の重要文化財	-11.2536
焼いたもの	-11.2537
まさに	-11.2537
文人	-11.2538
に見立てた	-11.2541
ガー	-11.2544
キン	-11.2544
の後に	-11.2547
1989	-11.2547
としたもの	-11.255
▁茶	-11.255
が描かれた	-11.2551
を指した	-11.2551
文化圏	-11.2553
白川	-11.2553
1910	-11.2554
に移し	-11.2555
左側	-11.2556
など多くの	-11.2556
にしき	-11.2558
▁天守	-11.2558
を取って	-11.2561
用いられるようになった	-11.2561
後者の	-11.2562
を与えた	-11.2567
日本各地の	-11.2572
持って	-11.2574
内部の	-11.2574
の総称である	-11.2576
研究家	-11.2578
下生	-11.2578
存在していた	-11.258
密教では	-11.2586
橋本	-11.2588
催	-11.2589
が作られる	-11.259
哲	-11.2591
まじ	-11.2592
一説には	-11.2592
紐を	-11.2593
歳の	-11.2594
感じられる	-11.2597
と考えられた	-11.2597
も含め	-11.2597
人々に	-11.2602
▁日置流	-11.2602
ものもあり	-11.2603
同書	-11.2605
うまく	-11.2605
という名前	-11.2607
長着	-11.2609
土を	-11.2611
重く	-11.2612
生じた	-11.2612
の美しさ	-11.2612
~1	-11.2614
はやや	-11.2617
コロ	-11.2618
バル	-11.262
店頭	-11.2626
を借り	-11.2629
町にある	-11.2629
置かれ	-11.263
実在	-11.2631
平安中期	-11.2631
茶事	-11.2632
を表した	-11.2635
神社では	-11.2636
口から	-11.2637
▁本願寺	-11.2637
寺院建築	-11.2638
熟成させ	-11.2638
うつ	-11.264
差異	-11.2642
を造る	-11.2644
決められ	-11.2645
8.	-11.2646
貸し	-11.2646
持ち込まれ	-11.2649
一体化し	-11.2651
最近は	-11.2652
と指摘	-11.2655
普段	-11.2656
平等	-11.2658
最終的に	-11.2662
9.	-11.2663
肉の	-11.2663
の装束	-11.2663
古来の	-11.2663
誕生日	-11.2663
はく	-11.2663
死亡	-11.2664
ならない	-11.2664
築山	-11.2669
▁雅楽	-11.267
源流	-11.2671
がけ	-11.2676
注目され	-11.2681
二十五	-11.2683
(159	-11.2687
述べている	-11.2687
平地	-11.2688
は次第に	-11.2692
次に	-11.2693
タカ	-11.2695
形式で	-11.2695
来た	-11.2696
する方法	-11.2701
日吉	-11.2702
惣	-11.2702
の隆盛	-11.2704
に多い	-11.2707
が深く	-11.2707
行なう	-11.2708
つくった	-11.2709
の性格	-11.2711
影響力	-11.2712
を重ねて	-11.2712
八寸	-11.2714
前者は	-11.2716
されることがある	-11.2718
儒学	-11.2718
を目指し	-11.2719
に渡った	-11.2719
1982	-11.272
自然と	-11.2722
面は	-11.2724
みられ	-11.2724
日曜	-11.2726
の築造	-11.2732
平安京の	-11.2735
ダラ	-11.2736
▁天正	-11.2737
天皇は	-11.2738
観音寺	-11.274
安価	-11.2741
は高い	-11.2741
描かれている	-11.2743
その弟子	-11.2745
読む	-11.2745
近代以降	-11.2748
に続く	-11.2749
中心部	-11.275
が生じる	-11.2751
もっと	-11.2751
断絶	-11.2754
あげた	-11.2754
を施し	-11.2755
を避ける	-11.2757
所領	-11.2757
平野	-11.2758
(179	-11.2758
不安	-11.276
著名	-11.2762
変わって	-11.2762
▁平安時代には	-11.2763
京都国立博物館	-11.2765
述べる	-11.2766
お歯黒	-11.2766
回の	-11.2772
▁その場合	-11.2774
増し	-11.2776
の名を	-11.2779
茅	-11.2779
始まる	-11.2779
が生じた	-11.2779
ユー	-11.2782
熊本	-11.2784
便利	-11.2786
わずかに	-11.2788
われている	-11.2794
商標	-11.2794
現れる	-11.2795
大壁	-11.2796
されず	-11.2796
si	-11.2797
与えられた	-11.2797
らしく	-11.2797
▁茶道	-11.2798
・5	-11.2798
の里	-11.28
年目	-11.2801
航	-11.2801
上下に	-11.2803
した際	-11.2805
今井	-11.2805
繰	-11.2806
面から	-11.2807
梨	-11.2808
敷地内に	-11.2809
酔	-11.281
六角	-11.2811
ぴ	-11.2811
▁他	-11.2811
宇多天皇	-11.2811
核	-11.2812
播磨	-11.2812
▁幼名は	-11.2813
要求される	-11.2814
歓喜	-11.2814
京都市中京区	-11.2815
摘	-11.2815
悦	-11.2815
鯖	-11.2816
塞	-11.2816
兆	-11.2816
眉	-11.2817
肖像	-11.2817
愛染明王	-11.2817
堤	-11.2817
詮	-11.2817
正法眼蔵	-11.2818
楕円形	-11.2818
須弥壇	-11.2818
急激に	-11.2818
こだわり	-11.2818
妙覚寺	-11.2818
役小角	-11.2818
アレルギー	-11.2818
ハレとケ	-11.2818
日本列島	-11.2818
プロジェクト	-11.2818
独特な	-11.2818
什	-11.2818
三増酒	-11.2818
停止	-11.2818
太陰太陽暦	-11.2818
祥月命日	-11.2818
箸墓古墳	-11.2818
蔭	-11.2818
ケーキ	-11.2818
劉	-11.2818
北野天満宮	-11.2818
卸	-11.2818
欽明天皇	-11.2818
曇鸞	-11.2818
郵便局	-11.2818
謎	-11.2818
野口王墓	-11.2818
犬追物	-11.2818
謙	-11.2818
人情噺	-11.2818
会席料理	-11.2818
式年遷宮	-11.2818
宛	-11.2818
小堀遠州	-11.2818
本膳料理	-11.2818
細川政元	-11.2818
袱紗	-11.2818
ニンニク	-11.2818
ファッション	-11.2818
訛	-11.2818
連合国軍最高司令官総司令部	-11.2818
緋	-11.2818
鍵	-11.2818
瀧	-11.2818
練行衆	-11.2818
三井寺	-11.2818
1,000	-11.2818
太平洋	-11.2818
土御門	-11.2818
竹本	-11.2818
西部講堂	-11.2818
招き猫	-11.2818
足利尊氏	-11.2818
擬宝珠	-11.2818
改訂	-11.2818
認可	-11.2818
媒体	-11.2818
良質の	-11.2818
売却	-11.2818
施餓鬼	-11.2819
麦芽	-11.2819
しみ	-11.2819
古墳時代後期	-11.2819
世紀半ば	-11.2819
身につけ	-11.2819
細菌	-11.2819
白山	-11.2819
メント	-11.2819
といふ	-11.282
寝殿	-11.282
叡尊	-11.282
リンゴ	-11.282
風土記	-11.282
胡麻	-11.282
くわえ	-11.282
ジャン	-11.282
輪廻	-11.282
改装	-11.282
おやつ	-11.282
閉館	-11.2821
おさめ	-11.2821
放置	-11.2821
鹿苑寺	-11.2821
めぐり	-11.2821
咲き	-11.2821
竹林派	-11.2821
のあり方	-11.2821
ポン	-11.2821
キロメートル	-11.2822
操作	-11.2822
注釈書	-11.2822
層塔型	-11.2822
管領	-11.2822
築かれた	-11.2822
小規模な	-11.2822
廊下	-11.2823
として扱われる	-11.2823
解脱	-11.2823
多彩な	-11.2823
高校生	-11.2824
橋姫	-11.2824
鉄板焼き	-11.2824
上槽	-11.2824
順番	-11.2824
1964	-11.2824
側近	-11.2825
義介	-11.2825
棒術	-11.2825
の説	-11.2825
巻き寿司	-11.2826
1959	-11.2826
1937	-11.2827
祭囃子	-11.2827
1938	-11.2827
頼朝	-11.2828
延び	-11.2828
縮小	-11.2828
隆盛	-11.2828
録音	-11.2829
集積	-11.2829
ックス	-11.283
響き	-11.283
茶色	-11.283
時代劇	-11.283
こうえん	-11.2831
仁王	-11.2831
直前に	-11.2833
洛中	-11.2833
しょうゆ	-11.2834
組香	-11.2834
史実	-11.2834
1935	-11.2834
ケースもある	-11.2835
慶安	-11.2835
信頼	-11.2836
厚み	-11.2836
定着している	-11.2838
生駒	-11.2838
水干	-11.2838
標的	-11.2839
旗本	-11.2839
学園	-11.2839
責任者	-11.284
欠点	-11.284
参道	-11.284
比叡山延暦寺	-11.2841
の導入	-11.2841
正玄	-11.2841
の造営	-11.2842
表具	-11.2842
大悲	-11.2842
づき	-11.2843
調達	-11.2844
と表記する	-11.2845
▁角	-11.2845
引き違い	-11.2847
大僧都	-11.2847
交差	-11.2848
を図った	-11.2848
〉)	-11.285
角度	-11.2851
延暦寺の	-11.2851
北陸地方	-11.2851
完成した	-11.2852
はあるが	-11.2852
持ち帰り	-11.2853
などのように	-11.2854
和室	-11.2855
▁この時代	-11.2855
土蔵	-11.2855
歌舞伎座	-11.2856
の差	-11.2857
流祖	-11.2857
が設けられる	-11.2858
と呼ぶこともある	-11.2858
に努めた	-11.2859
を設けた	-11.286
をつとめ	-11.286
きら	-11.286
料理は	-11.2862
使い方	-11.2862
向きもある	-11.2862
が語源	-11.2863
好まれた	-11.2863
がれ	-11.2863
サラダ	-11.2863
掛ける	-11.2866
語られる	-11.2867
和楽器	-11.2868
つけられた	-11.2868
法で	-11.2868
が伝えられ	-11.2868
三乗	-11.287
あう	-11.2872
知ら	-11.2873
一品	-11.2874
別格	-11.2874
茶壺	-11.2876
あめ	-11.2876
が初めて	-11.2876
ていたようである	-11.2878
中断	-11.2878
発売されている	-11.2881
石室は	-11.2882
館長	-11.2882
が設置され	-11.2884
等がある	-11.2884
開いている	-11.2885
一例	-11.2886
世界観	-11.2886
▁それぞれの	-11.2886
神格	-11.2887
塔身	-11.2888
▁起源は	-11.289
を保護する	-11.289
1920	-11.2894
作られたもの	-11.2895
さば	-11.2896
教師	-11.2897
過去の	-11.2897
本願寺派	-11.2898
立花	-11.2899
登山	-11.29
ジー	-11.2902
酵母が	-11.2904
壁画は	-11.2904
しようと	-11.2904
こともできる	-11.2905
供える	-11.2907
僧堂	-11.2907
身長	-11.2907
に当て	-11.2908
中指	-11.2909
家業	-11.291
わけである	-11.2911
料理店	-11.2911
実力	-11.2911
城は	-11.2911
大名家	-11.2914
を防ぐため	-11.2917
と並ぶ	-11.2918
追求	-11.292
鬼が	-11.2921
上部に	-11.2922
塩辛	-11.2922
の図	-11.2923
しようとした	-11.2923
陵墓	-11.2925
大事	-11.2928
1912	-11.293
様子が	-11.2932
我が	-11.2932
とじ	-11.2935
四郎	-11.2935
帰国した	-11.2937
当初から	-11.2937
として用いられた	-11.2937
担	-11.2939
望月	-11.294
名跡	-11.294
すし	-11.2942
会派	-11.2942
書いている	-11.2943
他国	-11.2944
を披露し	-11.2946
黒色	-11.2946
あられ	-11.295
食い	-11.2952
抑え	-11.2952
に伝えられ	-11.2955
平安時代から	-11.2955
に使用する	-11.2957
小乗	-11.2958
カラー	-11.2959
上り	-11.2964
表面を	-11.2967
神社で	-11.2968
上京	-11.2968
水平	-11.2969
朝廷から	-11.2971
作られるようになった	-11.2971
見れば	-11.2972
大字	-11.2974
はち	-11.2975
仕上げる	-11.2976
ol	-11.2976
の長	-11.2979
夜間	-11.2984
を加えたもの	-11.2987
打撃	-11.2988
日本茶	-11.2991
べる	-11.2993
を立てて	-11.2996
称える	-11.2996
十分に	-11.2996
と区別	-11.2997
▁奈良県	-11.2999
伝わり	-11.2999
香を	-11.3
た状態	-11.3002
-5	-11.3002
んこう	-11.3003
に陥	-11.3004
の実践	-11.3004
した後に	-11.3008
の原料	-11.3011
飯の上に	-11.3016
の様な	-11.3017
持っている	-11.3017
政府は	-11.3019
二百	-11.3019
(119	-11.302
の勤行次第	-11.3022
されるようになり	-11.3025
ようになって	-11.3025
高かった	-11.303
要求	-11.303
変化した	-11.303
脂肪	-11.3031
古酒	-11.3035
今日でも	-11.3035
であったと考えられる	-11.3037
典籍	-11.3039
切り身	-11.3039
祀られる	-11.3042
の屋敷	-11.3042
▁慶長	-11.3042
の類	-11.3043
平ら	-11.3045
▁伝統的な	-11.3046
指導者	-11.3047
、“	-11.3047
迎	-11.3048
婦	-11.3048
で食べられる	-11.3049
学名	-11.3052
復活した	-11.3053
宝蔵	-11.3053
の土	-11.3054
下る	-11.3054
考える	-11.3055
美人	-11.3057
しにくい	-11.3057
を示した	-11.3058
落ちる	-11.3058
味付けした	-11.3063
を見ることができる	-11.3064
本尊像	-11.3065
▁中華人民共和国	-11.3067
から生まれた	-11.3067
小町	-11.3072
トー	-11.3079
なっていった	-11.3085
を残し	-11.309
の習慣	-11.3091
二種	-11.3091
諸説ある	-11.3091
住吉	-11.3092
伝えられ	-11.3093
に戻る	-11.3097
巻いて	-11.3101
▁滋賀	-11.3101
が知られている	-11.3104
(100	-11.3106
敵を	-11.3107
まめ	-11.311
霊山	-11.3113
曜	-11.3113
と呼称する	-11.3114
で作られている	-11.3115
指摘され	-11.3116
がゆ	-11.3116
中門	-11.3119
確認されている	-11.3121
として利用される	-11.3122
の再建	-11.3124
構	-11.3124
▁梅	-11.3124
取り入れられた	-11.3125
照寺	-11.3125
部長	-11.3127
修学	-11.3129
塩を	-11.3131
特別展	-11.3132
申請	-11.3132
みる	-11.3132
続けている	-11.3136
の支配	-11.3138
抱	-11.3139
炒	-11.3141
中から	-11.3141
御厨	-11.3143
加工した	-11.3147
色目	-11.3147
オレンジ	-11.3152
はあったが	-11.3154
書家	-11.3154
が起こり	-11.3155
炊いた	-11.3156
--	-11.3158
大宝	-11.3159
(144	-11.316
常設	-11.316
もみられる	-11.3161
からず	-11.3163
▁一説には	-11.3163
らう	-11.3164
サバ	-11.3165
の話	-11.3165
記されている	-11.3166
呼んだ	-11.3168
部分と	-11.3169
鎌倉時代中期	-11.3169
一緒に	-11.317
せよ	-11.3173
使用していた	-11.3173
穏	-11.3175
かつお	-11.3181
が発見され	-11.3181
とみられている	-11.3181
から紙	-11.3182
置く	-11.3183
研究会	-11.3185
このように	-11.3186
訪問	-11.3192
にならない	-11.3192
▁もとは	-11.3192
▁種子	-11.3196
広めた	-11.3197
あた	-11.3199
などという	-11.32
衛	-11.3201
に分かれている	-11.3201
が低く	-11.3202
切妻	-11.3203
よこ	-11.3203
卵の	-11.3204
に触れ	-11.3205
と呼んで	-11.3206
モー	-11.3206
を引いて	-11.3209
験	-11.3211
拠	-11.3212
位置付け	-11.3213
人や	-11.3214
俗説	-11.3214
泳	-11.3216
吊	-11.3217
競馬場	-11.322
衣を	-11.3221
伊丹	-11.3222
立って	-11.3224
巾	-11.3225
瀬戸	-11.3225
揉	-11.3227
除去	-11.3227
引揚	-11.3227
入れない	-11.3227
祇	-11.3228
久遠	-11.323
年代から	-11.323
の素材	-11.3232
咒	-11.3232
否	-11.3232
苗	-11.3233
係	-11.3233
数回	-11.3233
諸説あり	-11.3234
伐	-11.3234
註	-11.3234
鴈治郎	-11.3234
芭蕉	-11.3234
モンゴル	-11.3234
机	-11.3234
まいづる	-11.3234
ブドウ	-11.3234
楯	-11.3234
薫	-11.3234
啓	-11.3234
粟	-11.3234
鉤	-11.3234
麿	-11.3234
依り代	-11.3234
甕	-11.3234
当道座	-11.3234
カロリー	-11.3234
一向一揆	-11.3234
塊	-11.3234
全国新酒鑑評会	-11.3234
卜	-11.3234
鉛	-11.3234
遮	-11.3234
装身具	-11.3234
七味唐辛子	-11.3234
虚無僧	-11.3234
閲覧	-11.3235
簡略化され	-11.3235
脳	-11.3235
にふさわしい	-11.3235
耐久性	-11.3235
アーチェリー	-11.3235
キュウリ	-11.3235
條	-11.3235
毘	-11.3235
社団法人	-11.3235
選択本願念仏集	-11.3235
スタジオ	-11.3235
立派な	-11.3235
顧問	-11.3235
措置	-11.3235
羽子板	-11.3235
姉妹	-11.3235
ならびに	-11.3235
アイスクリーム	-11.3235
印西派	-11.3235
垂迹	-11.3235
吉沢検校	-11.3235
銚子	-11.3235
災害	-11.3235
模索	-11.3235
完了	-11.3235
この名がある	-11.3235
神霊	-11.3235
留守職	-11.3235
広がった	-11.3235
法名軸	-11.3235
キング	-11.3235
担ぐ	-11.3235
特別史跡	-11.3236
照り焼き	-11.3236
が含まれている	-11.3236
勧進帳	-11.3236
羨道	-11.3236
現在に至っている	-11.3236
突起	-11.3236
破損	-11.3236
こんごう	-11.3236
アルコール飲料	-11.3236
繋ぎ	-11.3236
ちくわ	-11.3236
に設けられた	-11.3236
加茂	-11.3236
情緒	-11.3236
普段着	-11.3236
研修	-11.3236
居酒屋	-11.3237
常識	-11.3237
能楽協会	-11.3237
平安末期	-11.3237
俗称	-11.3237
手延べ	-11.3237
修練	-11.3237
奉仕	-11.3237
を目的とする	-11.3237
俊寛	-11.3237
店によっては	-11.3237
優秀	-11.3237
染料	-11.3238
パック	-11.3238
前述の通り	-11.3238
補助	-11.3238
冷たい	-11.3238
好評	-11.3238
丈夫	-11.3238
印可	-11.3238
嘉永	-11.3238
マナー	-11.3238
が伝わっている	-11.3239
石室の	-11.3239
併用	-11.3239
兵士	-11.324
アンド	-11.324
学院	-11.324
坂戸	-11.3241
一致派	-11.3241
水泳	-11.3241
たもので	-11.3242
法勝寺	-11.3242
養成	-11.3242
布教活動	-11.3242
休業	-11.3242
を修め	-11.3242
1963	-11.3242
セル	-11.3243
高校	-11.3243
合流	-11.3243
奥行き	-11.3243
(116	-11.3244
着装	-11.3244
甘口	-11.3245
蒸気	-11.3245
小野流	-11.3245
作詞	-11.3245
木棺	-11.3246
管楽器	-11.3246
打刀	-11.3246
深草	-11.3247
家元制度	-11.3247
気温	-11.3247
粘り	-11.3248
実質的に	-11.3248
ヨーロッパで	-11.3248
季語	-11.3248
石碑	-11.3249
に向け	-11.325
聞き	-11.325
すぎると	-11.325
から来ている	-11.325
改宗	-11.325
母親	-11.3251
頼光	-11.3252
高砂	-11.3252
色合い	-11.3253
強度	-11.3253
サル	-11.3253
黄金	-11.3254
年に一度	-11.3254
も増えている	-11.3255
交代	-11.3256
祈り	-11.3256
侵入	-11.3256
古武道	-11.3256
美味	-11.3257
橋の	-11.3257
糖分	-11.3257
合気	-11.3257
知らず	-11.3257
織部	-11.3259
呼び	-11.3259
見かける	-11.3259
発端	-11.3259
無量寿経	-11.3261
が流行し	-11.3261
遷化	-11.3261
残心	-11.3261
長老	-11.3262
上杉	-11.3262
興国	-11.3263
天王	-11.3263
軽い	-11.3264
焼きそば	-11.3265
1927	-11.3265
深夜	-11.3265
握り寿司	-11.3266
胴体	-11.3266
古神道	-11.3267
▁多くの	-11.3267
1922	-11.3268
に渡って	-11.3268
暮れ	-11.3268
の奥義	-11.3269
狂言方	-11.327
死に	-11.3271
▁九州	-11.3273
必要性	-11.3273
花園	-11.3273
食す	-11.3276
題名	-11.3276
風習がある	-11.3276
のが始まり	-11.3277
を経た	-11.3278
袖口	-11.3278
曲芸	-11.3278
隔て	-11.3279
対照	-11.328
福岡市	-11.3281
著名である	-11.3283
比叡山に	-11.3283
1887	-11.3283
(139	-11.3284
小規模	-11.3284
として定着した	-11.3284
書画	-11.3284
宗達	-11.3286
惜し	-11.3287
冷やし	-11.3287
親子	-11.3289
の面	-11.329
産物	-11.3292
可能である	-11.3293
どちらか	-11.3294
ゴール	-11.3294
決め	-11.3294
組手	-11.3296
川越	-11.3298
トウ	-11.3299
四段	-11.3308
何も	-11.3309
の両方	-11.3311
にもなる	-11.3312
飯と	-11.3314
さほど	-11.3316
づか	-11.3316
表される	-11.3318
音曲	-11.3318
を決める	-11.332
家老	-11.3321
乾燥させたもの	-11.3321
を生じ	-11.3323
始まり	-11.3324
法相	-11.3325
吉祥天	-11.3325
と結婚	-11.3325
を結成	-11.3328
重点	-11.3329
を置いて	-11.3331
利点	-11.3335
方法として	-11.3336
も使われる	-11.3338
本線	-11.3342
夫人	-11.3342
十数	-11.3343
設立された	-11.3343
巻物	-11.3344
が主体	-11.3344
上田	-11.3345
吉本	-11.3348
日本の伝統	-11.335
八木	-11.3351
あって	-11.3351
坊主	-11.3352
下から	-11.3352
板状	-11.3353
の分野	-11.3355
少量の	-11.3355
庶民に	-11.3356
固形	-11.3357
しち	-11.3357
んしょう	-11.3358
ロック	-11.3359
位置づけられ	-11.3359
江戸時代前期	-11.336
採用され	-11.336
クレ	-11.3362
塩味	-11.3364
不明である	-11.3366
発売された	-11.3367
となっていった	-11.3368
から派生した	-11.3369
城門	-11.3369
設置される	-11.3371
はつ	-11.3372
の際は	-11.3372
入学	-11.3372
(156	-11.3372
野外	-11.3373
弥生時代の	-11.3373
式典	-11.3375
しぼ	-11.3377
作品は	-11.338
か所	-11.3383
199	-11.3385
石室内	-11.3385
地帯	-11.3388
三役	-11.339
まとめた	-11.3391
▁応仁の乱	-11.3392
建築家	-11.3394
▁静岡県	-11.3397
ござ	-11.34
駅徒歩	-11.3401
見方	-11.3401
の準備	-11.3401
西国	-11.3402
▁古来	-11.3403
のあるもの	-11.3407
者や	-11.3407
婦人	-11.3409
古墳である	-11.3412
:『	-11.3412
に飾る	-11.3412
保存食	-11.3413
使われることが多い	-11.3414
の枠	-11.3416
が発見された	-11.342
の壁	-11.3422
歴史上	-11.3422
を乗せる	-11.3422
曲目	-11.3425
割合	-11.3426
りて	-11.3429
(153	-11.3435
消し	-11.3436
事になる	-11.3436
見られるような	-11.3441
の再興	-11.3441
伏せ	-11.3442
することにより	-11.3445
文字を	-11.3448
地方によって	-11.3448
新町	-11.345
で販売される	-11.3451
▁金	-11.3453
に食べる	-11.3455
願寺	-11.3457
食事を	-11.3459
法門	-11.3461
際は	-11.3462
生じる	-11.3462
形である	-11.347
んぽ	-11.3471
も行われる	-11.3472
若干の	-11.3474
よく見られる	-11.3475
が設けられ	-11.3479
国家の	-11.3479
その際に	-11.3485
男性用	-11.3485
部が	-11.3485
▁第十	-11.3486
仏教宗派	-11.3486
通りに	-11.3487
古代から	-11.3488
▁もちろん	-11.3488
天守は	-11.3488
から徒歩	-11.3492
寺領	-11.3493
が完成した	-11.3493
しかし	-11.3494
▁1960	-11.3495
山上	-11.3499
実際	-11.3502
の制作	-11.3503
いけ	-11.3503
を恐れ	-11.3504
避け	-11.3506
ることになる	-11.3515
を上げる	-11.3515
一括	-11.3516
見ることができる	-11.3518
屋内	-11.3518
が落ち	-11.3518
版画	-11.3519
ro	-11.352
ともされる	-11.3521
日本に伝わった	-11.3521
さと	-11.3524
取扱	-11.3531
に該当する	-11.3531
真実の	-11.3532
仕立てた	-11.3532
を薄く	-11.3534
出て	-11.3534
も販売されている	-11.3537
つけられ	-11.3538
ケイ	-11.3541
を塗り	-11.3541
されたが	-11.3543
天文学	-11.3543
▁第二次世界大戦後	-11.3547
越し	-11.3547
1941	-11.355
が生まれる	-11.3553
までも	-11.3562
を表現した	-11.3563
の指定	-11.3568
その地域	-11.3573
売られる	-11.3574
の精神	-11.3579
学校の	-11.358
▁茶室	-11.3581
歴代の	-11.3581
古墳は	-11.3586
ぐら	-11.3589
束ね	-11.3592
(165	-11.3593
▁駐車場	-11.3593
したことから	-11.3594
天狗の	-11.3595
ついて	-11.3595
下品	-11.3597
かわり	-11.3597
にのみ	-11.3598
を主張し	-11.36
▁最近は	-11.36
蕎麦を	-11.3601
戯	-11.3602
蔵院	-11.3603
は極めて	-11.3604
寺院では	-11.3605
を語る	-11.3605
嵯峨野	-11.3608
▁竹	-11.3608
いえば	-11.3611
▁1991	-11.3611
二世	-11.3612
が定められ	-11.362
介錯	-11.362
バス停	-11.3622
村の	-11.3624
は難しい	-11.3624
名字	-11.3625
に合わせ	-11.3627
あぶり	-11.3627
三分	-11.3629
具として	-11.3631
ることになった	-11.3632
上品	-11.3632
の如く	-11.3633
その後も	-11.3633
帳台	-11.3633
▁前方部	-11.3633
新作	-11.3634
になっていった	-11.3635
に乗って	-11.3638
の設置	-11.3639
院に	-11.3643
但	-11.3644
漫	-11.3644
貼	-11.3645
~12	-11.3646
の母	-11.3646
が必要となる	-11.3646
てくれる	-11.3646
駆け	-11.3648
怪談	-11.3648
勢い	-11.365
たことから	-11.3651
も大きく	-11.3653
1.3	-11.3653
をいれ	-11.3653
円形の	-11.3653
捨	-11.3654
マス	-11.3655
トップ	-11.3656
姫路城	-11.3657
スタ	-11.3659
大学教授	-11.3659
完成し	-11.3659
飼	-11.3661
建仁	-11.3661
変わらない	-11.3663
正式には	-11.3663
抗	-11.3663
濠	-11.3664
剛	-11.3666
牒	-11.3667
希望	-11.3667
さす	-11.3667
律令制	-11.3667
慢	-11.3668
冥	-11.3668
傳	-11.3668
棄	-11.3668
吾	-11.3669
后	-11.3669
耶	-11.3669
を担う	-11.3669
委託	-11.3669
コンピュータ	-11.3669
燕	-11.3669
フィルム	-11.3669
譬	-11.3669
にかかわらず	-11.3669
髭	-11.3669
X	-11.3669
はんぺん	-11.3669
薙刀	-11.3669
鮎	-11.3669
弽	-11.3669
酷	-11.3669
懐奘	-11.3669
京都市西京区	-11.3669
眷属	-11.3669
大宰府	-11.3669
▁三昧耶形は	-11.3669
とは限らない	-11.3669
式で	-11.3669
ひたすら	-11.3669
恭	-11.3669
把握	-11.3669
蟹	-11.3669
噂	-11.3669
▁交通アクセス	-11.3669
を使わず	-11.3669
喉	-11.3669
生年不詳	-11.3669
淨	-11.3669
医療	-11.3669
ニンジン	-11.3669
漸	-11.3669
廓	-11.3669
悔過	-11.3669
か否か	-11.3669
蔵王権現	-11.3669
道成寺	-11.3669
オムライス	-11.3669
を伴う	-11.3669
克	-11.3669
と比較して	-11.3669
に向かう	-11.3669
を築き	-11.3669
村上天皇	-11.3669
タイトル	-11.367
ふたたび	-11.367
構想	-11.367
掃除	-11.367
市販の	-11.367
低迷	-11.367
興味深い	-11.367
派手な	-11.367
食物繊維	-11.367
ザクラ	-11.367
を失った	-11.367
漁獲	-11.367
スルメ	-11.367
五色不動	-11.367
ねんぶつ	-11.367
やまこふん	-11.367
フルート	-11.367
義務	-11.367
曰く	-11.3671
報恩講	-11.3671
著述	-11.3671
式三番	-11.3671
大社造	-11.3671
ものでは	-11.3671
昇格	-11.3671
漆塗り	-11.3671
夏季	-11.3671
に恵まれ	-11.3671
欧州	-11.3671
序列	-11.3672
構図	-11.3672
乾漆	-11.3672
因果	-11.3672
細かな	-11.3672
精霊船	-11.3673
と推測される	-11.3673
敷居	-11.3674
寺院で	-11.3674
しだいに	-11.3674
軍隊	-11.3674
とは言えない	-11.3674
打掛	-11.3674
桐紋	-11.3674
武装	-11.3675
キリ	-11.3675
狩野派	-11.3675
大切に	-11.3675
西欧	-11.3675
野球場	-11.3675
取り扱い	-11.3675
建保	-11.3675
ベン	-11.3676
開眼	-11.3676
億円	-11.3676
不可	-11.3676
満州	-11.3676
50%	-11.3677
龍樹	-11.3677
氏族	-11.3677
祀り	-11.3677
和泉流	-11.3677
盂蘭盆会	-11.3677
長大な	-11.3677
炊く	-11.3677
酒税	-11.3677
使える	-11.3677
フリー	-11.3678
人間国宝	-11.3678
般若経	-11.3678
延命	-11.3678
お守り	-11.3678
のみに	-11.3679
諸大名	-11.368
大蔵流	-11.368
主宰	-11.368
和琴	-11.3681
池坊	-11.3681
を始めとする	-11.3682
菊紋	-11.3682
風情	-11.3682
ダル	-11.3682
藤井	-11.3683
実行	-11.3683
ニー	-11.3684
御影	-11.3684
町内	-11.3685
大師堂	-11.3685
ました	-11.3685
旨味	-11.3685
満足	-11.3685
洋楽	-11.3685
千鳥	-11.3686
もろ	-11.3686
と呼ばれるもの	-11.3686
縁覚	-11.3686
合わせた	-11.3687
同名の	-11.3687
表裏	-11.3687
祓い	-11.3688
葛城	-11.3688
表現される	-11.3688
竹製の	-11.3688
島津	-11.3689
染色	-11.369
長崎市	-11.369
卵焼き	-11.3691
もはや	-11.3691
意訳	-11.3692
自社	-11.3692
国民の	-11.3694
殺生	-11.3694
を用いない	-11.3695
院家	-11.3695
適している	-11.3695
父親	-11.3695
ことがあり	-11.3696
大正期	-11.3696
ポー	-11.3696
条例	-11.3697
つつあった	-11.3697
も同じ	-11.3698
明記	-11.3698
解明	-11.3698
地震	-11.37
定朝	-11.37
1923	-11.3701
時期は	-11.3701
僧兵	-11.3703
の改良	-11.3704
自力	-11.3704
来日した	-11.3706
を継承する	-11.3708
無常	-11.3708
横川	-11.3709
昭和初期に	-11.3709
再評価	-11.371
1921	-11.371
京都ラーメン	-11.3712
の味付け	-11.3713
が成立する	-11.3713
加水	-11.3714
を掛ける	-11.3714
(129	-11.3715
事実上の	-11.3716
仙台市	-11.3716
に乗せて	-11.3716
民俗学	-11.3716
肉体	-11.3717
端に	-11.3717
という点	-11.3717
料理として	-11.3717
法難	-11.3718
得点	-11.3718
立体	-11.372
が開催され	-11.372
することになった	-11.372
を乗せた	-11.3721
と考えた	-11.3722
大内裏	-11.3722
ならず	-11.3724
ふじ	-11.3724
民間の	-11.3725
教説	-11.3725
鏡餅	-11.3729
射る	-11.3732
2~3	-11.3735
中華料理	-11.3737
の法要	-11.3738
すべし	-11.3739
使わない	-11.3741
を挙げ	-11.3742
支部	-11.3743
を重んじ	-11.3743
以上に	-11.3743
妙法	-11.3744
を起源とする	-11.3744
その後に	-11.3744
有る	-11.3745
を考え	-11.375
海外の	-11.375
十九	-11.375
を改め	-11.3756
醸造酒	-11.3756
世紀以降	-11.3756
ものもあった	-11.3756
刃物	-11.3757
をさし	-11.3757
ぎぬ	-11.3758
江戸時代まで	-11.3759
部品	-11.376
自身も	-11.3761
自分が	-11.3764
視点	-11.3765
達は	-11.3765
ヤー	-11.3766
信長の	-11.3766
先行	-11.3766
がわ	-11.3769
共通する	-11.377
下地	-11.3772
黄身	-11.3772
用品	-11.3775
食味	-11.3776
▁通常の	-11.3778
のかみ	-11.3778
見かけ	-11.3779
冷え	-11.3781
▁その為	-11.3781
が増える	-11.3781
身に	-11.3782
喫茶店	-11.3782
ース	-11.3783
分別	-11.3783
演奏家	-11.3786
並べて	-11.3787
を担当する	-11.379
出生	-11.3791
編纂された	-11.3791
全員	-11.3791
も同様の	-11.3793
th	-11.3795
進化	-11.3795
温泉地	-11.3796
▁関西では	-11.3796
日本料理店	-11.3796
▁太鼓	-11.3796
身頃	-11.3796
1952	-11.3797
が続いた	-11.3801
の上から	-11.3802
用いられることもある	-11.3807
女形	-11.3807
ることとなった	-11.3811
ことになり	-11.3811
人格	-11.3812
届け	-11.3813
で使う	-11.3816
盛った	-11.3818
占め	-11.3819
心流	-11.382
かかり	-11.382
ia	-11.3822
演技	-11.3822
の飾り	-11.3824
奪われ	-11.3824
ふた	-11.3825
の可能性	-11.3826
をはじめとして	-11.3828
多少の	-11.383
見せる	-11.3831
のだ	-11.3831
反物	-11.3832
▁全長	-11.3833
営まれる	-11.3835
つかない	-11.3835
を混ぜたもの	-11.3835
地点	-11.3837
を導入し	-11.3842
それ以前の	-11.3843
やかな	-11.3845
普段は	-11.385
確立する	-11.3851
家具	-11.3851
を開山	-11.3853
いくら	-11.3853
るまで	-11.3853
(135	-11.3853
▁またこの	-11.3855
に移る	-11.386
に就任した	-11.3864
のうちの	-11.3865
と伝わる	-11.3866
受け入れられ	-11.3867
出土している	-11.3868
夜の	-11.3869
法身	-11.3869
弟の	-11.387
が持つ	-11.3871
混ぜ合わせ	-11.3872
欠け	-11.3873
が盛んに	-11.3873
にみられる	-11.3874
で最も	-11.3874
を機に	-11.3879
を繰り返す	-11.3882
悪化	-11.3883
日本の文化	-11.3884
歳の時に	-11.3884
職員	-11.3886
▁松	-11.3893
に住し	-11.3893
東南	-11.3894
その影響	-11.3894
あし	-11.3894
正しくは	-11.3896
中島	-11.3898
仁和	-11.3898
物もある	-11.39
明治政府は	-11.3906
天女	-11.3908
を演じる	-11.391
水田	-11.391
するのが	-11.3912
st	-11.3914
人と	-11.3922
人生	-11.3929
四代	-11.3929
直す	-11.393
英国	-11.393
記述されている	-11.3932
原産	-11.3933
現地で	-11.3933
鉄製	-11.3937
形式は	-11.3939
-13	-11.394
も良い	-11.3941
大念仏	-11.3941
整備され	-11.3943
人物である	-11.3943
記している	-11.3946
一字	-11.3947
通目	-11.3952
らか	-11.3953
▁又	-11.3957
ども	-11.3957
材料を	-11.3959
枡	-11.396
の内側	-11.3961
と言っても	-11.3962
密教を	-11.3964
茶葉を	-11.3967
たちによって	-11.3969
ぶら	-11.397
にしている	-11.3971
法人	-11.3971
ろん	-11.3972
を伝え	-11.3975
のころ	-11.3975
詳しい	-11.3979
つね	-11.3979
を取	-11.398
(147	-11.398
近隣の	-11.398
のよい	-11.3981
男子の	-11.3983
蜜	-11.3984
を受	-11.3985
▁表千家	-11.3989
国学	-11.3993
▁一部の	-11.3994
もよく	-11.3996
に参禅し	-11.4
-17	-11.4001
かせた	-11.4002
フランスの	-11.4004
抜く	-11.4006
起こった	-11.4006
とされており	-11.401
加盟	-11.4012
本山は	-11.4016
鰻重	-11.4017
右側	-11.4019
ぐり	-11.402
祀る	-11.4022
▁曹洞宗	-11.4025
天下一	-11.4026
ようにする	-11.4032
ブリ	-11.4036
▁十	-11.4039
取れ	-11.4043
を造り	-11.4052
生きた	-11.4052
像である	-11.4053
長方形	-11.4053
認められる	-11.4053
時まで	-11.4053
の地に	-11.4054
が用いられている	-11.4054
冬に	-11.4059
知られており	-11.406
もって	-11.4061
衰	-11.4063
経済的	-11.4063
阪神	-11.4063
の特色	-11.4064
三年	-11.4065
注目される	-11.4066
の説明	-11.4067
流水	-11.4068
が存在している	-11.4069
の生まれ	-11.407
ずし	-11.407
という考え方	-11.407
に優れ	-11.4072
られてきた	-11.4076
が認められる	-11.4077
▁明治時代以降	-11.4079
を始める	-11.408
子は	-11.408
帰国後	-11.408
ていたため	-11.4081
考えると	-11.4082
を結び	-11.4084
色で	-11.4087
として使用された	-11.4088
書かれている	-11.409
手紙	-11.4092
同地	-11.4096
ものが主流	-11.4096
円筒埴輪	-11.4097
創業者	-11.4097
大野	-11.4099
瓜	-11.4101
が使われた	-11.4101
▁同時に	-11.4101
開催される	-11.4101
に近く	-11.4102
内親王	-11.4102
を称し	-11.4102
を願って	-11.4102
もあったが	-11.4106
長時間	-11.4106
樂	-11.4108
5°	-11.4109
だけは	-11.4109
事である	-11.411
正式名称	-11.4114
曹洞宗の	-11.4115
量が	-11.4115
たのである	-11.4116
槽	-11.4116
サンガ	-11.4117
禁止令	-11.4119
甲斐	-11.4119
京都市伏見区	-11.4119
あっさり	-11.412
狩野	-11.412
京都市下京区	-11.4121
樋	-11.4121
を行うため	-11.4121
下絵	-11.4121
丑	-11.4121
公共	-11.4121
呈	-11.4122
の項目を参照	-11.4122
侘	-11.4122
焦	-11.4122
典型	-11.4122
褐色	-11.4122
足利義	-11.4122
倫	-11.4123
出されている	-11.4123
岐阜	-11.4123
勝劣派	-11.4123
修羅	-11.4123
宸翰	-11.4124
諡号	-11.4124
栖	-11.4124
蓑	-11.4124
軌	-11.4124
渦	-11.4124
廣	-11.4124
枕草子	-11.4124
と比べると	-11.4124
悉	-11.4124
團	-11.4124
宮城道雄	-11.4124
弧	-11.4124
京阪電気鉄道	-11.4124
鮭	-11.4124
炙	-11.4124
にょらい	-11.4124
ストーリー	-11.4124
笑福亭	-11.4124
オクターブ	-11.4124
カルシウム	-11.4124
公衆浴場	-11.4124
嶽	-11.4124
年末年始	-11.4124
を表わす	-11.4124
ステーキ	-11.4124
新鮮な	-11.4124
日本放送協会	-11.4124
知名度	-11.4124
若しくは	-11.4124
卒塔婆	-11.4124
蕪	-11.4124
アズキ	-11.4124
カウンター	-11.4124
尉	-11.4124
矛盾	-11.4124
臥	-11.4124
とも称する	-11.4124
駅構内	-11.4124
即身成仏	-11.4124
ジャガイモ	-11.4124
将棋	-11.4124
コンクリート	-11.4124
肯定	-11.4124
ショップ	-11.4124
山間部	-11.4124
辛子明太子	-11.4124
班	-11.4124
マンション	-11.4124
手軽に	-11.4124
本能寺の変	-11.4124
剃髪	-11.4124
血脈相承	-11.4124
を行わない	-11.4124
洒落	-11.4124
の代名詞	-11.4124
現世利益	-11.4124
東京都台東区	-11.4124
抑制	-11.4124
露天商	-11.4124
割烹着	-11.4124
文明開化	-11.4124
高騰	-11.4124
芝居小屋	-11.4124
権少僧都	-11.4125
鉦鼓	-11.4125
比丘	-11.4125
ズボン	-11.4125
ブロック	-11.4125
崇敬	-11.4125
損傷	-11.4125
が増す	-11.4125
消防	-11.4125
鼻緒	-11.4125
になってしまう	-11.4125
違反	-11.4125
麻呂	-11.4125
附属	-11.4125
凍結	-11.4125
唱題	-11.4126
金剛界曼荼羅	-11.4126
宇佐	-11.4126
望楼型	-11.4126
楽しめる	-11.4126
禁忌	-11.4126
記憶	-11.4126
と表現する	-11.4126
家督	-11.4126
天龍寺	-11.4126
相模国	-11.4126
付け下げ	-11.4126
なかなか	-11.4126
ルーム	-11.4127
生誕	-11.4127
雛人形	-11.4127
下鴨神社	-11.4127
体育館	-11.4127
大学寮	-11.4128
芳香	-11.4128
観阿弥	-11.4128
全域	-11.4128
仁寛	-11.4128
を総称して	-11.4128
アパート	-11.4129
めでたい	-11.4129
余興	-11.4129
渡辺	-11.4129
そういう	-11.4129
吉右衛門	-11.4129
おぼろ	-11.413
浄土宗の僧	-11.413
寿永	-11.413
加持	-11.413
ひじき	-11.413
世紀初め	-11.413
視覚	-11.413
謡曲	-11.413
を差し	-11.4131
更新	-11.4131
発祥の地	-11.4131
充実	-11.4131
とよい	-11.4132
寺号	-11.4132
無視	-11.4132
盛大に	-11.4132
引退	-11.4132
原典	-11.4133
キロ	-11.4133
岡山市	-11.4133
右近	-11.4133
全盛	-11.4133
濃茶	-11.4133
とどめ	-11.4133
狭間	-11.4133
禅林寺	-11.4134
とする見方	-11.4134
の意向	-11.4135
系列	-11.4136
牛車	-11.4136
祖霊	-11.4136
世法主	-11.4137
変動	-11.4137
の間では	-11.4137
栄西	-11.4137
ケン	-11.4137
なかで	-11.4138
流域	-11.4138
メン	-11.4139
ワキ方	-11.4139
強力な	-11.414
入寂	-11.414
通路	-11.414
永観	-11.414
用材	-11.414
串に刺し	-11.4141
集まる	-11.4141
オオ	-11.4141
臣下	-11.4141
有志	-11.4141
車輪	-11.4141
カニ	-11.4141
そば粉	-11.4142
たたき	-11.4142
そんな	-11.4142
宇治茶	-11.4142
興味	-11.4142
▁大和	-11.4142
一時的に	-11.4143
天丼	-11.4143
修験者	-11.4143
の題目	-11.4144
寝殿造り	-11.4144
(146	-11.4144
生育	-11.4145
でしか	-11.4145
結論	-11.4145
金額	-11.4147
雷神	-11.4147
栄えた	-11.4147
明恵	-11.4148
語る	-11.4148
の生産量	-11.4148
雪村	-11.4148
小唄	-11.4148
んぱ	-11.4149
桜餅	-11.415
浅い	-11.415
ミー	-11.4151
ともなった	-11.4152
位階	-11.4153
組み合わせて	-11.4153
隠語	-11.4154
として知られ	-11.4154
初日	-11.4155
その結果	-11.4156
ことが記されている	-11.4158
原作	-11.4159
聖堂	-11.4159
例が多い	-11.416
弓馬	-11.4161
名詞	-11.4161
画僧	-11.4162
半島	-11.4163
1925	-11.4163
ことなく	-11.4164
的を射	-11.4165
元慶	-11.4166
先述の	-11.4166
の作成	-11.4167
新宿	-11.4169
伊勢国	-11.417
張って	-11.4171
定説	-11.4171
1991	-11.4173
盆地	-11.4173
1901	-11.4179
1.7	-11.4179
~13	-11.418
結んで	-11.418
気味	-11.4181
丼物	-11.4182
出自	-11.4182
手がけ	-11.4182
を唱える	-11.4185
しゅく	-11.4188
ドロ	-11.4189
石州	-11.419
ふう	-11.419
断面	-11.419
紙屋	-11.419
続いた	-11.419
巧み	-11.4191
がなされる	-11.4191
を用いたもの	-11.4192
三寸	-11.4193
利き	-11.4193
もあれば	-11.4193
が求められる	-11.4194
三百	-11.4195
されることになった	-11.4196
舞事	-11.4196
誓願	-11.4198
▁鎌倉時代には	-11.4198
遠い	-11.4198
名人	-11.42
香味	-11.4202
ぶし	-11.4203
入らない	-11.4203
をかけて食べる	-11.4204
を納める	-11.4205
を提供し	-11.4205
両部	-11.4205
多くなっている	-11.4206
性のある	-11.4207
と思い	-11.4209
導入された	-11.4209
向かって右	-11.421
商品名	-11.4211
の紐	-11.4212
勧請	-11.4214
生死	-11.4214
寺院が	-11.4215
の居城	-11.4215
三度	-11.4216
城内	-11.4217
とするのが	-11.4217
円教	-11.4217
新義	-11.4222
の広さ	-11.4224
が普及し	-11.4225
をうけ	-11.4226
ルト	-11.4227
ことをいう	-11.4228
▁材料	-11.4228
活動している	-11.4229
鬼神	-11.4229
創作された	-11.423
▁そこから	-11.423
を残して	-11.4235
以内	-11.4236
ドリ	-11.4238
の一つであり	-11.4238
されていなかった	-11.424
に師事	-11.424
万石	-11.424
に秀で	-11.4241
命じ	-11.4241
に置き	-11.4249
大阪では	-11.4251
石山	-11.4259
説かれた	-11.4261
を起こした	-11.4263
行われてきた	-11.4265
滋賀	-11.4266
書く	-11.4267
が死去	-11.4268
-11	-11.427
畳の	-11.427
ブルー	-11.4271
ちぎ	-11.4272
詰めた	-11.4274
関西歌舞伎の	-11.4275
線が	-11.4276
図像	-11.4276
並べた	-11.4278
が望ましい	-11.4278
する形で	-11.4279
発展を遂げ	-11.4279
正行	-11.4279
提供される	-11.428
da	-11.428
水産	-11.4281
が行う	-11.4282
翌年には	-11.4285
飾られる	-11.4285
食べたり	-11.4285
をもたらした	-11.4292
に戻った	-11.4292
毎に	-11.4295
土用	-11.4295
▁それが	-11.4296
を維持し	-11.4298
を採用し	-11.4298
せしめ	-11.4298
西行	-11.4298
三島	-11.4301
宮城	-11.4301
日に行われる	-11.4302
▁有名な	-11.4304
コウ	-11.4312
押さえ	-11.4313
経由で	-11.4314
宗教的な	-11.4314
広がって	-11.4317
大地	-11.4317
と呼称し	-11.4318
がわかる	-11.432
向けに	-11.4321
と並び	-11.4323
にいた	-11.4324
▁とくに	-11.4324
当てる	-11.4325
ッタ	-11.4326
江戸時代中期に	-11.4327
sh	-11.4327
ッキ	-11.4327
表面の	-11.4329
定める	-11.4329
三枚	-11.4333
テイ	-11.4338
器物	-11.434
を進め	-11.4341
3000	-11.4341
の様子を	-11.4344
の弟子である	-11.4345
薬味として	-11.4347
二枚	-11.4349
を集めて	-11.435
近世以降	-11.4351
大社	-11.4351
が含まれる	-11.4351
も数多く	-11.4352
07	-11.4356
ずり	-11.4357
に分かれた	-11.4357
太さ	-11.4357
祝う	-11.4358
階建	-11.4358
名声	-11.436
1573	-11.4362
地歌曲	-11.4362
者である	-11.4363
様な	-11.4364
▁弘法大師	-11.4365
その姿	-11.4368
本質	-11.4369
の衰退	-11.437
があるので	-11.4371
名前は	-11.4371
で有名	-11.4376
の周囲に	-11.438
的な要素	-11.4381
カブ	-11.4383
は当初	-11.4388
負け	-11.4389
オス	-11.4391
明治期に	-11.4394
行われており	-11.4397
外出	-11.4397
なってきている	-11.4398
部分である	-11.44
あく	-11.4401
を指すことが多い	-11.4406
特徴がある	-11.4407
量産	-11.4407
米粉	-11.4407
▁文明	-11.4408
の塩辛	-11.4409
勧	-11.4415
ni	-11.4417
五代目	-11.4419
地中	-11.442
江戸幕府の	-11.4423
表面が	-11.4424
に詰め	-11.4426
千人	-11.4428
原料として	-11.443
表記は	-11.4431
古代インドの	-11.4432
離れて	-11.4434
に住み	-11.4435
との説もある	-11.4435
中心の	-11.4436
ものであったが	-11.4436
ように見える	-11.4436
そこには	-11.444
の立場から	-11.444
で構成されている	-11.4441
太く	-11.4442
すす	-11.4444
平安時代には	-11.4444
にも用いられる	-11.4445
手打ち	-11.4445
文献に	-11.4447
勝寺	-11.4447
圏で	-11.4447
を与えられ	-11.4452
を訪れた	-11.4453
ータ	-11.4454
広義の	-11.4454
一見	-11.4459
残っていない	-11.446
上層	-11.4461
の方に	-11.4463
上方では	-11.4464
衽	-11.4465
この日に	-11.4467
の著作	-11.4469
指南	-11.4473
山村	-11.4476
されなかった	-11.4476
を抑える	-11.4476
行なわれていた	-11.4477
歴史学	-11.4477
のだが	-11.4477
州の	-11.448
定着した	-11.448
仏教において	-11.4481
に記されている	-11.4481
の内側に	-11.4482
ロース	-11.4483
の表面に	-11.4486
▁1941	-11.4487
は異なる	-11.4488
ちょうど	-11.4489
施設として	-11.449
は元々	-11.4492
点火	-11.4497
佐藤	-11.4498
後代	-11.45
ササ	-11.4505
の栽培	-11.4509
じゅつ	-11.4517
中川	-11.4518
資料として	-11.4518
地域や	-11.4518
が長い	-11.4519
するようになる	-11.4519
日奥	-11.4519
堀川	-11.4519
くよう	-11.4519
布で	-11.452
との違い	-11.452
楽器である	-11.452
保温	-11.4522
とも表記	-11.4524
発祥地	-11.4525
巧	-11.4528
盗掘	-11.4534
の意味である	-11.4534
に限られ	-11.4535
パス	-11.4538
▁1989	-11.4539
料理人	-11.4541
自らが	-11.4543
順次	-11.4545
ひん	-11.4547
年頃から	-11.4548
揃え	-11.455
となったが	-11.455
として有名	-11.4551
旧蔵	-11.4552
も多かった	-11.4554
戦中	-11.4554
駆	-11.4554
で構成される	-11.4555
発達し	-11.4555
戦死	-11.4556
する為	-11.4556
穿	-11.4557
書誌	-11.4557
ものをいう	-11.456
おみ	-11.4563
法である	-11.4564
現存し	-11.4565
といえ	-11.4566
も異なる	-11.4568
年頃に	-11.4568
侘び	-11.457
を獲得し	-11.4572
五段	-11.4573
シテが	-11.4574
早生	-11.4576
親鸞が	-11.4576
拡	-11.4577
も多数	-11.4578
が起こった	-11.4579
と言え	-11.4584
砲	-11.4584
終え	-11.4584
症	-11.4584
広大な	-11.4584
▁各地の	-11.4586
援	-11.4588
獄	-11.4589
大正時代に	-11.4593
生田流	-11.4593
具体的に	-11.4594
潔	-11.4594
オーケストラ	-11.4595
対論	-11.4595
ろうとする	-11.4596
陰陽	-11.4597
近鉄	-11.4597
憶	-11.4597
にゅう	-11.4598
内部で	-11.4599
謀	-11.4599
宜	-11.4599
嗜	-11.4599
代藩主	-11.4599
スタジアム	-11.46
環濠	-11.46
遥	-11.46
經	-11.46
禍	-11.46
盾	-11.46
地方公共団体	-11.46
鎌倉新仏教	-11.46
清凉寺	-11.46
高度経済成長	-11.46
尖	-11.46
摩訶	-11.46
村田珠光	-11.46
膨大な	-11.46
金閣寺	-11.46
関西文化学術研究都市	-11.46
教王護国寺	-11.46
鱈	-11.46
八橋検校	-11.46
内藤ジョアン	-11.46
扁	-11.46
笏	-11.46
色々な	-11.46
蛸	-11.46
カステラ	-11.46
コンセプト	-11.46
太政官	-11.46
寅	-11.46
を強調する	-11.46
アフリカ	-11.46
ティング	-11.46
最盛期	-11.46
紛争	-11.46
胃	-11.46
円覚寺	-11.46
須恵器	-11.46
どぶろく	-11.46
鱗	-11.46
‐	-11.46
胎蔵曼荼羅	-11.46
ヴェ	-11.46
洗濯	-11.46
松尾芭蕉	-11.46
溶き卵	-11.46
すなはち	-11.46
舞良戸	-11.46
お会式	-11.46
活性化	-11.46
唯識	-11.46
考察	-11.46
几帳	-11.46
第二次大戦	-11.46
日光東照宮	-11.46
国民の祝日	-11.46
広島風お好み焼き	-11.46
を名乗り	-11.46
裁縫	-11.46
佐賀県	-11.46
上流階級	-11.46
専修念仏	-11.46
を選ぶ	-11.46
勉強	-11.4601
今度は	-11.4601
はじまり	-11.4601
鵜匠	-11.4601
圧縮	-11.4601
桂離宮	-11.4601
コンビニ	-11.4601
美味しい	-11.4601
処刑	-11.4601
つながってい	-11.4601
准如	-11.4601
缶詰	-11.4601
ブラック	-11.4601
創刊	-11.4601
如是	-11.4601
を挟んで	-11.4601
辞典	-11.4601
羅城門	-11.4601
燈籠	-11.4601
壬生	-11.4601
あがった	-11.4602
厚化粧	-11.4602
普化宗	-11.4602
依然	-11.4602
散らし	-11.4602
復刻	-11.4602
はっきりしない	-11.4602
羅漢	-11.4602
を生む	-11.4602
加わる	-11.4602
立涌	-11.4602
課題	-11.4602
選挙	-11.4602
▁なかでも	-11.4602
ベルト	-11.4602
伽藍配置	-11.4602
パスタ	-11.4602
バンド	-11.4602
高野豆腐	-11.4602
裁断	-11.4602
到来	-11.4603
範士	-11.4603
魅力	-11.4603
極楽往生	-11.4603
注ぐ	-11.4603
告げ	-11.4603
平安後期	-11.4603
入会地	-11.4603
普通に	-11.4603
咲く	-11.4603
内紛	-11.4603
木曽	-11.4603
冷泉	-11.4604
摂政	-11.4604
楽しみ	-11.4604
宴席	-11.4604
広沢流	-11.4604
棟梁	-11.4604
脇差	-11.4604
が宿る	-11.4604
遷宮	-11.4604
態度	-11.4605
携行	-11.4605
いわば	-11.4605
踏歌	-11.4605
次の通り	-11.4605
香典	-11.4605
唯円	-11.4606
おこわ	-11.4606
特権	-11.4606
鳴らし	-11.4607
を歴任し	-11.4607
初七日	-11.4607
大乗経典	-11.4607
ボン	-11.4607
催される	-11.4607
寿司屋	-11.4607
稲作	-11.4608
越後国	-11.4608
湾曲	-11.4608
抱き	-11.4608
泰平	-11.4608
運慶	-11.4608
昼夜	-11.4608
リード	-11.4608
普門	-11.4608
デン	-11.4608
を披露する	-11.4609
相次いで	-11.4609
通過	-11.4609
法隆寺金堂	-11.4609
慶応	-11.461
天保暦	-11.461
義演	-11.461
まぜ	-11.461
暦応	-11.461
四隅	-11.461
所収	-11.461
献立	-11.4611
現在に至る	-11.4611
を紹介する	-11.4611
タネ	-11.4611
ch	-11.4611
と呼ばれることが多い	-11.4611
転調	-11.4612
手のひら	-11.4612
模型	-11.4612
よろ	-11.4612
行なわれている	-11.4613
注ぎ	-11.4613
四角形	-11.4613
風合い	-11.4613
を記念して	-11.4613
夕方	-11.4613
作曲した	-11.4613
こぶ	-11.4613
世門主	-11.4614
四条派	-11.4614
尾根	-11.4614
交差点	-11.4614
淀城	-11.4615
僧綱	-11.4616
あや	-11.4616
種を	-11.4616
不浄	-11.4616
薬草	-11.4617
様相	-11.4617
盲人	-11.4617
多種多様な	-11.4618
地区で	-11.4618
かならず	-11.4618
それらが	-11.4618
の有無	-11.4619
性交	-11.4619
に由来するもの	-11.4619
置屋	-11.462
比重	-11.462
光背	-11.4621
鵜飼い	-11.4621
ドン	-11.4621
の発生	-11.4622
......	-11.4622
憲法	-11.4623
大乗院	-11.4623
ノン	-11.4624
金賞	-11.4624
食生活	-11.4625
旨み	-11.4625
かも	-11.4625
怒り	-11.4625
本願寺教団	-11.4626
蕎麦湯	-11.4626
伏見天皇	-11.4627
盛んであった	-11.4627
深川	-11.4627
白隠	-11.4627
~20	-11.4627
白拍子	-11.4627
かぶり	-11.4628
如信	-11.4628
不要	-11.4629
を補う	-11.463
を救う	-11.463
法皇	-11.463
食として	-11.463
米麹	-11.4631
蕎麦切り	-11.4631
実施された	-11.4631
禁止されている	-11.4631
弾く	-11.4632
書院造り	-11.4632
六観音	-11.4633
草紙	-11.4633
易い	-11.4633
生のまま	-11.4633
若い女性	-11.4634
自主	-11.4634
七草	-11.4635
習い	-11.4635
安産	-11.4636
困難な	-11.4636
心理	-11.4636
刊行された	-11.4637
の後継者	-11.4637
1904	-11.464
戻す	-11.464
色調	-11.464
フォー	-11.4641
多くの流派	-11.4641
門首	-11.4642
を述べ	-11.4642
越中国	-11.4642
というよりは	-11.4643
が著した	-11.4643
認められている	-11.4643
が悪く	-11.4643
流通している	-11.4645
が豊富	-11.4645
入館	-11.4646
中継	-11.4646
天守台	-11.4646
風土	-11.4647
参加する	-11.4647
おらず	-11.4647
名曲	-11.4647
黒砂糖	-11.4647
木津	-11.4648
河口	-11.4648
ものではなかった	-11.465
細部	-11.465
など他の	-11.4652
1903	-11.4652
と考えられていた	-11.4654
に初めて	-11.4656
すり身	-11.4657
傾斜	-11.4657
▁日蓮は	-11.4657
欧米では	-11.4657
アド	-11.4659
当流	-11.466
ひつ	-11.4661
取得	-11.4663
による分類	-11.4664
引く	-11.4665
単純に	-11.4666
古文	-11.4667
よく用いられる	-11.4667
単純な	-11.4668
の先駆	-11.4669
を確認	-11.467
洋画	-11.467
▁愛知県	-11.4671
かについては	-11.4674
供え	-11.4674
がかかる	-11.4675
広島市	-11.4675
火力	-11.4675
豊富な	-11.4677
通信	-11.4677
に移された	-11.4678
ルー	-11.4682
安価で	-11.4683
戦時中	-11.4684
法輪	-11.4685
川崎	-11.4685
に取り入れられ	-11.4688
御室	-11.4689
前田	-11.469
の配置	-11.469
しなければ	-11.469
種である	-11.4691
移り	-11.4691
と説く	-11.4691
お祭り	-11.4692
雲母	-11.4693
古典的な	-11.4695
主教	-11.4695
安置されている	-11.4696
を催	-11.4697
ぶた	-11.4697
むろ	-11.4704
天気	-11.4704
▁同じく	-11.4704
になってから	-11.4704
らせて	-11.4705
問い	-11.4707
構成される	-11.4708
を継ぐ	-11.4709
に師事して出家	-11.4709
日置	-11.4713
小林	-11.4717
の扉	-11.4718
▁日本でも	-11.4718
じゃく	-11.4718
グル	-11.472
古流	-11.4721
▁第二十	-11.4722
なます	-11.4722
デー	-11.4723
現行	-11.4723
に招かれ	-11.4724
調味料として	-11.473
勅許	-11.4731
用心	-11.4731
区別される	-11.4736
といわれた	-11.4738
領地	-11.4739
出家者	-11.474
▁そのために	-11.4742
ためか	-11.4743
長和	-11.4744
の事情	-11.4745
(125	-11.4746
御堂	-11.475
重要文化財に指定され	-11.475
打ち水	-11.4751
並べる	-11.4753
期間は	-11.4755
の家臣	-11.4762
の減少	-11.4763
チベット仏教	-11.4764
の間には	-11.4772
焼き物	-11.4773
も現れ	-11.4773
浸透	-11.4773
をとった	-11.4776
(154	-11.4779
つくる	-11.4779
に広まった	-11.4781
通例	-11.4782
▁親鸞の	-11.4782
浮か	-11.4782
すべく	-11.4787
短期	-11.479
の内容は	-11.4791
1600	-11.4792
▁赤	-11.4792
本場	-11.4793
を添えて	-11.4794
導入した	-11.4797
を飾る	-11.4798
1943	-11.4798
品目	-11.4799
▁平安時代後期	-11.4799
が増加し	-11.4801
が記されている	-11.4801
▁蕎麦	-11.4804
光琳	-11.4807
がそのまま	-11.4808
知事	-11.4809
ひれ	-11.4813
覆われ	-11.4816
とみなされ	-11.4816
ないことから	-11.4818
風習が	-11.4818
の横	-11.482
手段として	-11.482
▁切腹	-11.4821
メニューに	-11.4823
火山	-11.4825
ぶき	-11.4825
これまでの	-11.4827
に入門	-11.483
楽人	-11.4831
▁弘安	-11.4834
多羅	-11.4834
対象とする	-11.4835
宮中の	-11.484
得度し	-11.484
を抜き	-11.4841
こむ	-11.4846
内面	-11.4847
▁基本的には	-11.4848
食される	-11.4848
流儀の	-11.4853
広まって	-11.4854
長元	-11.4855
四方に	-11.4856
であるので	-11.4858
ていることから	-11.486
心身	-11.4863
岡本	-11.4863
茶席	-11.4865
▁園城寺	-11.4868
の呼び名	-11.4868
駅下車	-11.4869
の作り方	-11.4874
を使用して	-11.4876
に備え	-11.4877
四菩薩	-11.4877
として用いられ	-11.4879
に出て	-11.488
に改め	-11.4882
などとも呼ばれる	-11.4883
人々を	-11.4885
地面に	-11.489
に由来し	-11.4893
説かれている	-11.4895
事も多い	-11.4896
▁166	-11.4896
が悪い	-11.4897
られなかった	-11.4898
の大きさは	-11.4899
等は	-11.49
ac	-11.4903
も知られている	-11.4903
カタ	-11.4905
を取った	-11.4908
今は	-11.4913
宮津	-11.4914
大日本	-11.4918
再利用	-11.4922
538	-11.4923
の門	-11.493
わかる	-11.4933
萌	-11.4935
中心的な	-11.4937
替わり	-11.4938
感じる	-11.4939
込まれた	-11.4941
コシ	-11.4942
海水	-11.4942
庶民にも	-11.4943
に通じ	-11.4943
砲術	-11.4948
金色の	-11.4948
を建立して	-11.4948
結成	-11.4949
第二次世界大戦後	-11.4952
と呼ばれて	-11.4954
ランク	-11.4956
などには	-11.4956
齢	-11.4958
不動尊	-11.496
びわ	-11.4963
イモ	-11.4964
言われる	-11.4966
も同様に	-11.4968
を細かく	-11.4971
併設	-11.4973
特産	-11.4973
をそれぞれ	-11.4975
うえで	-11.4978
かめ	-11.498
一節	-11.4981
正門	-11.4982
言い伝え	-11.4987
たまま	-11.4988
当初の	-11.4989
吉川	-11.499
厳密に	-11.4997
用語として	-11.5002
尾張藩	-11.5003
(2008	-11.5005
を配し	-11.5006
単衣	-11.5006
薄れ	-11.5007
役割を果たし	-11.5008
と呼称される	-11.501
~14	-11.501
に変更	-11.5011
を下げ	-11.5012
伝える	-11.5012
白飯	-11.5015
兄の	-11.5016
神様	-11.5016
まく	-11.502
権力者	-11.502
方形の	-11.5021
を進める	-11.5022
▁長野県	-11.5022
さかんに	-11.5022
三位	-11.5025
建てられ	-11.5027
ッパ	-11.5028
三十三	-11.5031
平安時代中期の天台宗の	-11.5032
取って	-11.5032
伸ばした	-11.5034
▁天保	-11.5034
が変わる	-11.5034
▁本丸	-11.5035
官人	-11.5036
▁仁和寺	-11.5038
一派である	-11.5042
すべてが	-11.5043
くなった	-11.5044
さらし	-11.5053
を着て	-11.5055
の長さは	-11.5055
制定した	-11.5056
のぼり	-11.506
菩薩像	-11.506
になるまで	-11.5061
のものも	-11.5063
▁この他に	-11.5067
バチ	-11.5067
香辛料	-11.5068
させるため	-11.507
ネス	-11.507
守り	-11.5071
修験	-11.5074
互	-11.5075
▁明	-11.5077
阪	-11.5078
者には	-11.5079
結びつけ	-11.508
わび	-11.5082
モン	-11.5082
拒否	-11.5082
中尊	-11.5083
維新後	-11.5084
簡	-11.5084
別当職	-11.5085
測	-11.5086
拍	-11.5086
喰	-11.5087
法然が	-11.5087
破れ	-11.5088
鎌倉時代後期	-11.5089
の一部が	-11.509
鋭	-11.5092
菓	-11.5092
が数多く	-11.5093
で出家し	-11.5094
不受不施	-11.5095
を起こし	-11.5096
芦	-11.5096
卿	-11.5096
に分布する	-11.5096
j	-11.5097
留袖	-11.5098
塁	-11.5098
奈良国立博物館	-11.5098
野村万蔵	-11.5098
卯	-11.5099
維	-11.5099
;	-11.5099
屠蘇	-11.5099
猶	-11.5099
灌	-11.5099
親鸞聖人	-11.51
惟	-11.51
刈	-11.51
霜	-11.51
ソフト	-11.51
売茶翁	-11.51
実業家	-11.51
当山派	-11.51
武蔵府中熊野神社古墳	-11.51
受け継いだ	-11.51
札幌市	-11.51
二楽荘	-11.51
和三盆	-11.51
武野紹鴎	-11.51
素朴な	-11.51
紫式部	-11.51
凹凸	-11.51
の範疇	-11.51
優美な	-11.51
ご当地	-11.51
嶺	-11.51
ブレンド	-11.51
両界曼荼羅	-11.51
喧	-11.51
新陰流	-11.51
タレント	-11.51
往生要集	-11.51
酒造好適米	-11.51
ギャラリー	-11.51
今川氏	-11.51
麟	-11.51
ハヤシライス	-11.51
ビーフ	-11.51
句是菩薩位	-11.51
平清盛	-11.51
翠	-11.51
鬘	-11.51
匁	-11.51
采	-11.51
に匹敵する	-11.51
二刀流	-11.51
螺	-11.51
語呂合わせ	-11.51
雁皮紙	-11.51
わざわざ	-11.51
菅原道真	-11.51
伸ばす	-11.51
須弥山	-11.51
鹿鳴館	-11.51
槌	-11.51
花柳界	-11.51
鬼子母神	-11.51
風信帖	-11.51
俵屋宗達	-11.51
曲水の宴	-11.51
蝦夷	-11.51
屯	-11.51
信貴山	-11.51
奴	-11.51
確実な	-11.51
農林水産省	-11.51
中院流	-11.51
出雲大社	-11.51
をめぐる	-11.51
を待つ	-11.51
メンバー	-11.51
初心者	-11.51
衰微	-11.51
に当たって	-11.51
他力本願	-11.51
ロンドン	-11.51
善鸞	-11.5101
親子丼	-11.5101
を囲む	-11.5101
複写	-11.5101
柄杓	-11.5101
どんぶり	-11.5101
チキン	-11.5101
と答えた	-11.5101
予防	-11.5101
タンタン	-11.5101
エビフライ	-11.5101
吟醸香	-11.5101
四季醸造	-11.5101
熟練	-11.5101
引眉	-11.5101
とんかつ	-11.5101
II	-11.5101
コショウ	-11.5101
1884	-11.5102
扇雀	-11.5102
干支	-11.5102
菅原	-11.5102
金剛杵	-11.5102
借景	-11.5102
審理	-11.5102
肖像画	-11.5102
考証	-11.5102
養老	-11.5102
強調され	-11.5102
掛け軸	-11.5102
軽減	-11.5102
蓮悟	-11.5102
回京都学生祭典	-11.5102
補任	-11.5103
度牒	-11.5103
当て字	-11.5103
焼損	-11.5103
伊予	-11.5103
足利義教	-11.5103
事が出来る	-11.5103
恵果	-11.5103
祝言	-11.5103
肥後国	-11.5103
定着する	-11.5103
百姓	-11.5103
遺言書	-11.5103
安く	-11.5103
庫裏	-11.5104
三経	-11.5104
サイト	-11.5104
▁そうした	-11.5104
▁転じて	-11.5104
アユ	-11.5104
漬け込む	-11.5104
解除	-11.5104
演芸場	-11.5104
明治初年	-11.5104
くらべ	-11.5105
白身魚	-11.5105
タイム	-11.5105
油脂	-11.5105
狭く	-11.5105
常陸国	-11.5105
することも	-11.5105
武家屋敷	-11.5105
感情	-11.5106
礼儀	-11.5106
留意	-11.5106
刻印	-11.5106
っぽう	-11.5106
追善	-11.5106
クラス	-11.5106
ひがし	-11.5106
球場	-11.5106
客席	-11.5107
長享	-11.5107
寒造り	-11.5107
から渡来した	-11.5107
に開館した	-11.5107
均一	-11.5107
唐破風	-11.5107
ことが分かる	-11.5108
体裁	-11.5108
の一員	-11.5108
つち	-11.5108
▁的屋	-11.5108
幸福	-11.5108
東大寺大仏殿	-11.5109
本門宗	-11.5109
目標	-11.5109
糖類	-11.5109
殿舎	-11.5109
北魏	-11.511
仕様	-11.511
焚き	-11.511
遺言	-11.511
にともない	-11.511
貫首	-11.511
兵器	-11.511
うまみ	-11.5111
初演	-11.5111
歌垣	-11.5111
広く知られる	-11.5111
彼女	-11.5111
墳丘長	-11.5111
肩衣	-11.5111
最高位	-11.5112
層塔	-11.5112
薬指	-11.5112
氷室	-11.5112
麹造り	-11.5112
埋葬施設	-11.5112
並んで	-11.5112
山田流	-11.5112
才能	-11.5112
錦絵	-11.5112
に大別される	-11.5112
宅地	-11.5113
参列者	-11.5113
銀座	-11.5113
今様	-11.5114
菊池	-11.5114
射礼	-11.5114
守護代	-11.5114
薄切り	-11.5114
専ら	-11.5115
ポピュラーな	-11.5115
順位	-11.5115
おおよそ	-11.5115
飲酒	-11.5115
大広間	-11.5115
大手門	-11.5116
わからない	-11.5116
早世	-11.5116
熊野神社	-11.5116
修業	-11.5117
表わされ	-11.5117
手続き	-11.5117
信太郎	-11.5117
清浄なる	-11.5117
夏祭り	-11.5117
寛平	-11.5118
を強め	-11.5118
かかわり	-11.5119
芝生	-11.5119
松尾	-11.512
紫衣	-11.5121
世紀には	-11.5122
梵字	-11.5123
かんじん	-11.5123
相輪	-11.5123
光沢	-11.5124
本物の	-11.5125
の時代には	-11.5125
真打	-11.5125
組歌	-11.5126
元来は	-11.5126
庭園は	-11.5126
手締め	-11.5127
高山寺	-11.5127
プリン	-11.5127
のことをいう	-11.5128
茶釜	-11.5128
タマ	-11.5129
拝領	-11.5129
三宅	-11.5129
洗練された	-11.5129
神秘	-11.513
を原料とした	-11.513
▁材質は	-11.513
正確には	-11.513
慧能	-11.5131
布を	-11.5131
個体	-11.5131
所もある	-11.5131
飛行	-11.5131
十界	-11.5132
彩り	-11.5132
邪気	-11.5133
と号した	-11.5134
譲渡	-11.5134
自体も	-11.5134
行われなくなった	-11.5134
ルイ	-11.5135
三十六	-11.5135
1905	-11.5136
もう一つ	-11.5136
学芸	-11.5136
諸島	-11.5136
銘文	-11.5137
暗殺	-11.5138
してもらう	-11.5139
不空	-11.5139
建物である	-11.5139
技量	-11.5139
場面で	-11.5139
が登場した	-11.5139
改める	-11.514
▁このころ	-11.514
制度は	-11.514
ぜい	-11.514
結果的に	-11.514
首座	-11.5141
草花	-11.5142
高野山真言宗	-11.5142
いけない	-11.5142
は戦後	-11.5142
長期間	-11.5142
かんのん	-11.5143
をきっかけに	-11.5143
小泉	-11.5143
をとっている	-11.5144
教相	-11.5144
千年	-11.5144
1889	-11.5145
文久	-11.5145
ナス	-11.5146
来客	-11.5147
能管	-11.5147
日本酒度	-11.5149
を背景に	-11.515
直衣	-11.515
地酒	-11.515
鳴り	-11.5152
興寺	-11.5155
長さ約	-11.5155
などである	-11.5155
町衆	-11.5156
商店	-11.5156
に使われた	-11.5157
が多く見られる	-11.5158
注意を要する	-11.5159
寺務	-11.5159
古代インド	-11.516
六代目	-11.5161
▁絹本著色	-11.5161
手入れ	-11.5163
政治家	-11.5163
仏前	-11.5165
時間は	-11.5165
さまざまである	-11.5166
会話	-11.5168
もてなし	-11.5172
さげ	-11.5175
寛永寺	-11.5176
なるもの	-11.5176
食塩	-11.5179
▁その他にも	-11.518
▁毎月	-11.518
を超えた	-11.518
教主	-11.518
秋風	-11.5182
天徳	-11.5185
復帰	-11.5191
お茶漬け	-11.5192
東海地方	-11.5192
みずから	-11.5194
開口	-11.5195
まれている	-11.5196
不二	-11.5197
風刺	-11.5198
手本	-11.5198
を強く	-11.52
新刀	-11.52
を載せる	-11.5205
マンガ	-11.5208
倒れ	-11.521
の活躍	-11.5211
十分な	-11.5211
四位	-11.5211
かかった	-11.5211
しつつ	-11.5212
からかみ	-11.5213
ことのできる	-11.5216
違った	-11.522
を重視した	-11.522
続けて	-11.522
ッカー	-11.5222
すぎた	-11.5223
と誤解され	-11.5224
フランス料理	-11.5225
平成元年	-11.5225
所蔵の	-11.5225
▁第二次世界大戦	-11.5225
下段	-11.5226
形成され	-11.5226
を著して	-11.5229
ぼし	-11.5233
にもなった	-11.5233
化仏	-11.5233
節分の	-11.5233
は見られない	-11.5238
日本武術	-11.5238
▁しかしこの	-11.524
に限られる	-11.5242
高座	-11.5242
庶民が	-11.5243
西村	-11.5243
食べていた	-11.5245
で初めて	-11.5246
参禅	-11.5247
人が多い	-11.5248
パイ	-11.525
きっ	-11.5252
けない	-11.5256
回数	-11.5257
ゲル	-11.5258
であるか	-11.5259
結果として	-11.5259
▁醍醐寺	-11.5259
メートル以上	-11.526
と判断	-11.5263
中京	-11.5267
にがり	-11.5268
神体	-11.5271
に任せ	-11.5276
ひな	-11.5279
十字	-11.5279
すじ	-11.528
継承され	-11.5282
なわ	-11.5282
駅前	-11.5282
四神	-11.5283
容器に	-11.5285
晒	-11.5287
終戦	-11.5287
施設である	-11.529
運ぶ	-11.5293
の部分が	-11.5295
から離れ	-11.5297
中央アジア	-11.5297
覚え	-11.53
▁江戸時代中期	-11.53
シロ	-11.53
向かい	-11.5301
に分類され	-11.5302
オル	-11.5302
休み	-11.5302
迎えた	-11.5303
軽食	-11.5306
上衣	-11.5307
欧米の	-11.5309
のシンボル	-11.531
▁この際	-11.5312
日蓮が	-11.5313
を組み	-11.5317
ーション	-11.5318
を避け	-11.532
みこ	-11.532
▁-「	-11.532
と区別する	-11.5321
もとは	-11.5321
の伝記	-11.5321
のかは	-11.5322
が説かれている	-11.5323
1944	-11.5323
ぽ	-11.5325
▁この為	-11.5325
歴史的な	-11.5326
およびその	-11.5328
表す	-11.5329
内側に	-11.5329
あか	-11.5329
表わした	-11.5331
三間	-11.5331
こじ	-11.5331
男性が	-11.5335
この形式	-11.5335
洋式	-11.5335
好みで	-11.5335
食材を	-11.5336
大橋	-11.5337
の合奏	-11.5338
が発生する	-11.5338
を続け	-11.534
ほぼ同じ	-11.534
仏式	-11.5341
収ま	-11.5343
出石	-11.5343
となると	-11.5344
を開設	-11.5346
は室町時代	-11.5351
ってしまった	-11.5351
を目的に	-11.5352
の周りに	-11.5353
その内容は	-11.5354
に立つ	-11.5355
白木	-11.5357
行われない	-11.5357
を採用する	-11.536
わなかった	-11.5361
▁小笠原流	-11.5363
禁じられている	-11.5363
(134	-11.5364
贅沢	-11.5367
真似	-11.537
▁空海は	-11.5372
▁撥	-11.5374
寺院や	-11.5375
が図られ	-11.538
を焼く	-11.5386
が出土した	-11.5387
する場合は	-11.5392
平常	-11.5393
が開催される	-11.5393
に用いられている	-11.5399
のみであった	-11.54
さび	-11.5403
廃止された	-11.5405
初期には	-11.5409
山中	-11.541
(115	-11.5416
阿弥陀経	-11.5417
(174	-11.5423
1688	-11.5424
の出身で	-11.5428
の名称で	-11.543
それ以上	-11.5433
薄茶	-11.5434
仮に	-11.5434
を運ぶ	-11.544
と同一視される	-11.5443
に流行した	-11.5445
とは違う	-11.5445
が行なわれる	-11.5445
の代表作	-11.5446
ひも	-11.5446
練る	-11.5447
卵白	-11.5447
を取り出し	-11.5448
一般公開	-11.5448
類似の	-11.5448
という形で	-11.545
らずに	-11.545
などを行う	-11.5452
▁元々	-11.5453
含め	-11.5454
荒廃	-11.5455
指す	-11.5458
製作された	-11.5458
の本質	-11.546
(126	-11.546
1300	-11.5461
た際に	-11.5462
本町	-11.5463
とよばれ	-11.5463
になったのは	-11.5464
の救済	-11.5466
野宮	-11.5468
~18	-11.5468
法具	-11.5468
の制定	-11.547
で書かれた	-11.5471
移住	-11.5473
企画展	-11.5478
▁1952	-11.5481
が進んだ	-11.5486
江戸時代前期の	-11.5486
意見もある	-11.5486
」)、「	-11.5494
も可能である	-11.5495
一部には	-11.5495
加え	-11.5497
の寸法	-11.55
三尊	-11.55
.2	-11.5501
前面	-11.5502
の時期に	-11.5505
促	-11.551
わかっていない	-11.551
食材として	-11.551
通す	-11.5511
定食	-11.5511
日々	-11.5512
発酵させ	-11.5513
黒く	-11.5514
を合わせた	-11.5514
ショ	-11.5519
に掛ける	-11.5521
は一切	-11.5522
リスト	-11.5523
▁しかしその	-11.5524
を供する	-11.5525
享	-11.5527
選出	-11.5528
に置かれる	-11.553
つとめ	-11.5533
訪れた	-11.5536
一族の	-11.554
けば	-11.5549
悪霊	-11.555
朝廷に	-11.5553
尊崇	-11.5554
に於いては	-11.5556
両側	-11.5557
降り	-11.5561
綴	-11.5562
技術的	-11.5565
▁この点	-11.5571
(170	-11.5571
西本願寺の	-11.5573
上記のように	-11.5573
程度で	-11.5574
だま	-11.5575
微妙に	-11.5575
儒	-11.5576
大黒	-11.5576
五大	-11.5576
に変化	-11.5577
客人	-11.5577
の意義	-11.5578
うじ	-11.5582
フー	-11.5582
頃は	-11.5582
アク	-11.5586
徳川家康が	-11.5587
代官	-11.5587
震	-11.5589
かなりの	-11.559
モチーフ	-11.5591
西陣	-11.5593
館跡	-11.5595
妖	-11.5595
六段	-11.5596
大火	-11.5597
責任	-11.5598
が普及した	-11.5598
はっきりと	-11.5599
格闘技	-11.5599
白河天皇	-11.5601
を示している	-11.5603
最も重要な	-11.5605
数える	-11.5605
タワー	-11.5605
を整える	-11.5605
動か	-11.5606
久保	-11.5606
似た	-11.5607
論書	-11.5608
月頃	-11.5609
贈答	-11.5609
欄	-11.561
誇	-11.5611
ロール	-11.5612
壁には	-11.5613
下部に	-11.5618
稚	-11.5618
▁それに対し	-11.5619
えられた	-11.5621
殊	-11.5621
人にとって	-11.5622
謂	-11.5622
却	-11.5623
叩いて	-11.5623
慮	-11.5623
大陸から	-11.5623
亀岡	-11.5624
統率	-11.5624
鞍	-11.5624
の設立	-11.5624
駄菓子	-11.5624
誦	-11.5625
撤	-11.5625
捧げ	-11.5625
もてなす	-11.5625
新設	-11.5625
准	-11.5625
引き上げ	-11.5625
常陸	-11.5625
衾	-11.5625
十二神将	-11.5625
膨	-11.5626
誘	-11.5626
数寄	-11.5626
培	-11.5626
サントリー	-11.5626
八部衆	-11.5626
壽	-11.5626
適度な	-11.5626
大学別曹	-11.5626
甫	-11.5626
南都六宗	-11.5626
夢窓疎石	-11.5626
オリンピック	-11.5626
国税庁	-11.5626
寺請制度	-11.5626
鮓	-11.5626
葦	-11.5626
に基づいた	-11.5626
を思わせる	-11.5626
@	-11.5626
藤原行成	-11.5626
ウイスキー	-11.5626
唇	-11.5626
宏	-11.5626
後陽成天皇	-11.5626
竪穴式石室	-11.5626
篇	-11.5626
崖	-11.5626
厳密な	-11.5626
端午の節句	-11.5626
華麗な	-11.5626
循環	-11.5626
なくてはならない	-11.5626
に専念	-11.5626
冠婚葬祭	-11.5626
四天珠	-11.5626
居合道	-11.5626
老朽化	-11.5626
しゃぶしゃぶ	-11.5626
譚	-11.5626
ツッコミ	-11.5626
デジタル	-11.5626
バナナ	-11.5626
教行信証	-11.5626
エネルギー	-11.5626
増上寺	-11.5626
撓	-11.5626
本阿弥光悦	-11.5626
自販機	-11.5626
電子レンジ	-11.5626
ストゥーパ	-11.5626
卑弥呼	-11.5626
叟	-11.5626
神社仏閣	-11.5626
俣	-11.5626
普茶料理	-11.5626
大切な	-11.5626
青龍寺	-11.5626
を促す	-11.5626
を結んだ	-11.5626
ニューヨーク	-11.5626
ヤマザクラ	-11.5626
大将	-11.5626
蘆	-11.5626
から灌頂を受けた	-11.5626
衝撃	-11.5626
善行	-11.5626
▁開館時間	-11.5626
を好んだ	-11.5626
取り除き	-11.5626
手間がかかる	-11.5626
を巡って	-11.5627
四畳半	-11.5627
家督相続	-11.5627
インドネシア	-11.5627
淀古城	-11.5627
たびたび	-11.5627
微生物	-11.5627
讃嘆	-11.5627
僧尼令	-11.5627
未詳	-11.5627
に代わる	-11.5627
勿論	-11.5627
宣教師	-11.5627
▁休館日	-11.5627
比丘尼	-11.5627
にちなみ	-11.5627
吾妻	-11.5627
に従事	-11.5627
美術工芸品	-11.5627
を調節	-11.5627
圧迫	-11.5627
テンポ	-11.5627
天智天皇	-11.5627
に着手	-11.5627
ばかりでなく	-11.5627
を必要とする	-11.5628
開眼供養	-11.5628
国会図書館	-11.5628
仕上がり	-11.5628
余裕	-11.5628
ga	-11.5628
要塞	-11.5628
に従う	-11.5628
として名高い	-11.5628
から成る	-11.5628
短縮	-11.5628
を除いた	-11.5628
立命館大学	-11.5628
庁舎	-11.5628
鏑	-11.5628
終わって	-11.5628
財務	-11.5628
展望	-11.5628
紫蘇	-11.5628
芝居茶屋	-11.5628
貝殻	-11.5629
煎餅	-11.5629
威儀	-11.5629
を誇る	-11.5629
昇進	-11.5629
酢の物	-11.5629
鴨居	-11.5629
上方落語協会	-11.5629
迷信	-11.5629
千宗旦	-11.5629
フルーツ	-11.5629
秘抄	-11.5629
渋谷	-11.5629
勅使	-11.5629
七夕まつり	-11.5629
ドラマ	-11.563
やわらか	-11.563
飲んだ	-11.563
ピンク	-11.563
浄益	-11.563
放生会	-11.563
を用意する	-11.563
銀閣寺	-11.563
改変	-11.5631
勝敗	-11.5631
炭素	-11.5631
柚子	-11.5631
徹底的に	-11.5631
男児	-11.5631
開口部	-11.5631
適量	-11.5631
情景	-11.5632
家畜	-11.5632
騎馬	-11.5632
争う	-11.5632
北大路	-11.5632
御神体	-11.5633
髪飾り	-11.5633
勝浦	-11.5633
ホン	-11.5633
接客	-11.5633
諸外国	-11.5633
の中核	-11.5633
要望	-11.5634
を経由して	-11.5634
収録されている	-11.5634
花園天皇	-11.5634
予め	-11.5634
拝観	-11.5634
CM	-11.5635
んぴ	-11.5635
指示	-11.5635
因縁	-11.5635
少なかった	-11.5635
帯締め	-11.5635
生没年	-11.5636
宝亀	-11.5636
早朝	-11.5636
秘蔵	-11.5636
漁業	-11.5636
禅宗様	-11.5636
に描かれている	-11.5636
100%	-11.5636
酔い	-11.5637
皮革	-11.5637
することとなった	-11.5637
垂らし	-11.5637
リンク	-11.5637
淡口	-11.5637
絵詞	-11.5638
青柳	-11.5638
奥州	-11.5638
加工食品	-11.5638
蹴上	-11.5638
鳥取	-11.5639
安土城	-11.5639
義仲	-11.5639
狭義では	-11.5639
辞書	-11.564
法嗣	-11.564
調弦法	-11.564
冊子	-11.5641
よく使われる	-11.5641
の一尊	-11.5642
として使われた	-11.5642
細長く	-11.5642
宇治川	-11.5642
冬場	-11.5643
台風	-11.5643
法華堂	-11.5643
武蔵	-11.5644
外観は	-11.5644
採り入れ	-11.5644
信州	-11.5644
かがみ	-11.5644
臂像	-11.5645
宣言	-11.5645
よく知られている	-11.5646
漁師	-11.5646
露天	-11.5647
柳川	-11.5647
新築	-11.5649
異義	-11.5649
甲類	-11.5649
生徒	-11.5649
湯治	-11.5649
を合わせる	-11.565
扱っている	-11.565
他界	-11.565
の良さ	-11.565
安居	-11.565
をあけ	-11.5651
生存	-11.5652
幅広く	-11.5652
が設置されている	-11.5652
に建設された	-11.5653
に似る	-11.5653
連れ	-11.5653
から始まる	-11.5654
に分かれて	-11.5654
福島	-11.5654
に求める	-11.5654
れき	-11.5655
実質	-11.5655
漢語	-11.5656
co	-11.5657
号系統	-11.5658
発表された	-11.5658
に対しても	-11.5659
時衆	-11.5659
湯葉	-11.566
君主	-11.566
阿部	-11.566
座席	-11.566
太平	-11.566
経書	-11.566
-15	-11.5661
びと	-11.5661
柳生	-11.5662
ろうとした	-11.5663
鎌倉時代末期	-11.5664
入っていない	-11.5665
加行	-11.5665
うけ	-11.5666
公伝	-11.5667
日本には	-11.5667
衣類	-11.5668
に限り	-11.5669
を用いることもある	-11.5669
加えられ	-11.567
くくり	-11.5671
授けた	-11.5671
加工品	-11.5671
解消	-11.5672
1898	-11.5673
1897	-11.5674
異性	-11.5674
山芋	-11.5674
▁しかも	-11.5675
を積極的に	-11.5675
内閣	-11.5676
関西館	-11.5676
があったこと	-11.5676
貫通	-11.5676
天然の	-11.5679
の一角	-11.5679
諸白	-11.568
酒の肴	-11.5681
入定	-11.5681
死体	-11.5681
そのように	-11.5681
をつけたもの	-11.5684
に入っている	-11.5685
西塔	-11.5686
尊氏	-11.5686
岩石	-11.5687
労働者	-11.5687
減り	-11.5688
家庭用	-11.5689
に応じた	-11.5689
難い	-11.5689
習慣がある	-11.5691
古いもの	-11.5692
四男	-11.5692
1917	-11.5693
と信じられ	-11.5693
入場	-11.5696
古刀	-11.5696
楼門	-11.5697
1919	-11.5697
易く	-11.5698
白味噌	-11.5699
極端に	-11.5699
現場	-11.57
武力	-11.57
発布	-11.5702
ふき	-11.5705
おくと	-11.5705
▁室町時代には	-11.5706
しごと	-11.5706
皇室の	-11.5707
土台	-11.5707
同社	-11.571
の場として	-11.5712
▁これには	-11.5713
理事	-11.5714
意味を持つ	-11.5716
が敷かれ	-11.5717
と定めた	-11.5717
ana	-11.5718
隣接する	-11.572
南院	-11.5721
土産物	-11.5723
はあくまでも	-11.5724
一応	-11.5726
分館	-11.5727
長方形の	-11.573
とほぼ同	-11.573
が著しく	-11.573
の境地である	-11.5734
徳川家光	-11.5735
宗風	-11.5736
の味を	-11.5738
参拝者	-11.5738
くん	-11.574
1877	-11.574
を終えた	-11.5742
京都バス	-11.5743
多くの人	-11.5745
揚げた	-11.5746
沖縄の	-11.5746
身体の	-11.5753
and	-11.5753
先生	-11.5755
下野	-11.5755
は有名	-11.5759
があれば	-11.5759
を維持する	-11.5759
▁台	-11.576
京都大学	-11.576
という点で	-11.5761
ニア	-11.5761
経営者	-11.5762
それだけ	-11.5764
なるべく	-11.5764
酒場	-11.5764
ぼこ	-11.5765
法語	-11.5765
西日本では	-11.5765
ふし	-11.577
馬頭観音	-11.5771
を包む	-11.5772
法橋	-11.5774
されておらず	-11.5776
広義	-11.5776
河原町	-11.5779
が付いている	-11.5779
同時代の	-11.5779
作っている	-11.578
などといった	-11.5781
満月	-11.5783
主原料	-11.5783
をしており	-11.5784
一夜	-11.5784
が容易	-11.5786
て来た	-11.5791
野生	-11.5795
どのように	-11.5796
五時	-11.5797
越中	-11.5798
崩	-11.5799
白地	-11.58
同志社大学	-11.5802
1874	-11.5805
疑い	-11.5807
心得	-11.5809
生地で	-11.581
▁中には	-11.581
普通は	-11.5811
帰って	-11.5813
高価で	-11.5813
代表例	-11.5814
六方	-11.5815
を腰に	-11.5816
高く評価され	-11.5818
ラーメン店	-11.5818
から発展した	-11.5818
上段	-11.5819
安い	-11.582
▁築造時期	-11.5821
が描かれ	-11.5822
この時代の	-11.5823
訪れ	-11.5828
が舞う	-11.5828
障壁画	-11.5829
物品	-11.583
を当て	-11.5833
上座	-11.5833
王国	-11.5833
求められる	-11.5836
として使用される	-11.5836
タル	-11.5839
五分	-11.584
が入り	-11.5841
と見なされ	-11.5842
盛りつけ	-11.5842
から離れた	-11.5844
前夜	-11.5849
和服を着る	-11.5851
学説	-11.5851
伝法灌頂	-11.5853
の発掘調査	-11.5855
秀吉の	-11.5856
する前に	-11.5857
異なって	-11.5862
酒蔵が	-11.5867
こま	-11.5869
北米	-11.587
込んでいる	-11.5872
には多くの	-11.5873
口上	-11.5875
平安時代末期の	-11.5876
▁結局	-11.5878
が開かれ	-11.5878
が設置された	-11.5878
二次	-11.5881
松屋	-11.5882
大袖	-11.5882
一部で	-11.5884
根拠として	-11.5884
で造られた	-11.5887
等分	-11.5892
を揃え	-11.5893
日本国	-11.5896
が定着した	-11.5897
したことで	-11.5898
崩し	-11.59
▁もし	-11.5901
くつ	-11.5903
が早く	-11.5907
役割を	-11.5907
扱われ	-11.5909
足で	-11.5909
上演される	-11.5911
を用意し	-11.5911
聞く	-11.5912
らぬ	-11.5912
にとっても	-11.5918
同士の	-11.5919
なっており	-11.5923
密教を学び	-11.5928
をまとめて	-11.5928
確立された	-11.5928
説が有力	-11.593
が激しく	-11.5931
にあたっては	-11.5931
の語は	-11.5931
外れた	-11.5932
を乗せて	-11.5935
上座部仏教	-11.5935
人材	-11.594
僧籍	-11.5941
住み	-11.5943
ゆでた	-11.5944
砂糖など	-11.5946
もちろん	-11.5946
琳派	-11.5947
東京では	-11.595
世紀から	-11.5951
と表記される	-11.5951
1500	-11.5951
まで続いた	-11.5953
見分け	-11.5954
除く	-11.5954
の構造は	-11.5958
と同じである	-11.5958
の発掘	-11.5959
の太さ	-11.5959
里山の	-11.5963
の風景	-11.5966
に残っている	-11.5969
携	-11.597
両者は	-11.5973
練った	-11.598
挽き	-11.5982
を意識し	-11.5982
けつ	-11.5984
▁それらは	-11.5988
が書かれた	-11.5992
後ろに	-11.5992
を捨て	-11.5996
僧坊酒	-11.5998
鼓楼	-11.5999
対立する	-11.6001
に乗る	-11.6003
おし	-11.6003
いかん	-11.6005
十一面	-11.6005
が出てくる	-11.6005
庶	-11.6006
またはその	-11.6013
金色	-11.6015
白身	-11.602
を抑え	-11.6021
蒸して	-11.6026
鉄製の	-11.6028
入れられる	-11.6029
田郡	-11.6031
諸説あるが	-11.6033
ぐん	-11.6033
下巻	-11.6034
と習合し	-11.6035
が書かれている	-11.6036
伝わっ	-11.6038
洗練	-11.6039
その名残	-11.6039
麓の	-11.6045
▁男性用	-11.6047
のことを指し	-11.6048
に所属する	-11.6051
が主流であった	-11.6059
たき	-11.6062
水路	-11.6066
高橋	-11.6071
たりした	-11.6072
砂糖を加え	-11.6072
自由な	-11.6074
に広く	-11.6074
少なくなり	-11.6078
くなって	-11.6079
の危機	-11.608
江戸時代初期の	-11.608
いしょう	-11.6085
単位で	-11.6086
▁--	-11.6086
見ても	-11.609
引いた	-11.6093
上方歌舞伎	-11.6099
同時代	-11.61
師弟	-11.61
ることはなかった	-11.6104
貴族や	-11.6105
に強い	-11.6108
一般的であった	-11.6112
大人の	-11.6112
炭火	-11.6114
が好まれ	-11.6116
職人が	-11.612
アメリカで	-11.6121
かどうかは	-11.6124
を禁止し	-11.6126
仕事を	-11.6129
を定める	-11.613
曳き山	-11.6134
に応じ	-11.6135
としても有名	-11.614
段仕込み	-11.6144
患	-11.6145
が短く	-11.6145
という語は	-11.6149
も使用される	-11.615
得られる	-11.6152
当たる	-11.6152
トル	-11.6153
多く存在する	-11.6154
魚類	-11.6156
の仕方	-11.6156
恐	-11.6159
深め	-11.616
°	-11.6162
一般家庭	-11.6162
に伝来した	-11.6163
物事	-11.6166
示される	-11.6168
均	-11.6171
迷	-11.6171
になるため	-11.6171
進歩	-11.6172
摂関	-11.6173
アニメーション	-11.6173
柚	-11.6174
を書く	-11.6174
巳	-11.6174
フラ	-11.6175
二月堂	-11.6176
汲	-11.6176
矢を射る	-11.6177
櫃	-11.6177
繋	-11.6177
迹	-11.6178
憂	-11.6178
輪王寺	-11.6179
京都学生祭典	-11.6179
妨げ	-11.618
演奏者	-11.618
ぼろ	-11.618
▁ここから	-11.6181
大納言	-11.6181
シェ	-11.6181
困	-11.6181
分程度	-11.6181
胞	-11.6181
棲	-11.6181
惑	-11.6181
講道館	-11.6181
と伝えられ	-11.6181
ミュージアム	-11.6182
慎	-11.6182
チュー	-11.6182
佐々木	-11.6182
浄土に往生	-11.6182
備後国	-11.6182
跋	-11.6182
を安置し	-11.6182
後北条氏	-11.6182
峠	-11.6182
卍	-11.6182
痩	-11.6182
天平宝字	-11.6182
妙蓮寺	-11.6182
Z	-11.6182
委員長	-11.6182
カツレツ	-11.6182
ネットワーク	-11.6182
浙江省	-11.6182
頑	-11.6182
にちなんだ	-11.6182
叢	-11.6182
鼠	-11.6182
陪	-11.6182
▁紙本著色	-11.6182
ヒノキ	-11.6182
上円下方墳	-11.6182
自動販売機	-11.6182
逝去	-11.6182
一字金輪仏頂	-11.6182
分かっていない	-11.6182
応神天皇	-11.6182
竪	-11.6182
を挟んだ	-11.6182
ビニール	-11.6182
武徳殿	-11.6182
霧	-11.6182
の鳴き声	-11.6182
淸	-11.6182
関東大震災	-11.6182
険	-11.6182
を連想させる	-11.6182
ウンシュウミカン	-11.6182
興正寺	-11.6182
ウィスキー	-11.6182
伐採	-11.6182
恨	-11.6182
蘇我氏	-11.6182
身延山久遠寺	-11.6182
常行三昧	-11.6182
覚信尼	-11.6182
誡	-11.6182
馴染み	-11.6182
奈良県桜井市	-11.6182
如意宝珠	-11.6182
椎	-11.6182
侯	-11.6182
捕らえ	-11.6182
顕浄土真実教行証文類	-11.6182
パネル	-11.6182
毎週	-11.6182
本能寺	-11.6182
簡潔	-11.6182
尾上菊五郎	-11.6182
▁北大路通	-11.6182
国風文化	-11.6182
壱岐	-11.6182
鑑評会	-11.6182
武田信玄	-11.6182
円筒形	-11.6182
丁寧に	-11.6182
だるま	-11.6182
関ヶ原の戦い	-11.6182
光崎検校	-11.6182
重要伝統的建造物群保存地区	-11.6182
トゥ	-11.6182
忌避	-11.6182
とろみ	-11.6182
中村鴈治郎	-11.6182
倶楽部	-11.6182
実行委員会	-11.6182
道綽	-11.6182
討伐	-11.6182
スリランカ	-11.6182
トラブル	-11.6182
魔除け	-11.6182
はたらき	-11.6182
提携	-11.6182
予想	-11.6182
日本食レストラン	-11.6182
淡麗	-11.6182
堅帽子	-11.6182
少僧都	-11.6182
顕彰	-11.6183
埋納	-11.6183
甲賀	-11.6183
降伏	-11.6183
越中褌	-11.6183
立ち食い	-11.6183
精霊流し	-11.6183
フレット	-11.6183
泰範	-11.6183
少年少女	-11.6183
毬杖	-11.6183
▁本項では	-11.6183
多大な	-11.6183
規範	-11.6183
月光菩薩	-11.6183
証拠	-11.6183
アイヌ	-11.6183
加わった	-11.6183
したところ	-11.6183
ドーム	-11.6183
調理器具	-11.6183
と思う	-11.6184
フライパン	-11.6184
に限る	-11.6184
繋がる	-11.6184
石山本願寺	-11.6184
に至っている	-11.6184
を聞いた	-11.6184
を建立する	-11.6184
落雁	-11.6184
豪商	-11.6184
混在	-11.6184
数寄屋造り	-11.6184
納豆菌	-11.6184
を特徴とする	-11.6184
統計	-11.6184
十如是	-11.6184
ほどであった	-11.6184
洗浄	-11.6185
協議会	-11.6185
コンビ	-11.6185
九十九神	-11.6185
仁左衛門	-11.6185
槍術	-11.6185
低価格	-11.6185
干し柿	-11.6185
佐伯	-11.6185
が盛んになり	-11.6185
焼き討ち	-11.6185
尋ね	-11.6185
頭巾	-11.6185
元旦	-11.6185
弥生	-11.6185
洋装	-11.6185
稲荷寿司	-11.6186
祟り	-11.6186
権限	-11.6186
下野国	-11.6186
及んだ	-11.6187
十二支	-11.6187
三の丸	-11.6187
別途	-11.6187
開帳	-11.6187
洪水	-11.6187
指孔	-11.6188
陰陽道	-11.6188
腐造	-11.6188
効能	-11.6188
乙類	-11.6188
優勝	-11.6188
十王経	-11.6188
搗き	-11.6188
合議	-11.6188
競合	-11.6188
銅鏡	-11.6188
混和	-11.6188
遠忌	-11.6188
動乱	-11.6188
動員	-11.6189
母方の	-11.6189
東大寺別当	-11.6189
に似ていることから	-11.6189
こういう	-11.6189
鑑定	-11.6189
人気が高い	-11.6189
止観	-11.6189
との関連	-11.6189
遅い	-11.6189
洋館	-11.6189
四角い	-11.6189
世界各国	-11.6189
授業	-11.6189
歌舞伎舞踊	-11.6189
良忍	-11.6189
遊興	-11.6189
醍醐天皇	-11.6189
蹴り	-11.6189
と名付けられた	-11.6189
運動公園	-11.619
全国各地で	-11.619
稚魚	-11.619
弘治	-11.6191
順如	-11.6191
繊細な	-11.6191
例外的に	-11.6191
弟子珠	-11.6191
介入	-11.6191
温泉街	-11.6191
数多い	-11.6192
優先	-11.6192
公家社会	-11.6192
手拭	-11.6192
観世座	-11.6192
採光	-11.6192
天王寺	-11.6192
紙漉き	-11.6192
ほしい	-11.6193
ダシ	-11.6193
羽根	-11.6193
細川氏	-11.6193
和泉国	-11.6193
洋弓	-11.6193
南北朝	-11.6193
煮汁	-11.6194
アメリカの	-11.6194
宿坊	-11.6194
武器として	-11.6194
銅造	-11.6194
刻む	-11.6195
吉田重	-11.6195
を生かした	-11.6195
衣料	-11.6195
観賢	-11.6195
梵語	-11.6195
変質	-11.6195
替手	-11.6196
カキ	-11.6196
人気を博した	-11.6196
上映	-11.6196
挙げて	-11.6196
酒株	-11.6197
売り上げ	-11.6197
に由来している	-11.6197
米粒	-11.6197
吊り	-11.6197
青森	-11.6197
園芸	-11.6197
炒り	-11.6197
を塗った	-11.6198
破魔矢	-11.6198
葬祭	-11.6198
丹後国	-11.6198
ひとえ	-11.6198
隆盛を極め	-11.6199
髪型	-11.6199
形容	-11.62
問屋	-11.62
帖目	-11.62
分からない	-11.62
臭み	-11.6201
鈴木	-11.6201
信仰を集め	-11.6202
一乗院	-11.6202
物資	-11.6202
変革	-11.6202
エル	-11.6202
を祭る	-11.6203
東京本館	-11.6203
が許され	-11.6204
たまり	-11.6204
数え方	-11.6205
を守って	-11.6205
を建てて	-11.6205
裁判所	-11.6205
現代武道	-11.6205
を重んじる	-11.6205
盛んに行われた	-11.6206
浄土論	-11.6206
選手権大会	-11.6206
神聖な	-11.6206
救い	-11.6207
桂川	-11.6207
明治神宮	-11.6208
諸尊	-11.6208
判別	-11.6208
喜び	-11.6208
東山文化	-11.6208
平山城	-11.6209
共通点	-11.6209
縛り	-11.621
不退	-11.621
形を整え	-11.6211
残巻	-11.6211
春画	-11.6212
かぐら	-11.6212
修正	-11.6212
真珠	-11.6213
弁天	-11.6213
六祖	-11.6213
前方に	-11.6214
絵柄	-11.6214
なべ	-11.6214
させられた	-11.6214
方向性	-11.6216
1906	-11.6216
眺め	-11.6217
1926	-11.6217
江戸後期	-11.6217
を塗る	-11.6217
むね	-11.6218
穂先	-11.6218
守護神	-11.6219
固めた	-11.6219
の間隔	-11.6219
帰命	-11.6219
さとり	-11.6219
中国風の	-11.6221
全長約	-11.6221
記念物	-11.6221
を主張した	-11.6221
銅製	-11.6222
聖教	-11.6222
発射	-11.6223
一部地域	-11.6223
が導入され	-11.6223
楽箏	-11.6224
論語	-11.6224
天喜	-11.6224
松葉	-11.6224
多賀城	-11.6224
継承されている	-11.6225
1924	-11.6226
フォーク	-11.6226
生み出された	-11.6227
不明な	-11.6227
種字	-11.6228
という呼び方	-11.6229
証文	-11.6229
他所酒	-11.623
周文	-11.623
天慶	-11.623
登り	-11.6231
京野菜	-11.6231
微妙な	-11.6232
の一端	-11.6232
金春	-11.6236
磁器	-11.6237
1882	-11.6237
淡水	-11.6239
を祈願する	-11.624
天津	-11.624
本格	-11.6241
経覚	-11.6242
近代的な	-11.6242
西軍	-11.6244
動く	-11.6245
能化	-11.6246
絵図	-11.6246
月曜日	-11.6246
こね	-11.6246
外から	-11.6246
であったと考えられている	-11.6246
正徳	-11.6247
隣接	-11.6247
ゆば	-11.6248
に造られた	-11.6249
長保	-11.6249
建前	-11.6251
差異がある	-11.6251
(183	-11.6252
高知	-11.6253
印行	-11.6255
唐楽	-11.6255
定期	-11.6255
新宗教	-11.6258
に掛けて	-11.6258
芸系	-11.6261
表紙	-11.6261
北面	-11.6265
結び目	-11.6268
の所有	-11.6268
事によって	-11.627
があったという	-11.627
1913	-11.6271
大塚	-11.6274
危機	-11.6274
楽屋	-11.6274
が指摘されている	-11.6274
ho	-11.6275
確立した	-11.6276
ことが出来	-11.6276
他宗の	-11.6278
秋分	-11.628
ものとされている	-11.6283
三像	-11.6283
アルミ	-11.6284
ゆっくりと	-11.6288
江戸時代中期以降	-11.6289
法制	-11.6291
弓を引く	-11.6291
を詠んだ	-11.6291
1894	-11.6292
両派	-11.6292
を重ねる	-11.6292
ロウ	-11.6292
めば	-11.6293
宝生	-11.6293
(132	-11.6294
近的	-11.6296
青色	-11.63
高島	-11.6301
財団	-11.6302
の創始者	-11.6302
るべし	-11.6304
に成功	-11.6305
りき	-11.6305
鎌倉時代以降	-11.6305
に合う	-11.6306
ていたことが	-11.6307
周辺地域	-11.6308
場合もあった	-11.631
を混ぜた	-11.631
サゲ	-11.6312
挙げられる	-11.6315
前記	-11.6319
回す	-11.6319
万歳	-11.6322
決められた	-11.6323
やすくなる	-11.6324
を広め	-11.6325
二番	-11.6326
4.5	-11.6329
の手によって	-11.633
の中心となる	-11.6331
に戻って	-11.6332
を使ったもの	-11.6332
▁江戸時代に入ると	-11.6332
と主張し	-11.6333
うため	-11.6334
一念	-11.6334
ごろまで	-11.6335
ウシ	-11.6336
ちく	-11.6337
の外側に	-11.6338
尽き	-11.6339
五重	-11.6342
神前	-11.6343
ことが知られている	-11.6344
天正年間	-11.6345
興った	-11.6349
象徴的	-11.6349
食べる習慣がある	-11.6349
戦後に	-11.6352
たもと	-11.6354
を兼ねる	-11.6356
これより	-11.636
植えられ	-11.636
シャー	-11.636
350	-11.6361
持物	-11.6363
に詳しい	-11.6363
継承者	-11.6364
でなければ	-11.6365
の増加	-11.6366
青い	-11.6369
世紀頃に	-11.637
をつくり	-11.6371
曳山	-11.6373
▁室町時代の	-11.6374
シンプルな	-11.6383
が出された	-11.6383
▁今日の	-11.6383
ユリ	-11.6385
残っていた	-11.6385
を続けた	-11.6387
びら	-11.6389
南面	-11.6389
能面	-11.6391
いること	-11.6392
が起源である	-11.6398
禁止され	-11.64
功徳を	-11.6401
徳川家康は	-11.6404
田村	-11.6406
を目指した	-11.6407
払う	-11.6407
を中心にして	-11.6414
飲み物	-11.6418
酒の味	-11.6418
福知山市	-11.642
だいし	-11.6421
▁159	-11.6421
直火	-11.6422
~3	-11.6423
地頭	-11.6424
冷め	-11.6425
最後は	-11.6427
に変化した	-11.643
を履く	-11.6434
pe	-11.6436
をたて	-11.6437
越え	-11.6444
道中	-11.6444
名手	-11.6444
(114	-11.6445
の一部として	-11.645
をあらわし	-11.6452
など一部の	-11.6452
紀州藩	-11.6455
四季の	-11.6456
建てられている	-11.6456
記録がある	-11.6457
を行ったり	-11.646
を敷き	-11.6463
を定め	-11.6465
を招き	-11.6466
石仏	-11.647
を編纂	-11.6472
を好んで	-11.6473
アジ	-11.6474
割った	-11.6475
に始まり	-11.6476
地域差	-11.6477
復元天守	-11.6482
センス	-11.6485
il	-11.6488
保管する	-11.6489
売られ	-11.6489
に使用された	-11.649
▁それでも	-11.6495
を帯び	-11.6496
が考案した	-11.6497
の形状は	-11.6497
出家する	-11.6498
伝承され	-11.6499
明らかでない	-11.6499
異名	-11.6499
ぼく	-11.65
de	-11.65
を招く	-11.6503
住人	-11.6503
1942	-11.6504
四世	-11.6505
使用している	-11.6505
に伝わり	-11.6509
商品として	-11.6509
が開発され	-11.6512
下向	-11.6513
Sa	-11.6513
の形が	-11.6514
方法もある	-11.6517
最近の	-11.652
善人	-11.6522
多用	-11.6523
八幡市	-11.6523
が特徴である	-11.6524
名城	-11.6525
天上	-11.6525
難し	-11.6525
▁この時代の	-11.6525
解体され	-11.6528
しやすく	-11.6529
に対応し	-11.653
表れ	-11.6531
最初から	-11.6531
日本的な	-11.6533
享年	-11.6533
カス	-11.6536
削る	-11.6537
右手を	-11.6542
たあと	-11.6543
に向かい	-11.6547
食卓に	-11.6548
進んだ	-11.6548
始めて	-11.6552
で没した	-11.6553
神事として	-11.6554
師家	-11.6556
許可を得	-11.6561
詩文	-11.6565
らにより	-11.6566
実用性	-11.6569
排出	-11.657
だけでは	-11.6574
盛る	-11.6575
として扱われ	-11.6579
三重	-11.6582
を言い	-11.6582
ものだが	-11.6583
を学んで	-11.6589
天人	-11.6589
無上	-11.659
自体に	-11.6593
蓮如は	-11.6593
肉類	-11.6594
標準的な	-11.6598
だけでも	-11.6607
一説に	-11.6611
巻本	-11.6613
を長く	-11.6617
することもあった	-11.6621
学会	-11.6622
かち	-11.6624
はまったく	-11.6625
入って	-11.6627
」(『	-11.6628
醸造技術	-11.6629
を創建した	-11.6631
発見され	-11.6633
東側に	-11.6635
大きな特徴	-11.6638
を発する	-11.6639
遺跡から	-11.6645
一口	-11.6655
三人	-11.6657
を作ること	-11.6664
油で揚げた	-11.6664
で包んだ	-11.6664
ふぐの	-11.6665
曲である	-11.6669
ナガ	-11.6672
助け	-11.6673
が存在していた	-11.6676
精神的	-11.6677
を使わない	-11.6678
がないため	-11.668
山岳信仰	-11.6682
法事	-11.6682
を遂げた	-11.6682
が書かれ	-11.6685
宮中に	-11.6685
それらは	-11.6686
が少なくない	-11.67
初出	-11.6702
付けない	-11.6702
が使用されている	-11.6704
した際に	-11.6704
▁弓矢の	-11.6705
寺の住職	-11.6706
伏見城	-11.6707
ぐち	-11.6708
興した	-11.6709
で結ぶ	-11.671
国王	-11.671
装着	-11.6716
しめる	-11.6719
最高級	-11.6719
としての地位	-11.672
史書	-11.6722
1868	-11.6723
さんげ	-11.6724
生み出され	-11.6726
御本尊	-11.6726
職分家	-11.6726
正確	-11.6728
白酒	-11.6732
水面	-11.6733
濃口醤油	-11.6733
ォ	-11.6735
況	-11.6737
適切	-11.6737
(177	-11.6738
侵	-11.674
(79	-11.674
以外でも	-11.674
護持僧	-11.674
渉	-11.674
材料として	-11.6741
加熱して	-11.6742
が一番	-11.6743
自宅で	-11.6744
置かれる	-11.6747
同時期に	-11.6749
載せ	-11.675
狙	-11.6751
を講じ	-11.6751
権僧正	-11.6752
文化人	-11.6752
於	-11.6752
狩	-11.6754
単独	-11.6755
偶	-11.6758
~9	-11.676
が薄く	-11.676
無量光	-11.6761
の強さ	-11.6762
署	-11.6763
柔	-11.6763
搗	-11.6763
索	-11.6764
週	-11.6765
曽	-11.6765
八角	-11.6766
遁	-11.6767
収量	-11.6767
察	-11.6767
要法寺	-11.6767
伊予国	-11.6768
を払う	-11.6769
叉	-11.6769
亥	-11.6769
彰	-11.6769
を勧める	-11.6769
錬	-11.6769
佐久	-11.6769
歓	-11.6769
愛媛	-11.677
市川團十郎	-11.677
蚊	-11.677
平氏	-11.677
赦	-11.677
頌	-11.677
イスラム	-11.677
斯	-11.677
滓	-11.677
エドヒガン	-11.677
キムチ	-11.677
斧	-11.677
エジプト	-11.677
嘉禎	-11.677
を皮切りに	-11.677
總持寺	-11.677
辨	-11.677
集合住宅	-11.677
道頓堀	-11.677
坑	-11.677
神幸祭	-11.677
に於ける	-11.677
吉本興業	-11.677
曇	-11.677
高句麗	-11.677
天竜寺	-11.677
教相判釈	-11.677
ī	-11.677
稈	-11.677
御三階櫓	-11.677
蜀	-11.677
遊園地	-11.677
私のしごと館	-11.677
を持たず	-11.677
三杯酢	-11.677
上杉謙信	-11.677
縞	-11.677
鎮護国家	-11.677
長谷川	-11.677
展覧会	-11.677
無量寿経仏説無量寿経	-11.677
にちなむ	-11.677
レパートリー	-11.677
今出川校地	-11.677
八角墳	-11.677
藏	-11.677
と公称する	-11.677
ギリシャ	-11.677
京都市西京極総合運動公園	-11.677
斉明天皇	-11.677
まっすぐ	-11.677
オランダ	-11.677
村上源氏	-11.677
何度か	-11.677
椎茸	-11.677
発泡スチロール	-11.677
千秋楽	-11.677
裕福な	-11.677
スパイス	-11.677
普遍的	-11.677
三大秘法	-11.677
嘉納治五郎	-11.677
嘘	-11.677
涙	-11.677
覇	-11.677
ヵ	-11.677
淳和院	-11.677
と違って	-11.677
片栗粉	-11.677
琢	-11.677
コンベア	-11.677
に先立って	-11.677
山鉾巡行	-11.677
鯉幟	-11.677
デビュー	-11.677
五大明王	-11.677
検索	-11.677
と改名	-11.677
古義真言宗	-11.677
蚊帳	-11.677
足利将軍家	-11.677
緊急	-11.677
富樫	-11.6771
アカマツ	-11.6771
痕跡	-11.6771
昔ながらの	-11.6771
緊張	-11.6771
飼育	-11.6771
慶長の役	-11.6771
堤防	-11.6771
求肥	-11.6771
歳暮	-11.6771
を隠す	-11.6771
に置かれていた	-11.6771
一斉に	-11.6771
まちまち	-11.6771
燃焼	-11.6771
にとどま	-11.6771
第一旭	-11.6771
海水浴場	-11.6771
陸軍省	-11.6771
を生んだ	-11.6772
蓮淳	-11.6772
で囲まれ	-11.6772
テレビ番組	-11.6772
認証	-11.6772
希少	-11.6772
糠漬け	-11.6772
大手メーカー	-11.6772
海老芋	-11.6772
トンカツ	-11.6772
須磨	-11.6772
大蔵省	-11.6772
デパート	-11.6772
交替	-11.6772
候補	-11.6772
の日蓮宗の僧	-11.6772
課税	-11.6772
科挙	-11.6772
おいしい	-11.6773
桃太郎	-11.6773
糠床	-11.6773
戦災	-11.6773
文化遺産	-11.6773
水晶	-11.6773
御輿	-11.6773
寒冷	-11.6773
こってり系	-11.6773
TE	-11.6773
帷子	-11.6773
はあるものの	-11.6773
について述べる	-11.6773
吉凶	-11.6773
多摩	-11.6774
熊谷	-11.6774
示寂	-11.6774
霊廟	-11.6774
調伏	-11.6774
接近	-11.6774
食べられていた	-11.6774
遣戸	-11.6775
大黒天	-11.6775
回答	-11.6775
全面的に	-11.6775
高欄	-11.6775
動詞	-11.6775
かざり	-11.6775
地蔵盆	-11.6775
奥の院	-11.6775
かまど	-11.6775
修正会	-11.6775
を原料とする	-11.6775
開封	-11.6775
広沢	-11.6775
に与えた	-11.6775
寛仁	-11.6776
バター	-11.6776
歓喜天	-11.6776
承応	-11.6776
善知識	-11.6776
後鳥羽天皇	-11.6776
不振	-11.6776
承久	-11.6776
聖典	-11.6777
ヒモ	-11.6777
駿河国	-11.6777
煮込む	-11.6777
協同	-11.6777
移民	-11.6777
源氏香	-11.6777
河越	-11.6777
殺された	-11.6777
平たく	-11.6777
鰹木	-11.6777
嘉吉	-11.6777
失礼	-11.6778
既婚女性	-11.6778
とも言い	-11.6778
創造	-11.6778
温泉旅館	-11.6778
バック	-11.6778
ロード	-11.6779
拍手	-11.6779
のりば	-11.6779
保延	-11.678
輪郭線	-11.678
延慶	-11.678
ともいわれている	-11.678
延久	-11.678
持ち運び	-11.678
弁当箱	-11.678
偽書	-11.678
本当に	-11.678
覚恵	-11.678
偽経	-11.6781
任期	-11.6781
足利氏	-11.6781
機械弓	-11.6781
半熟	-11.6781
来迎院	-11.6781
泉質	-11.6782
自動	-11.6782
単語	-11.6782
松浦	-11.6783
弾丸	-11.6783
適用	-11.6783
台詞	-11.6783
三河国	-11.6783
京都サンガ	-11.6783
下記のように	-11.6783
絡み	-11.6783
鰻屋	-11.6784
労力	-11.6784
風炉	-11.6784
改定	-11.6784
特産品	-11.6784
併せ	-11.6784
無限	-11.6784
0.5	-11.6784
いかなる	-11.6785
生態	-11.6785
平仮名	-11.6786
売っている	-11.6786
を納めた	-11.6786
静岡市	-11.6786
有料	-11.6786
外回り	-11.6786
狭義には	-11.6787
益信	-11.6787
幕末まで	-11.6787
連ね	-11.6787
和装	-11.6787
ねばならない	-11.6788
国の史跡に指定されている	-11.6788
後白河天皇	-11.6788
を知り	-11.6788
織女	-11.6788
が小さく	-11.6788
天武	-11.6789
技芸	-11.6789
多目的	-11.6789
保全	-11.6789
出資	-11.6789
戦術	-11.6789
分かり	-11.6789
リス	-11.6791
を築いて	-11.6791
絵羽	-11.6791
正統な	-11.6791
揺ら	-11.6792
を帯びた	-11.6792
ルド	-11.6792
▁語源は	-11.6792
朝鮮語	-11.6792
利用できる	-11.6792
対馬	-11.6792
白虎	-11.6792
新規	-11.6793
入江	-11.6793
秋祭り	-11.6793
保ち	-11.6793
シラ	-11.6793
をベースに	-11.6793
京都タワー	-11.6794
車両	-11.6794
フナ	-11.6794
[...]
