<unk>	0
<s>	0
</s>	0
、	-3.01082
。	-3.30379
の	-3.32947
▁	-3.48406
)	-4.03221
(	-4.09177
は	-4.15034
が	-4.22997
を	-4.32679
に	-4.36942
年	-4.84876
」	-4.95039
で	-4.96076
と	-5.00247
「	-5.05451
・	-5.08923
や	-5.23906
である	-5.61049
も	-5.67251
から	-5.67505
し	-5.77268
として	-5.87879
日	-5.94788
した	-5.96058
月	-5.97375
する	-6.00959
など	-6.0367
た	-6.09132
には	-6.1383
では	-6.17131
という	-6.25803
る	-6.29184
』	-6.3007
2	-6.30313
1	-6.36521
▁また	-6.41426
3	-6.43838
て	-6.44019
大	-6.46235
な	-6.51884
して	-6.59462
り	-6.60008
その	-6.6072
『	-6.61585
か	-6.6984
山	-6.72142
い	-6.73528
寺	-6.75245
く	-6.7597
された	-6.76776
一	-6.78253
4	-6.78277
本	-6.79732
日本	-6.82542
市	-6.8354
法	-6.85534
がある	-6.87665
人	-6.87752
5	-6.88982
き	-6.93305
ている	-6.93921
中	-6.94224
-	-6.94655
上	-6.97948
などの	-6.9831
している	-6.99191
によって	-7.00157
物	-7.00381
とは	-7.01351
7	-7.04542
であった	-7.05182
三	-7.05906
家	-7.06226
される	-7.06275
水	-7.06682
6	-7.06765
もの	-7.12967
す	-7.13765
生	-7.14376
8	-7.1583
であり	-7.15935
ため	-7.16115
み	-7.16226
流	-7.16418
この	-7.18821
名	-7.18999
:	-7.1997
った	-7.20975
により	-7.21176
ら	-7.22287
より	-7.23212
お	-7.23633
神	-7.24215
、「	-7.24367
長	-7.24613
院	-7.26202
町	-7.26428
国	-7.27201
手	-7.27482
され	-7.28291
▁しかし	-7.28338
行	-7.29172
ス	-7.29862
10	-7.30733
下	-7.32481
石	-7.32513
されている	-7.32916
子	-7.32923
地	-7.32977
による	-7.33651
▁この	-7.34762
にも	-7.3582
う	-7.35904
9	-7.36083
▁「	-7.3748
って	-7.38821
つ	-7.38848
道	-7.39248
者	-7.39816
さ	-7.40992
分	-7.41194
城	-7.41981
まで	-7.42126
前	-7.42667
とされる	-7.42971
こ	-7.42989
事	-7.43108
▁-	-7.4348
木	-7.44194
会	-7.44624
文	-7.4607
的	-7.47135
後	-7.47384
書	-7.47427
ない	-7.48249
目	-7.48918
的な	-7.49759
田	-7.51342
高	-7.51659
天	-7.52188
元	-7.52512
性	-7.52592
と呼ばれる	-7.53579
小	-7.54019
部	-7.5448
へ	-7.54902
12	-7.5508
となった	-7.56301
酒	-7.56473
京都	-7.56661
所	-7.56729
とする	-7.56747
川	-7.57356
仏	-7.57384
代	-7.5743
じ	-7.57453
となる	-7.57892
でも	-7.5846
経	-7.59453
等	-7.60055
こと	-7.60087
において	-7.60289
新	-7.60822
白	-7.6114
出	-7.61317
通	-7.62258
内	-7.62365
見	-7.64149
門	-7.64216
屋	-7.6499
め	-7.65031
数	-7.65718
御	-7.66642
二	-7.67303
心	-7.67377
方	-7.67448
昭和	-7.67553
とも	-7.68801
明	-7.69302
西	-7.69594
正	-7.70922
また	-7.71288
宗	-7.72242
15	-7.72727
紙	-7.72964
平	-7.73063
時	-7.73293
形	-7.74135
茶	-7.74174
にある	-7.7424
東	-7.74635
色	-7.74966
重	-7.74994
料理	-7.74995
品	-7.75215
金	-7.75346
ま	-7.75481
像	-7.75674
19	-7.75778
ル	-7.76184
円	-7.76522
化	-7.7673
無	-7.76839
があり	-7.76897
南	-7.77428
面	-7.77817
」「	-7.77896
」(	-7.78457
ー	-7.78663
曲	-7.79238
世	-7.79393
▁なお	-7.79751
五	-7.79779
立	-7.79992
ていた	-7.80108
和	-7.81438
え	-7.82066
外	-7.82462
学	-7.83309
第	-7.83436
口	-7.83504
11	-7.83678
/	-7.839
巻	-7.83977
仏教	-7.84835
義	-7.85465
定	-7.85588
もある	-7.85864
花	-7.86275
四	-7.86416
m	-7.8643
野	-7.86763
宮	-7.86839
または	-7.87
いた	-7.87487
約	-7.87661
座	-7.87773
不	-7.88766
教	-7.89136
場	-7.89863
神社	-7.9025
ある	-7.90326
む	-7.90655
▁『	-7.90997
~	-7.91101
間	-7.91173
け	-7.91292
用	-7.9158
力	-7.91918
安	-7.9258
風	-7.92777
点	-7.92837
体	-7.9286
楽	-7.93179
ず	-7.93496
ア	-7.9352
説	-7.93618
明治	-7.9393
店	-7.94357
20	-7.94492
▁その	-7.94812
派	-7.94905
れ	-7.95783
堂	-7.96155
だ	-7.96196
文化	-7.96218
中国	-7.9632
回	-7.96441
火	-7.96536
主	-7.96743
同	-7.9696
元年	-7.97184
ち	-7.97713
的に	-7.97804
における	-7.9782
日本の	-7.97844
北	-7.97898
式	-7.98011
への	-7.98086
旧暦	-7.98123
光	-7.98326
合	-7.98338
あ	-7.98508
入	-7.98793
信	-7.99736
食	-7.999
号	-7.999
原	-7.99908
ク	-8.00207
ことから	-8.00365
ものである	-8.00419
八	-8.00605
師	-8.00853
米	-8.00977
歌	-8.01628
度	-8.01663
蔵	-8.02286
女	-8.02649
例	-8.03637
身	-8.03837
能	-8.03979
古	-8.03992
頭	-8.04459
島	-8.04754
語	-8.05202
作	-8.05233
ラ	-8.05366
海	-8.05498
類	-8.0588
成	-8.06408
リ	-8.06483
村	-8.06591
していた	-8.06645
特に	-8.07482
わ	-8.07518
イ	-8.07558
祭	-8.08062
音	-8.08437
寺院	-8.08482
館	-8.08649
種	-8.08795
年に	-8.08855
16	-8.09037
ように	-8.0914
記	-8.09305
▁これは	-8.09357
集	-8.10023
土	-8.10059
のように	-8.10306
カ	-8.10871
)」	-8.11078
13	-8.11157
られた	-8.11178
氏	-8.12145
論	-8.12393
伝	-8.12447
実	-8.12621
王	-8.13504
僧	-8.13518
ひ	-8.14163
真	-8.14338
後に	-8.14343
)-	-8.14511
ト	-8.14859
多	-8.15133
絵	-8.152
ぎ	-8.15209
18	-8.15308
となっている	-8.15328
着	-8.15389
竹	-8.16189
味	-8.16401
位	-8.16473
タ	-8.16852
節	-8.17123
造	-8.17277
になる	-8.17474
ば	-8.17573
相	-8.18003
先	-8.1807
有	-8.18125
シ	-8.19208
別	-8.1929
台	-8.1945
丸	-8.19495
松	-8.19607
られる	-8.20078
香	-8.20352
図	-8.20435
現在の	-8.20873
などで	-8.21004
、『	-8.21026
あるいは	-8.21088
七	-8.21504
気	-8.21936
については	-8.22265
観	-8.22973
型	-8.23811
ぶ	-8.23908
現	-8.24142
となり	-8.24306
っている	-8.24702
とともに	-8.24723
衣	-8.24984
14	-8.25012
と呼ぶ	-8.25203
徳	-8.26099
清	-8.26141
線	-8.26282
焼き	-8.26296
橋	-8.26327
室	-8.26407
のみ	-8.2643
宝	-8.26493
板	-8.26729
多くの	-8.27189
葉	-8.27285
直	-8.27445
▁その後	-8.27464
▁ただし	-8.27682
京	-8.27694
時代	-8.27837
とした	-8.2788
ほど	-8.27921
ではなく	-8.28186
ふ	-8.28479
各	-8.28747
系	-8.28897
半	-8.29065
があった	-8.29187
六	-8.29253
ことが	-8.29381
場合	-8.29461
量	-8.30158
などを	-8.30599
コ	-8.30664
ており	-8.30772
なかった	-8.30773
っ	-8.30867
朝	-8.30911
画	-8.30968
湯	-8.31017
源	-8.31232
旧	-8.31396
ン	-8.31485
ご	-8.31533
字	-8.31731
としては	-8.32103
キ	-8.32605
発	-8.32796
万	-8.32844
び	-8.33489
マ	-8.33638
十	-8.33718
よう	-8.33874
ナ	-8.34059
黒	-8.34085
ド	-8.34654
地域	-8.34699
弓	-8.34999
17	-8.3509
.	-8.35181
官	-8.35678
ために	-8.35789
初	-8.36076
を持つ	-8.36655
公	-8.36971
といった	-8.37082
帯	-8.37136
玉	-8.37208
ど	-8.37517
唐	-8.37619
段	-8.37763
菩薩	-8.38016
覚	-8.38034
地方	-8.38147
フ	-8.38191
られ	-8.38206
建築	-8.3859
郡	-8.38893
業	-8.38912
ること	-8.38914
自	-8.38958
なり	-8.39
それ	-8.39076
表	-8.39191
取り	-8.39293
しょう	-8.39745
じょう	-8.39913
ッ	-8.40167
だった	-8.40451
さらに	-8.40582
になった	-8.40739
cm	-8.40753
切り	-8.4086
などが	-8.40995
布	-8.41304
醤油	-8.41384
次	-8.41409
馬	-8.41833
刀	-8.41842
そ	-8.41861
役	-8.41884
んだ	-8.41926
においては	-8.42064
げ	-8.42484
足	-8.4249
舞	-8.42831
ことが多い	-8.4306
うどん	-8.43084
為	-8.43666
々	-8.43984
草	-8.44033
開	-8.44148
メートル	-8.44257
ノ	-8.44485
代目	-8.44618
肉	-8.44945
30	-8.455
矢	-8.45968
空	-8.45997
社	-8.46177
餅	-8.46338
治	-8.46527
塩	-8.46671
春	-8.46919
船	-8.46921
いる	-8.46988
に対して	-8.4699
千	-8.46999
殿	-8.47008
ね	-8.47202
江戸	-8.47313
が多い	-8.47416
古墳	-8.47449
魚	-8.47552
のこと	-8.47657
だけ	-8.4766
を行う	-8.47793
ながら	-8.47808
ウ	-8.47837
諸	-8.4807
聖	-8.48088
具	-8.48252
戦	-8.48803
▁そのため	-8.48822
チ	-8.48865
,	-8.49145
オ	-8.49214
話	-8.49247
今	-8.49347
などに	-8.49546
現在	-8.49622
とされている	-8.4977
幅	-8.4978
期	-8.49852
東京	-8.50031
戸	-8.50043
のような	-8.5007
青	-8.50175
ぐ	-8.50517
筆	-8.50634
流派	-8.50657
禅	-8.50844
霊	-8.5105
を指す	-8.51198
世界	-8.52027
蕎麦	-8.52712
広	-8.52806
尊	-8.52829
だが	-8.5321
それぞれ	-8.53249
来	-8.53325
年代	-8.53435
ロ	-8.53484
他の	-8.53625
飯	-8.53648
そう	-8.54251
福	-8.54258
について	-8.54384
以降	-8.5459
できる	-8.54754
ニ	-8.55088
吉	-8.55344
鬼	-8.55431
これを	-8.5544
善	-8.55629
保	-8.55744
せ	-8.55791
天皇	-8.56121
技術	-8.56292
京都府	-8.56776
にかけて	-8.56855
すると	-8.57359
天守	-8.57366
当	-8.5742
跡	-8.57504
輪	-8.57551
達	-8.57656
製	-8.57724
死	-8.57994
塔	-8.58042
施設	-8.5808
両	-8.58117
レ	-8.58258
芸	-8.58258
理	-8.58286
そば	-8.58431
常	-8.58435
井	-8.58544
付	-8.58562
こう	-8.58853
客	-8.59154
産	-8.59293
ツ	-8.59298
永	-8.59316
美	-8.59497
ところ	-8.59509
根	-8.59523
信仰	-8.59591
角	-8.59977
夜	-8.60121
藤	-8.60199
』(	-8.60299
之	-8.60312
としての	-8.60349
られている	-8.60416
よく	-8.607
付け	-8.60946
射	-8.61003
赤	-8.61008
よ	-8.61184
さん	-8.61289
大学	-8.6168
日本酒	-8.61744
ような	-8.61779
時間	-8.61896
区	-8.61965
ようになった	-8.6205
したもの	-8.62261
祭り	-8.62499
すること	-8.6274
全	-8.62873
場合もある	-8.62899
部分	-8.62906
密教	-8.62945
親	-8.63037
かん	-8.63391
取	-8.63578
縁	-8.63703
持	-8.63713
界	-8.63773
ミ	-8.63947
念	-8.63964
柱	-8.64084
法華経	-8.64194
指	-8.64202
サ	-8.64283
あり	-8.64368
なる	-8.64504
国宝	-8.64526
こともある	-8.64531
様	-8.64534
結	-8.64538
関係	-8.64597
歳	-8.64672
日に	-8.64831
左	-8.64886
ム	-8.64909
駅	-8.64926
表現	-8.64928
太	-8.64968
調	-8.65151
活動	-8.65219
21	-8.65353
及び	-8.65491
指定	-8.65833
メ	-8.65993
政	-8.66303
以上	-8.66316
女性	-8.66361
楽器	-8.66405
総	-8.66492
勝	-8.66595
武	-8.66774
智	-8.66806
意	-8.66825
場所	-8.6685
器	-8.67077
階	-8.67183
雲	-8.67294
久	-8.67319
格	-8.6745
制	-8.67452
如	-8.67975
州	-8.68109
であるが	-8.68337
a	-8.68463
方法	-8.68593
使用	-8.68694
車	-8.68805
寿司	-8.68983
」、「	-8.69071
念仏	-8.6908
軍	-8.6916
壁	-8.69233
同じ	-8.69274
他	-8.69517
応	-8.69621
横	-8.69789
これ	-8.69934
席	-8.70017
質	-8.70157
といわれる	-8.70291
のうち	-8.70301
平成	-8.70384
どう	-8.70393
その後	-8.7046
知	-8.70733
妙	-8.70914
および	-8.70929
を用いる	-8.71028
のある	-8.71095
林	-8.71194
大きな	-8.71237
25	-8.71247
ではない	-8.71255
職	-8.71354
端	-8.71615
を中心に	-8.71933
ん	-8.72073
基	-8.72077
要	-8.72316
異	-8.72489
人の	-8.72599
ジ	-8.72641
池	-8.72691
いて	-8.72714
首	-8.72776
されていた	-8.72779
バ	-8.728
遠	-8.72981
服	-8.73047
音楽	-8.73054
の一つ	-8.73307
もので	-8.73366
良	-8.73406
C	-8.73473
主に	-8.73512
藩	-8.73806
華	-8.73893
右	-8.73896
当時の	-8.73912
切	-8.7403
鉄	-8.74167
権	-8.74196
よりも	-8.74262
男	-8.74304
▁大	-8.74406
京都市	-8.7444
年間	-8.74535
状態	-8.74605
墨	-8.74632
庭	-8.74782
房	-8.74883
宗教	-8.74997
津	-8.75015
資料	-8.75119
末	-8.75149
機	-8.75222
100	-8.75268
鳥	-8.75372
様々な	-8.76184
修行	-8.7628
ざ	-8.7642
谷	-8.76443
暦	-8.7651
利	-8.76622
▁そして	-8.7669
都	-8.76716
動	-8.76882
エ	-8.76895
グ	-8.77001
桜	-8.77231
自然	-8.77289
修	-8.77581
本尊	-8.77708
たもの	-8.77848
ことを	-8.77852
温泉	-8.77926
黄	-8.77946
浄土	-8.78059
父	-8.7806
ケ	-8.78207
経典	-8.78228
園	-8.78283
何	-8.78337
悪	-8.7834
煮	-8.78358
関	-8.78452
食品	-8.78675
豊	-8.78728
紋	-8.78896
しない	-8.7896
▁現在	-8.79073
興	-8.79086
庭園	-8.79239
礼	-8.79268
▁特に	-8.79308
訳	-8.79324
尾	-8.79331
にて	-8.79435
引	-8.79439
慶	-8.79464
80	-8.79546
ほう	-8.7968
ともいう	-8.79702
延	-8.79803
組	-8.79814
願	-8.79911
住	-8.80027
生活	-8.80711
技	-8.80721
頃	-8.80767
u	-8.81024
ものは	-8.81119
向	-8.81248
全国	-8.81418
モ	-8.8171
近	-8.8185
これは	-8.81935
粉	-8.82122
宿	-8.82157
保存	-8.82163
ことがある	-8.82226
食べる	-8.82399
等の	-8.82619
造り	-8.82763
層	-8.8296
製造	-8.83069
べ	-8.83295
広く	-8.83314
ブ	-8.83418
i	-8.8348
連	-8.83489
場合は	-8.83508
宗派	-8.83514
岩	-8.83735
ゆ	-8.83788
印	-8.83807
...	-8.83835
e	-8.83854
作品	-8.84024
形式	-8.84126
命	-8.84197
しん	-8.84241
言	-8.84346
ビ	-8.84427
称	-8.84457
が多く	-8.84594
愛	-8.84644
ハ	-8.84798
卵	-8.84825
の上に	-8.84853
なく	-8.85002
▁京都	-8.85246
とし	-8.85318
歌舞伎	-8.85331
行事	-8.85471
藤原	-8.85699
▁さらに	-8.85984
24	-8.86017
28	-8.86339
略	-8.86359
対	-8.86572
加	-8.86585
奈良	-8.86619
研究	-8.86773
落	-8.86789
転	-8.86807
仁	-8.87173
人が	-8.87191
麺	-8.87239
ものを	-8.87339
させ	-8.87866
ろ	-8.87925
50	-8.87963
A	-8.87967
務	-8.88072
熱	-8.88087
割	-8.88098
側	-8.88185
と共に	-8.88206
塚	-8.88248
22	-8.88508
秋	-8.88738
龍	-8.88924
柄	-8.88925
ことで	-8.88957
の中に	-8.89059
されて	-8.89326
んで	-8.89327
もしくは	-8.89641
素	-8.89692
岡	-8.89702
守	-8.89893
いわゆる	-8.89975
程度	-8.90054
構造	-8.90245
得	-8.90277
になっている	-8.90378
鎌倉時代	-8.90409
番	-8.9041
分類	-8.90725
太鼓	-8.90734
テ	-8.90746
骨	-8.9098
斎	-8.9127
製法	-8.91328
社会	-8.91329
茶道	-8.91484
しており	-8.91928
床	-8.91956
以外の	-8.92126
盛	-8.92393
百	-8.92664
進	-8.92666
庵	-8.92685
梅	-8.92695
に対する	-8.92727
たい	-8.92842
の中で	-8.92885
と考えられている	-8.92923
奥	-8.93039
用の	-8.93329
乗	-8.93461
打ち	-8.93562
世紀	-8.93582
江戸時代	-8.93612
と言う	-8.93649
在	-8.93685
大阪	-8.93821
とされ	-8.9384
密	-8.94234
ことは	-8.94364
などがある	-8.94516
ぼ	-8.94542
当時	-8.9482
感	-8.95065
儀式	-8.95457
沢	-8.95471
菓子	-8.95509
史	-8.95552
九	-8.95588
揚げ	-8.95699
時に	-8.95749
人物	-8.95965
と考えられる	-8.96458
焼	-8.96517
条	-8.96796
売	-8.96844
笛	-8.9695
t	-8.96987
える	-8.97054
術	-8.97179
ガ	-8.97229
解	-8.97347
ものが	-8.97352
→	-8.97485
任	-8.97593
声	-8.9764
以後	-8.97663
味噌	-8.97701
皮	-8.97835
おり	-8.97856
27	-8.97898
23	-8.97935
油	-8.98056
家の	-8.98061
袋	-8.98069
浄土真宗	-8.98073
っていた	-8.98124
飾り	-8.98146
箏	-8.98151
母	-8.9825
僧侶	-8.98601
忠	-8.98672
豆腐	-8.99185
示	-8.99199
崎	-8.99329
大きく	-8.99453
若	-8.99496
原料	-8.99579
思想	-8.99678
のために	-8.99764
公園	-8.99952
路	-8.9996
個	-8.9997
建物	-9.00025
糸	-9.00038
阿	-9.00262
腰	-9.00305
制度	-9.00369
反	-9.00375
になると	-9.00403
にあった	-9.00439
問題	-9.0053
証	-9.00609
江	-9.00646
版	-9.008
のもの	-9.0087
勢	-9.00901
後の	-9.01009
のため	-9.0128
完成	-9.01359
言葉	-9.01362
放	-9.01391
記録	-9.0158
退	-9.0177
中に	-9.0177
雪	-9.01779
引き	-9.01944
ると	-9.02009
販売	-9.02023
時期	-9.02036
最も	-9.02152
変	-9.02494
▁日本	-9.02527
に関する	-9.02593
ダ	-9.02601
利用	-9.02679
一般	-9.02801
醸造	-9.0285
40	-9.0285
になって	-9.02891
雑	-9.02945
だい	-9.03012
の大	-9.03015
生産	-9.03077
の場合	-9.03095
しゅ	-9.03142
o	-9.03213
ヤ	-9.03345
景	-9.03499
周	-9.03588
薬	-9.03627
羽	-9.03688
姿	-9.03718
日蓮	-9.03735
としている	-9.03812
ほか	-9.03844
平安時代	-9.03995
佐	-9.04121
様式	-9.04228
とう	-9.04293
管	-9.04329
河	-9.04568
させる	-9.04611
章	-9.04941
たり	-9.05085
しか	-9.05102
者が	-9.05324
好	-9.05628
の間	-9.05628
配	-9.05683
供養	-9.05707
民	-9.05734
前に	-9.05764
居	-9.05855
れる	-9.05882
パ	-9.0589
真言宗	-9.0593
片	-9.06061
出し	-9.06069
ほとんど	-9.06103
ズ	-9.06176
通り	-9.06253
遊	-9.06286
意味	-9.06354
難	-9.06359
汁	-9.06524
開発	-9.06586
現在では	-9.06623
現代	-9.06715
入り	-9.06871
ット	-9.06966
しい	-9.07033
裏	-9.07075
講	-9.07165
越	-9.07247
なら	-9.07278
調査	-9.07294
S	-9.073
増	-9.07309
本願寺	-9.07381
単	-9.0753
てきた	-9.07569
極	-9.07634
60	-9.07674
銘	-9.07689
管理	-9.07721
周辺	-9.07933
満	-9.0797
一部	-9.08004
人気	-9.08042
棟	-9.08102
それを	-9.08128
扇	-9.08426
29	-9.08443
順	-9.08484
持ち	-9.08546
せん	-9.08556
特	-9.08568
級	-9.08813
寸	-9.0891
遺跡	-9.08956
建設	-9.09027
伝承	-9.09289
結果	-9.09303
と同じ	-9.09494
令	-9.09606
樹	-9.09648
弁当	-9.09746
釈迦	-9.09813
天台宗	-9.10022
ものもある	-9.10029
道具	-9.10072
を受け	-9.10221
泉	-9.10226
かった	-9.10374
インド	-9.10424
多く	-9.10483
にして	-9.10779
と思われる	-9.10794
強	-9.10795
の一部	-9.10813
助	-9.10853
京都の	-9.10913
ヒ	-9.10976
曼荼羅	-9.10985
状	-9.10987
結び	-9.1105
尺	-9.11116
としても	-9.11173
ほ	-9.11174
袖	-9.11241
最	-9.1125
牛	-9.11335
長い	-9.11384
軒	-9.11405
渡	-9.1141
群	-9.11745
演奏	-9.11764
ボ	-9.11767
▁このため	-9.11774
喜	-9.11781
食事	-9.12236
初代	-9.12241
障子	-9.12261
弦	-9.12272
重要文化財	-9.12425
も多い	-9.12459
▁その他	-9.12466
日本では	-9.12488
祖	-9.12543
夏	-9.1262
とも呼ばれる	-9.12659
残	-9.1275
書き	-9.1276
毎年	-9.12883
26	-9.12899
坊	-9.12948
大正	-9.12953
のひとつ	-9.13028
雨	-9.13096
星	-9.13097
商品	-9.13168
里	-9.13334
苦	-9.13524
袴	-9.13524
武士	-9.13544
異なる	-9.13575
以下	-9.13697
恵	-9.13852
種類	-9.13926
▁日本では	-9.14104
張	-9.14126
剣	-9.14147
精	-9.14229
を用いた	-9.14231
させた	-9.14366
舞台	-9.14403
破	-9.14456
衆	-9.14492
員	-9.14635
三味線	-9.14772
富	-9.14792
▁昭和	-9.14792
穴	-9.14817
”	-9.14819
山城	-9.14903
内容	-9.14973
へと	-9.15067
頼	-9.15136
棒	-9.1524
出す	-9.15458
加工	-9.15555
ぬ	-9.15578
弘	-9.1563
柳	-9.15637
状に	-9.15708
砂糖	-9.15766
もあり	-9.15968
独特の	-9.16012
麹	-9.16075
毛	-9.16111
までは	-9.16127
禅宗	-9.16168
古くから	-9.16222
領	-9.16334
装	-9.16348
団体	-9.16356
の一種	-9.16576
交	-9.1658
寿	-9.16857
散	-9.169
賀	-9.16973
司	-9.16978
貞	-9.16978
畳	-9.1701
カレー	-9.17019
打	-9.17247
玄	-9.17291
運	-9.17295
病	-9.17355
める	-9.17386
枝	-9.17455
櫓	-9.17455
にあたる	-9.17457
解釈	-9.17462
形態	-9.17515
中の	-9.17521
一般的な	-9.17554
らず	-9.17584
になり	-9.17618
墓	-9.17726
士	-9.17769
歴史	-9.17811
=	-9.17853
易	-9.17895
鹿	-9.17901
建	-9.18066
特徴	-9.18081
と呼ばれ	-9.18088
選	-9.18173
際	-9.18235
志	-9.18306
関東	-9.18357
装束	-9.18381
着物	-9.18447
天皇の	-9.18713
菊	-9.18728
都市	-9.18958
差	-9.19149
ワ	-9.19196
でもある	-9.19433
上方	-9.19438
▁それ	-9.19625
教え	-9.19644
著	-9.19765
形状	-9.19783
武家	-9.1999
香り	-9.20076
関西	-9.20201
断	-9.20368
高い	-9.20438
ール	-9.20534
如来	-9.20638
本山	-9.20666
れば	-9.20858
薄	-9.20894
絹	-9.21046
図書館	-9.21077
朝廷	-9.21085
ていない	-9.21213
蓮	-9.21237
観音	-9.21377
れた	-9.21428
妻	-9.21528
急	-9.21545
そのまま	-9.21677
人形	-9.21685
兵	-9.21763
親鸞	-9.21952
支	-9.21956
月に	-9.2198
重要な	-9.22118
つの	-9.22143
調理	-9.22375
鏡	-9.22386
の意味	-9.22522
g	-9.22528
きょう	-9.22757
直接	-9.22786
必要	-9.22798
考え	-9.22864
構成	-9.22894
栽培	-9.22948
なった	-9.22956
神道	-9.23044
の名	-9.23054
納	-9.23094
料	-9.23125
日蓮宗	-9.23158
県	-9.23181
といい	-9.23296
現在は	-9.23487
武道	-9.2349
に近い	-9.23516
単に	-9.23523
折	-9.23601
を行った	-9.2365
%	-9.2378
ギ	-9.23858
▁日本の	-9.23883
店舗	-9.23894
住宅	-9.23899
組織	-9.23904
初めて	-9.23926
弟子	-9.24075
際に	-9.24103
深	-9.24131
かけ	-9.24316
地歌	-9.2441
新しい	-9.24433
上の	-9.24526
移	-9.24528
売り	-9.24571
によると	-9.24616
▁だが	-9.24619
句	-9.24819
札	-9.24849
学校	-9.24869
漫画	-9.24872
s	-9.24987
物語	-9.25007
立像	-9.25065
入れ	-9.25116
野菜	-9.25188
屋根	-9.25244
森	-9.25313
焼酎	-9.2533
東寺	-9.25342
作られた	-9.25553
科	-9.25603
変化	-9.25727
されており	-9.2574
使	-9.2579
内に	-9.25811
酢	-9.25911
酸	-9.25913
行われる	-9.25944
名称	-9.25967
背	-9.25988
よい	-9.26036
かい	-9.26049
戒	-9.26066
独自の	-9.26099
ネ	-9.2612
大和	-9.26178
比	-9.26273
大名	-9.26427
すでに	-9.26465
材	-9.26503
以上の	-9.26564
長さ	-9.26584
古い	-9.26674
一部の	-9.26766
M	-9.26783
伝統的な	-9.2681
したり	-9.26856
法要	-9.26968
弓道	-9.26995
生地	-9.27031
食べ	-9.27073
▁一方	-9.27171
紀	-9.27217
紐	-9.27276
B	-9.27277
中央	-9.27278
込み	-9.27288
を参照	-9.27571
紫	-9.27762
酵母	-9.27769
登録	-9.2777
和服	-9.27778
期間	-9.28008
品種	-9.28027
継	-9.28204
の一	-9.2821
綱	-9.28233
亀	-9.2824
細	-9.28244
我	-9.28263
東京都	-9.28281
出した	-9.28288
上げ	-9.28378
置	-9.28401
』『	-9.28438
ときに	-9.2844
状の	-9.28478
d	-9.28526
高さ	-9.28582
承	-9.28631
一般に	-9.28684
十二	-9.28789
ことも	-9.28861
なども	-9.2906
漬け	-9.29168
賞	-9.29247
顔	-9.29251
餡	-9.29261
古代	-9.29345
仏像	-9.29366
染	-9.29388
文字	-9.2944
鎌倉	-9.29505
羅	-9.29643
金剛	-9.29751
海苔	-9.29765
壁画	-9.29806
たち	-9.29906
没	-9.29975
ック	-9.30012
31	-9.30012
聞	-9.30031
絵画	-9.30052
製品	-9.30065
を受けた	-9.3008
の僧	-9.30109
第一	-9.30116
であったが	-9.30159
幸	-9.3018
奉	-9.30183
護	-9.30211
▁これらの	-9.30212
弁	-9.30216
甲	-9.30248
刃	-9.3027
事業	-9.3046
男性	-9.30644
のための	-9.3068
大師	-9.30689
0	-9.30708
するため	-9.30747
を使う	-9.30826
をする	-9.30844
衆生	-9.30869
とき	-9.30955
成分	-9.31019
寛	-9.31072
落語	-9.31139
プ	-9.31159
浄	-9.31218
次第に	-9.31241
東大寺	-9.31257
局	-9.31269
失	-9.31286
ソース	-9.31286
競技	-9.31317
あった	-9.31366
▁明治	-9.31458
豆	-9.31479
▁これ	-9.31588
習慣	-9.316
省	-9.31629
c	-9.31642
子供	-9.31676
用語	-9.31682
昆布	-9.31802
教育	-9.31814
作り	-9.31883
髪	-9.32068
浄土宗	-9.32082
合わせ	-9.321
倉	-9.32146
適	-9.32169
秀	-9.32181
弓矢	-9.32396
もん	-9.32662
養	-9.3267
帰	-9.32693
照	-9.32731
やすい	-9.32738
堀	-9.32781
鶴	-9.3281
P	-9.32834
九州	-9.32858
技法	-9.3286
形の	-9.32882
ポ	-9.33005
しく	-9.33085
すべて	-9.33115
刻	-9.33231
着用	-9.33237
仙	-9.33326
協会	-9.33519
顕	-9.33692
厳	-9.33814
さい	-9.3383
時代の	-9.33838
文献	-9.33843
を表す	-9.33884
伝説	-9.33893
さまざまな	-9.33927
を持ち	-9.33947
と言われる	-9.34006
▁これを	-9.34095
の影響	-9.34099
設置	-9.34214
掛け	-9.34427
植物	-9.34532
行う	-9.34627
しき	-9.34647
府	-9.34721
弟	-9.34811
公家	-9.34822
年には	-9.34825
できない	-9.34827
の際に	-9.34892
奏	-9.34909
と言われている	-9.34966
目的	-9.34983
少	-9.34992
リー	-9.35045
庶民	-9.35139
おお	-9.35194
▁現在では	-9.35196
積	-9.35216
装飾	-9.35291
酒造	-9.35335
ター	-9.35351
幕府	-9.35355
紅	-9.35389
菜	-9.35424
日本で	-9.35446
腹	-9.35448
(12	-9.35476
形で	-9.35574
らない	-9.35617
余	-9.35844
冷	-9.35862
波	-9.35967
一切	-9.35973
接	-9.36067
作業	-9.361
これらの	-9.36153
場合が多い	-9.36247
珠	-9.36321
国の	-9.36355
を作る	-9.36413
雄	-9.36458
計	-9.36461
兼	-9.36525
杜氏	-9.36537
調味料	-9.36541
出汁	-9.36625
あん	-9.3664
歳で	-9.36711
乱	-9.36765
スト	-9.36883
セ	-9.36967
隠	-9.3705
場合がある	-9.3711
悟り	-9.37154
内部	-9.37229
俗	-9.37238
げん	-9.3725
内の	-9.37255
法華	-9.37313
早	-9.37533
70	-9.37564
郷	-9.37584
おう	-9.37585
しゅう	-9.37587
存在	-9.37763
者の	-9.37808
供	-9.37846
つき	-9.37869
影響	-9.37936
老	-9.37941
後期	-9.37962
飛	-9.38057
往生	-9.38085
私	-9.38168
芸術	-9.38196
法然	-9.38239
冬	-9.38287
受け	-9.38317
作法	-9.38317
を経て	-9.38375
判	-9.38397
ほぼ	-9.38514
狂言	-9.38642
を用いて	-9.38643
筒	-9.38705
模様	-9.38731
素材	-9.38732
ザ	-9.38767
まる	-9.38956
神楽	-9.38974
戦後	-9.38995
国家	-9.39091
られていた	-9.39168
非	-9.39246
りゅう	-9.39269
受	-9.3928
住職	-9.39292
武術	-9.39295
コン	-9.39324
36	-9.39334
空海	-9.39389
やま	-9.39468
貴族	-9.39537
正月	-9.39561
天正	-9.39668
葬儀	-9.3983
工	-9.39904
つけ	-9.39928
制作	-9.39984
教団	-9.40167
とされた	-9.40197
表記	-9.40225
はその	-9.40252
がない	-9.40263
海外	-9.40282
においても	-9.40318
陽	-9.40358
▁第	-9.40363
伊勢	-9.4039
はない	-9.4045
(8	-9.40705
(13	-9.40737
の子	-9.40753
望	-9.40918
によれば	-9.40945
再	-9.40991
奈良県	-9.40995
系統	-9.41021
属	-9.41104
御所	-9.4115
文化財	-9.41178
分け	-9.41221
程	-9.41397
とある	-9.41413
処	-9.41426
ラーメン	-9.41438
地蔵	-9.41477
“	-9.4151
しばしば	-9.4151
継承	-9.4163
域	-9.41819
胡弓	-9.41842
息	-9.41858
ート	-9.41916
枚	-9.42012
陵	-9.4202
以下の	-9.42029
桂	-9.42078
ヨーロッパ	-9.42079
まつり	-9.42123
比較的	-9.42197
ようになる	-9.42252
辺	-9.42268
最澄	-9.42337
団	-9.42342
宗家	-9.42344
仕	-9.42431
防	-9.42458
漢	-9.42519
風習	-9.42536
鍋	-9.42554
脇	-9.42633
臨済宗	-9.42648
批判	-9.42649
中心	-9.42687
箏曲	-9.42714
からは	-9.42715
慶長	-9.42917
締め	-9.43002
ろう	-9.43031
(18	-9.43076
―	-9.43088
日本に	-9.43221
食材	-9.43277
も多く	-9.43296
などは	-9.43333
仏教の	-9.43511
となって	-9.43669
夫	-9.43855
機能	-9.43868
あまり	-9.43911
屋敷	-9.4394
視	-9.43988
者は	-9.43993
かた	-9.44076
もあった	-9.44097
注	-9.44103
温	-9.44177
眼	-9.44255
銭	-9.44309
ことも多い	-9.44337
評価	-9.44363
地区	-9.4437
上に	-9.44391
空間	-9.44557
日本人	-9.4457
』、『	-9.44584
巻き	-9.44628
ものと	-9.44713
を取り	-9.44763
ころ	-9.44794
近世	-9.44809
至	-9.4489
自ら	-9.44902
のことである	-9.4491
が見られる	-9.44914
k	-9.45008
▁概要	-9.45081
(10	-9.45119
寄	-9.45235
読み	-9.45276
備	-9.45308
ことになる	-9.45335
比叡山	-9.45373
康	-9.45384
報	-9.4548
寒	-9.45488
補	-9.45494
太郎	-9.45512
中国の	-9.45545
瓶	-9.45557
好み	-9.45672
箱	-9.45798
芸能	-9.45801
を使った	-9.45863
われ	-9.45996
しゃ	-9.46034
額	-9.46087
請	-9.46121
道場	-9.46124
褌	-9.46148
ウナギ	-9.46151
状況	-9.46151
集団	-9.46172
行為	-9.4623
会社	-9.46392
を見	-9.46458
洋	-9.465
指導	-9.46541
銅	-9.4658
壇	-9.4662
列	-9.46626
すなわち	-9.46629
隆	-9.46715
賢	-9.46741
O	-9.46744
発展	-9.46753
材料	-9.46767
伝来	-9.46871
家紋	-9.46912
ともに	-9.47028
p	-9.47035
前後	-9.47096
保護	-9.47103
効果	-9.47136
せい	-9.47155
てん	-9.47157
銀	-9.47215
独	-9.47265
丈	-9.47271
まず	-9.47289
友	-9.47301
除	-9.47305
ホ	-9.47306
脱	-9.47325
慧	-9.47326
荒	-9.47337
城郭	-9.47369
武器	-9.47381
の神	-9.47399
参	-9.47413
までの	-9.47575
良い	-9.47596
追	-9.47671
送	-9.47712
存	-9.47778
葬	-9.47862
ご飯	-9.47903
価値	-9.4792
抄	-9.47938
T	-9.47939
速	-9.47945
阿弥陀如来	-9.47947
つく	-9.47957
近く	-9.47988
並	-9.48015
えん	-9.48033
糖	-9.48042
なか	-9.48077
問	-9.48095
らい	-9.48121
使用する	-9.48143
空手	-9.48146
ようになり	-9.4826
掛	-9.48314
を含む	-9.48316
蒸し	-9.48353
ちゃ	-9.48363
伊	-9.48472
未	-9.48481
虫	-9.48552
立て	-9.48661
▁歴史	-9.48674
種の	-9.48687
バス	-9.487
編	-9.48922
浜	-9.49063
せず	-9.49066
胴	-9.49105
ごと	-9.49108
試合	-9.49189
にした	-9.49237
初め	-9.49398
一人	-9.49464
由来	-9.49491
舞鶴	-9.49494
▁現在の	-9.49521
伝統	-9.49588
許	-9.49627
それら	-9.49664
ベ	-9.49704
早く	-9.49718
非常に	-9.49752
発酵	-9.49777
運動	-9.49783
茶碗	-9.49816
系の	-9.49902
本来の	-9.49916
ちょう	-9.49953
に対し	-9.50012
尺八	-9.502
作曲	-9.50235
弾	-9.50289
製の	-9.503
の間に	-9.50361
▁このような	-9.50363
麻	-9.50384
門徒	-9.50424
演	-9.50428
展開	-9.50452
すれば	-9.5061
農	-9.50619
築	-9.50656
商	-9.50663
起	-9.50685
するために	-9.50686
室町時代	-9.50786
改	-9.50835
人々	-9.5096
更に	-9.50975
決	-9.51033
35	-9.51062
(7	-9.51228
物を	-9.51229
落ち	-9.51347
ほん	-9.51371
の間で	-9.51454
露	-9.51474
前の	-9.51532
の場合は	-9.51534
算	-9.51589
立ち	-9.51608
淡	-9.51636
軽	-9.51661
再び	-9.51665
▁現在は	-9.51679
自分	-9.51686
醍醐寺	-9.51691
といわれている	-9.51701
門跡	-9.51795
いずれも	-9.51797
果	-9.51826
従	-9.51928
絶	-9.51968
似	-9.52003
が存在する	-9.52031
個人	-9.52071
の中心	-9.52242
害	-9.52246
稽古	-9.52267
盛り	-9.52271
終	-9.52284
ロー	-9.52289
ダム	-9.52296
と称する	-9.52303
記念	-9.52323
通称	-9.52447
短	-9.52487
禁止	-9.52517
190	-9.52583
始めた	-9.52604
(11	-9.52659
整備	-9.52687
典	-9.52837
(17	-9.52867
漁	-9.52891
山古墳	-9.52895
人間	-9.52901
産地	-9.5294
東西	-9.53008
ことに	-9.53209
陣	-9.53369
大谷	-9.53409
優	-9.5341
陰	-9.53414
かく	-9.53428
詞	-9.53439
のほか	-9.53531
イメージ	-9.53537
ものがある	-9.53542
寛永	-9.5356
再建	-9.53562
ものとして	-9.53595
対象	-9.53709
ゴ	-9.53846
風の	-9.53857
長く	-9.53891
便	-9.54021
はこの	-9.54029
呼称	-9.54056
頂	-9.54096
かなり	-9.54143
灯	-9.54165
参照	-9.54168
込んだ	-9.54176
純	-9.54178
に由来する	-9.5424
小さな	-9.54298
休	-9.54305
張り	-9.54336
作る	-9.5439
中世	-9.54392
語源	-9.54415
デ	-9.54656
容	-9.54693
採	-9.54726
重要	-9.54737
と呼ばれた	-9.54738
浅	-9.54801
I	-9.54811
近代	-9.54825
平安	-9.54841
施	-9.55035
ごとに	-9.55177
をはじめ	-9.55234
逆	-9.55255
宋	-9.55304
上人	-9.55333
だけで	-9.55352
殺	-9.55376
招	-9.55435
流行	-9.55454
飾	-9.55456
詩	-9.55461
敵	-9.55473
▁したがって	-9.55475
設計	-9.55476
今日	-9.55605
が行われる	-9.55634
タン	-9.55662
可能	-9.55737
美術館	-9.55742
現在でも	-9.55826
の弟子	-9.55852
貫	-9.55958
名を	-9.55961
家元	-9.55977
忌	-9.56085
バー	-9.56106
鐘	-9.56118
貝	-9.56122
規定	-9.56153
イン	-9.56156
妖怪	-9.56158
役割	-9.56169
工程	-9.56176
政府	-9.56196
始	-9.56281
高野山	-9.56546
べき	-9.56556
現存する	-9.56606
坂	-9.56633
宣	-9.56737
基準	-9.56792
展示	-9.56822
決定	-9.56825
るようになった	-9.56836
敷	-9.56909
茶室	-9.56956
つつ	-9.56991
石室	-9.56998
低	-9.57036
時の	-9.57054
づ	-9.57057
用いられ	-9.57057
付き	-9.57105
▁江戸時代	-9.57146
の出身	-9.57308
これら	-9.57379
えた	-9.57417
J	-9.57439
尼	-9.57445
博物館	-9.57446
機関	-9.57481
いち	-9.57487
仏壇	-9.57503
民間	-9.57545
思	-9.5757
ぞ	-9.57607
風味	-9.57614
雅楽	-9.57702
もと	-9.5774
律	-9.57743
ことができる	-9.57819
いん	-9.57947
ものが多い	-9.57955
ものの	-9.58017
冠	-9.58086
益	-9.58088
縦	-9.58096
コーヒー	-9.58109
銃	-9.58113
改良	-9.5813
表示	-9.58154
延暦寺	-9.58179
ピ	-9.58269
様子	-9.58286
▁しかしながら	-9.58321
成立	-9.58366
使われ	-9.58414
再興	-9.58442
を受けて	-9.58481
の際	-9.58587
n	-9.5862
英	-9.58629
職人	-9.58665
開催	-9.5878
那	-9.58783
b	-9.58783
筋	-9.58784
復活	-9.58786
ます	-9.58932
地に	-9.58973
返	-9.59022
北海道	-9.59052
の長さ	-9.59098
題	-9.5916
街	-9.59248
製作	-9.59283
とり	-9.59375
炭	-9.59435
瀬	-9.59438
の違い	-9.59443
ホテル	-9.59459
副	-9.5946
封	-9.5946
限	-9.5952
パン	-9.59601
合奏	-9.59652
を示す	-9.59679
なし	-9.59685
翌年	-9.59761
政治	-9.59771
戦国時代	-9.59793
琴	-9.5983
底	-9.60138
南北朝時代	-9.6014
アメリカ	-9.6014
干し	-9.60141
納豆	-9.60149
ても	-9.60222
それぞれの	-9.60236
一般的に	-9.6025
木造	-9.60292
文様	-9.60306
を意味する	-9.60322
のち	-9.6034
初期	-9.60402
90	-9.60404
織	-9.60406
ようである	-9.60407
最初の	-9.60445
剣道	-9.60461
を使用する	-9.6052
▁後に	-9.6058
因	-9.60675
▁中国	-9.60695
区別	-9.60717
土地	-9.60743
坐像	-9.60748
籠	-9.60812
蓋	-9.60826
加熱	-9.60854
計画	-9.60856
ための	-9.60968
▁これが	-9.61144
流れ	-9.61204
ソ	-9.61269
2006	-9.61304
味付け	-9.61385
流通	-9.61392
ra	-9.61396
替え	-9.61415
罪	-9.61437
真言	-9.61493
清酒	-9.61495
関連	-9.61504
粥	-9.6151
込む	-9.61529
写真	-9.61532
_(	-9.61558
校	-9.61585
かす	-9.61599
ヶ	-9.61649
理由	-9.61792
の中	-9.61848
昔	-9.6186
生まれ	-9.61919
リン	-9.62003
的には	-9.62016
乾	-9.62021
書院	-9.62057
吹	-9.62111
をもって	-9.62183
脂	-9.62196
将軍	-9.62207
穂	-9.62209
F	-9.62209
脚	-9.62209
峰	-9.62215
付近	-9.62251
ものであった	-9.62289
祝	-9.62306
かつ	-9.62338
を行い	-9.62416
緑	-9.62418
市場	-9.62556
シャ	-9.62588
かつて	-9.6262
の名称	-9.62621
寺社	-9.62631
行われた	-9.62699
情	-9.6273
を受ける	-9.62739
舎	-9.628
文書	-9.62823
まま	-9.62835
乾燥	-9.62874
〜	-9.62909
といえる	-9.62977
されるようになった	-9.63037
記述	-9.63074
縁起	-9.63103
じゅう	-9.63114
):	-9.63208
に用いる	-9.6321
教義	-9.63328
工夫	-9.63387
の手	-9.63431
しょ	-9.6349
亭	-9.63531
慈	-9.63566
箸	-9.63613
素麺	-9.63642
温度	-9.63652
三郎	-9.63664
頃から	-9.63673
出家	-9.63709
以来	-9.63795
盆	-9.63889
興福寺	-9.64058
式の	-9.64069
が行われた	-9.64084
仮	-9.64163
各地の	-9.64193
敬	-9.643
須	-9.64314
R	-9.64314
ぎょう	-9.64321
歯	-9.64321
豊臣秀吉	-9.64323
容器	-9.6434
上で	-9.64409
に移	-9.64445
小袖	-9.6446
に入る	-9.64478
なくなった	-9.64485
曲輪	-9.64519
けん	-9.64534
天台	-9.64535
西洋	-9.64565
切れ	-9.64591
寺の	-9.646
不明	-9.64616
にあり	-9.64713
用いる	-9.64744
傾向	-9.64747
▁このように	-9.64807
廃	-9.64887
含まれ	-9.64938
と呼び	-9.64958
有名	-9.64998
氷	-9.65005
翁	-9.65036
燗	-9.65036
営業	-9.65111
生き	-9.65177
郎	-9.65203
に入り	-9.65258
使う	-9.65382
そのもの	-9.65405
詰め	-9.65436
忍	-9.65518
元禄	-9.65558
発祥	-9.6559
(16	-9.65626
アルコール	-9.65749
映画	-9.65771
だけでなく	-9.65783
回り	-9.65784
なっている	-9.65961
大仏	-9.65998
吉田	-9.66262
かり	-9.66432
肩	-9.66453
率	-9.66459
倍	-9.6648
情報	-9.66488
運営	-9.66493
放送	-9.66496
化した	-9.66498
違う	-9.66524
経営	-9.66525
最高	-9.66534
ていった	-9.66594
ずつ	-9.66641
に入ると	-9.66856
相撲	-9.66878
h	-9.66919
l	-9.66939
当初	-9.66942
濃	-9.66952
然	-9.66994
などでは	-9.67056
拝	-9.67143
栄	-9.67146
滅	-9.67156
静	-9.67195
をもつ	-9.67201
岐	-9.67209
広まった	-9.67227
側面	-9.67229
の実	-9.6724
所蔵	-9.673
能楽	-9.67412
まい	-9.67416
雅	-9.67427
のことを	-9.67434
の教え	-9.6757
特別	-9.67641
つゆ	-9.6766
見られる	-9.67664
減	-9.67709
菩提	-9.67797
日本料理	-9.67797
紹介	-9.67842
童	-9.67867
液	-9.67896
鉢	-9.67907
中期	-9.67914
亡	-9.67917
血	-9.67942
検校	-9.67951
もう	-9.6807
1.	-9.68159
かな	-9.6817
不動	-9.68183
酒を	-9.68221
水を	-9.68291
業者	-9.68307
生まれた	-9.68362
文明	-9.68366
33	-9.68383
塚古墳	-9.68388
正面	-9.68443
が用いられる	-9.68486
押し	-9.68522
衰退	-9.68533
荘	-9.6865
強い	-9.68669
酒の	-9.68674
環境	-9.68688
われる	-9.68699
▁16	-9.68756
別当	-9.68763
の葉	-9.68769
という意味	-9.68807
前方後円墳	-9.68809
行われ	-9.6897
されていない	-9.69042
江戸時代の	-9.69069
ライ	-9.69087
ップ	-9.6909
読	-9.69258
を使って	-9.69299
済	-9.69366
D	-9.69416
網	-9.69432
に伴い	-9.69436
動物	-9.69464
振り	-9.69526
収	-9.69579
実際に	-9.69582
自分の	-9.69615
奈良時代	-9.69635
説明	-9.69695
金堂	-9.6973
諸国	-9.69799
神事	-9.69812
▁7	-9.69845
▁三	-9.69981
有名な	-9.70167
竜	-9.70184
釜	-9.70184
湖	-9.70184
芸妓	-9.70185
ブーム	-9.70188
メニュー	-9.7019
各地に	-9.70208
固定	-9.7022
宗祖	-9.70251
があるが	-9.70272
反対	-9.70279
太刀	-9.70282
精神	-9.70309
留	-9.70312
の字	-9.70468
で行われる	-9.7047
の高い	-9.70619
ものであり	-9.70694
表面	-9.70801
日本刀	-9.70828
則	-9.70869
厚	-9.70909
右衛門	-9.70918
部屋	-9.70929
お好み焼き	-9.70941
を加えて	-9.71021
位置	-9.71066
塗り	-9.7108
塗	-9.71366
習	-9.71461
復興	-9.71534
専門	-9.71583
故	-9.71597
浄土教	-9.71598
本の	-9.71638
仲	-9.71648
徒歩	-9.71654
浦	-9.7166
全体	-9.71686
第二	-9.71699
粒	-9.71704
佛	-9.71704
機械	-9.71705
墳丘	-9.71705
大日如来	-9.71706
普請	-9.71709
漢字	-9.71737
▁主に	-9.71795
事件	-9.71842
違い	-9.71867
大乗	-9.71874
の総称	-9.71929
るように	-9.72016
意見	-9.72045
を入れる	-9.72116
背景	-9.72135
▁一	-9.72149
そして	-9.72205
貴	-9.72226
項	-9.72235
規模	-9.72242
▁これら	-9.72262
発展した	-9.72332
現在も	-9.72339
倒	-9.72351
砂	-9.72406
譲	-9.72409
錦	-9.72441
序	-9.72454
魂	-9.72464
猿楽	-9.72495
ワイン	-9.72662
勢力	-9.72681
消	-9.72715
わない	-9.72729
これが	-9.72784
こうした	-9.72826
したが	-9.72858
47	-9.72864
用いられた	-9.72908
上記	-9.72937
末期	-9.72946
名物	-9.72947
資	-9.72992
建立	-9.72994
宮中	-9.731
あげ	-9.73112
弱	-9.7313
麦	-9.73164
談	-9.73243
法隆寺	-9.73243
前方部	-9.7325
公開	-9.73313
対立	-9.73348
続く	-9.7336
かみ	-9.73382
一つ	-9.73408
議	-9.7353
美術	-9.7358
元号	-9.73614
ったもの	-9.73714
配置	-9.73748
いだ	-9.73755
歩	-9.73764
山の	-9.73798
参加	-9.73813
録	-9.73813
孫	-9.7389
多数	-9.73927
も存在する	-9.73933
嘉	-9.74008
測	-9.74031
随	-9.74031
彦	-9.74031
儒教	-9.74043
剣術	-9.74049
家庭	-9.74067
サン	-9.7409
に属する	-9.74119
あと	-9.7412
ける	-9.74225
別の	-9.74298
染め	-9.74533
既に	-9.74617
中村	-9.74663
名古屋	-9.74706
テレビ	-9.74815
極めて	-9.74829
戒律	-9.74829
復元	-9.74849
尚	-9.74948
国際	-9.74949
減少	-9.74994
の部分	-9.75019
ていく	-9.75089
秘	-9.75138
開き	-9.75183
身分	-9.75209
の一つである	-9.75249
にとって	-9.7525
持つ	-9.75258
境内	-9.75303
の歴史	-9.75316
一番	-9.75396
出版	-9.75432
ラン	-9.75469
杉	-9.75515
現存	-9.75545
カー	-9.75552
に用いられる	-9.75653
流儀	-9.75682
まり	-9.75875
止	-9.75898
近年	-9.76004
34	-9.7603
ずる	-9.76152
と同様に	-9.76157
の三	-9.76222
固	-9.76249
笠	-9.76291
丼	-9.76321
十三	-9.76325
孔	-9.76332
釈	-9.76368
給	-9.76395
の起源	-9.76402
灰	-9.76411
窓	-9.76411
皿	-9.76412
いない	-9.7643
造営	-9.76439
▁11	-9.7655
けい	-9.76597
本堂	-9.76631
江戸幕府	-9.76636
の特徴	-9.76661
続	-9.76702
魔	-9.76735
重文	-9.76844
普通	-9.76851
しながら	-9.76877
始め	-9.77014
であるため	-9.77117
発生	-9.77127
芋	-9.77215
天ぷら	-9.77218
ディ	-9.77218
なお	-9.77222
小麦粉	-9.77232
大阪府	-9.7725
が必要	-9.77293
彼	-9.77373
ジャ	-9.77538
専	-9.7756
茶屋	-9.77592
以降は	-9.77648
良く	-9.77705
営	-9.77713
名前	-9.77728
可能性	-9.77735
そこに	-9.77773
経済	-9.77838
甘	-9.77847
可	-9.77937
▁例えば	-9.77944
踊り	-9.77993
八幡	-9.78004
伽藍	-9.78026
H	-9.7803
イベント	-9.78032
輸入	-9.78033
したものである	-9.78055
ダー	-9.78084
▁小	-9.78119
くる	-9.78135
とその	-9.78423
ha	-9.78426
かに	-9.78491
方向	-9.78496
以	-9.78551
学生	-9.78569
していった	-9.78581
それが	-9.78595
ごろ	-9.78607
刺身	-9.78631
作られる	-9.78665
練	-9.78678
突	-9.78734
成仏	-9.78742
存在する	-9.78769
熟	-9.7878
範	-9.78794
港	-9.78817
寝	-9.7883
桐	-9.78835
鎮	-9.78837
曹洞宗	-9.78851
偽	-9.78851
N	-9.78852
教学	-9.78866
▁こうした	-9.78872
めて	-9.78913
組み	-9.78976
▁父は	-9.78984
まった	-9.79016
境	-9.79087
起源	-9.79105
国内	-9.79111
観光	-9.79173
仕立て	-9.79222
からである	-9.79255
古典	-9.79256
らしい	-9.79292
地下	-9.79317
日本語	-9.79325
幕	-9.79436
祭礼	-9.79452
大阪市	-9.79479
過去	-9.79491
抜き	-9.79496
リア	-9.79533
されたもの	-9.79603
検	-9.79605
たれ	-9.79609
襖	-9.79667
▁同	-9.79667
棚	-9.79678
兵庫県	-9.79678
新たな	-9.79686
天狗	-9.79686
用途	-9.79704
類似	-9.79719
捨て	-9.79742
総合	-9.79783
寄せ	-9.79788
を食べる	-9.79798
派の	-9.79857
左右	-9.7989
▁18	-9.79977
創	-9.80053
鼓	-9.80059
のお	-9.80099
ことが多く	-9.80104
32	-9.80136
などと	-9.8016
に関しては	-9.80178
仕事	-9.8023
提供	-9.80244
止め	-9.80308
っと	-9.80342
大型	-9.80418
葛	-9.80446
税	-9.80454
讃	-9.80468
鳴	-9.80472
帳	-9.80472
遣	-9.80475
和歌	-9.80498
申	-9.805
利休	-9.8051
であろう	-9.80512
死去	-9.80525
理解	-9.80553
弓術	-9.80565
天文	-9.80594
このような	-9.80594
含	-9.80629
練り	-9.8065
ar	-9.80681
んでいる	-9.80731
プロ	-9.80785
(14	-9.80795
できた	-9.80808
歴	-9.80987
るため	-9.81072
48	-9.81095
祈願	-9.8112
消費	-9.81125
えて	-9.81132
の花	-9.8117
円形	-9.81213
の下	-9.81266
災	-9.81308
のない	-9.81316
乳	-9.81321
酒蔵	-9.81328
舟	-9.81339
腕	-9.8135
を通じて	-9.81351
日蓮正宗	-9.81354
やや	-9.81404
知られている	-9.81446
全長	-9.81585
模	-9.81597
欠	-9.81704
以前の	-9.81793
まん	-9.8187
興行	-9.81874
はほとんど	-9.81933
によっては	-9.81957
の祖	-9.81992
岸	-9.82014
あい	-9.82032
劇	-9.82113
少ない	-9.8212
姫	-9.82157
E	-9.82191
のに対し	-9.82206
伏見	-9.82234
地獄	-9.82242
内裏	-9.82325
祇園	-9.8241
統一	-9.82686
出土	-9.82781
のまま	-9.82816
中で	-9.82866
すぐ	-9.82876
同じく	-9.82904
囃子	-9.82912
案	-9.82942
色の	-9.82944
財	-9.82955
していない	-9.82959
丁	-9.82987
待	-9.82987
博	-9.83014
漆	-9.83021
定義	-9.83039
布教	-9.83044
俊	-9.83045
メーカー	-9.83051
夢	-9.83052
愛知県	-9.83053
欲	-9.83053
みょう	-9.83053
×	-9.83055
柔術	-9.83055
功徳	-9.83071
総本山	-9.83086
せる	-9.83108
飲み	-9.8312
てしまう	-9.83176
各種	-9.8318
儀礼	-9.83185
品質	-9.83187
などから	-9.83188
観世	-9.83189
植	-9.83199
の上	-9.83206
に見られる	-9.83251
広島	-9.83292
焼く	-9.83327
発行	-9.83359
もともと	-9.83434
開山	-9.83571
産業	-9.83576
即位	-9.83578
ということ	-9.8358
誕生	-9.83596
安置	-9.83615
レン	-9.83638
宇治	-9.83688
自由	-9.83703
たる	-9.83717
走	-9.83772
提	-9.83773
を入れて	-9.83815
執	-9.83825
親王	-9.83835
即	-9.83853
寂	-9.83872
磨	-9.83889
に基づく	-9.83915
浮世絵	-9.83916
国立国会図書館	-9.83917
合気道	-9.83941
娘	-9.83953
朝鮮	-9.83969
つか	-9.83971
もち	-9.8401
与	-9.84028
の代わりに	-9.8405
統	-9.84104
僧正	-9.84157
合い	-9.84201
45	-9.84216
鉄道	-9.84219
もっとも	-9.84321
独立	-9.84356
あたり	-9.84483
大きさ	-9.84542
新聞	-9.84602
▁8	-9.84622
全て	-9.84624
88	-9.84643
丹	-9.84699
こともあった	-9.847
策	-9.84754
傷	-9.84782
▁ちなみに	-9.84784
桶	-9.84785
滋賀県	-9.84787
辞	-9.84797
ビール	-9.84812
の普及	-9.84831
でん	-9.8484
の世界	-9.84849
得度	-9.8491
向き	-9.84965
戻	-9.84969
の種類	-9.85051
先に	-9.85062
するもの	-9.85079
族	-9.85135
割り	-9.85141
文学	-9.8516
思い	-9.85187
大衆	-9.85249
ないように	-9.85279
件	-9.85399
明治以降	-9.85424
制定	-9.8546
ぼう	-9.85465
強く	-9.85481
一方	-9.85526
電	-9.85531
ったり	-9.85627
くり	-9.85628
堅	-9.8566
茎	-9.85662
りょう	-9.85662
詠	-9.85662
収集	-9.85699
離	-9.85705
法華宗	-9.85733
カツ	-9.85734
具材	-9.85736
200	-9.85781
たま	-9.85862
を出す	-9.85877
内で	-9.85892
儀	-9.85919
薄く	-9.85955
38	-9.85998
する事	-9.85998
した後	-9.86
設立	-9.86027
包	-9.8618
用いられる	-9.86286
神宮	-9.86303
壺	-9.8644
ゲ	-9.86495
超	-9.86511
稲	-9.86511
だし	-9.86522
還	-9.86539
ヨ	-9.86546
K	-9.86548
静岡県	-9.86553
下駄	-9.86579
衣服	-9.86628
なければ	-9.86672
東山	-9.86692
こそ	-9.86718
性格	-9.86725
したこと	-9.86747
確認	-9.86778
立場	-9.86801
法主	-9.86831
en	-9.86892
同時に	-9.86979
したという	-9.87088
2008	-9.87095
▁そこで	-9.871
襲	-9.87241
地域の	-9.87243
▁所在地	-9.87271
アン	-9.87313
三条	-9.87333
をいう	-9.87333
唱	-9.87394
昭	-9.87399
抜	-9.87412
燈	-9.87433
罰	-9.87436
奇	-9.87439
韓国	-9.87462
定め	-9.87465
上下	-9.87586
主義	-9.87698
出来	-9.87865
世紀末	-9.8792
最古の	-9.87979
だけの	-9.87983
次の	-9.88048
くなる	-9.8808
条件	-9.88089
300	-9.881
主な	-9.88153
遺	-9.88163
やがて	-9.88193
根本	-9.88201
授	-9.88234
垣	-9.88241
勅	-9.88266
深く	-9.88271
門下	-9.8828
享	-9.88292
朱	-9.88324
兵衛	-9.88324
サービス	-9.88341
株式会社	-9.88341
織田信長	-9.88344
支配	-9.88363
盛ん	-9.88434
事を	-9.88514
日間	-9.8858
多い	-9.88594
折り	-9.88602
一方で	-9.88607
流し	-9.88608
と同じく	-9.88686
出身	-9.88722
の意	-9.88723
であるという	-9.88871
を引き	-9.89025
庫	-9.89072
ティ	-9.8914
一度	-9.8921
盤	-9.89232
ぜん	-9.89234
シュ	-9.89251
寄席	-9.89275
拡大	-9.89285
づけ	-9.89311
▁奈良	-9.89329
マン	-9.89355
王朝	-9.89393
少し	-9.89582
兄	-9.89606
することができる	-9.89608
高級	-9.89628
作られている	-9.89633
頃に	-9.89672
末寺	-9.89701
43	-9.89729
干	-9.89733
に使われる	-9.89806
一時	-9.8984
一つの	-9.89882
かかる	-9.89933
投	-9.89945
混	-9.90038
上げる	-9.90062
夕	-9.90085
▁10	-9.90095
将	-9.90114
崇	-9.90132
催	-9.90134
高く	-9.90152
ざる	-9.90155
朝鮮半島	-9.90169
位牌	-9.9017
不動明王	-9.90172
42	-9.90189
を得	-9.90202
原因	-9.90212
刊行	-9.90217
駅弁	-9.90224
古墳群	-9.90254
牛肉	-9.90259
2004	-9.90287
移動	-9.90313
酒米	-9.90397
江戸時代に	-9.90453
食用	-9.90477
▁14	-9.90479
きん	-9.90494
大豆	-9.90555
と同	-9.90571
これに	-9.90609
旅	-9.90612
かる	-9.90722
を行っている	-9.90852
五山	-9.90856
▁京都府	-9.90874
守護	-9.90886
臨	-9.90925
帝	-9.90985
徒	-9.90993
本来	-9.91014
かれ	-9.91042
介	-9.91046
沖縄	-9.91084
の願	-9.9109
廟	-9.91094
源氏物語	-9.911
季節	-9.91104
▁ただ	-9.91123
遊び	-9.91149
r	-9.91183
建造物	-9.91198
が異なる	-9.91202
▁室町時代	-9.91205
だん	-9.91233
蓮華	-9.91245
宮殿	-9.91255
女性の	-9.91328
型の	-9.91507
場面	-9.91556
場合には	-9.91578
基本	-9.9161
まれ	-9.91872
使われた	-9.91883
規	-9.91908
特定の	-9.91926
宇	-9.91993
後円部	-9.92028
舞妓	-9.92032
カツ丼	-9.92034
必ず	-9.92042
投げ	-9.9205
注意	-9.92052
多くは	-9.92138
養子	-9.92153
衣装	-9.92179
意識	-9.92206
という説	-9.9222
がいる	-9.92322
二条	-9.92452
▁以後	-9.92457
が強い	-9.92535
否定	-9.92615
であっても	-9.92619
国民	-9.92623
じん	-9.92645
後者	-9.92675
代表的な	-9.92726
又は	-9.92752
導	-9.92782
禁	-9.92806
予	-9.92874
競	-9.9288
飲む	-9.92884
発表	-9.92887
摩	-9.92932
じゅ	-9.92937
勧進	-9.92968
君	-9.92969
祭祀	-9.92975
直径	-9.92994
成功	-9.92995
漉き	-9.93016
等で	-9.93075
であること	-9.93139
そのような	-9.93202
長者	-9.93209
意味で	-9.93226
氏の	-9.93234
各地で	-9.93258
まだ	-9.93272
伝わった	-9.93281
南北	-9.93419
ごく	-9.93568
いている	-9.93749
事が	-9.9377
2007	-9.93789
ただし	-9.93806
普及	-9.93847
実施	-9.9388
ペ	-9.93887
面積	-9.93905
侍	-9.93915
撥	-9.93923
企業	-9.93924
稚児	-9.93924
を中心とした	-9.93924
博多	-9.93948
切腹	-9.93952
にくい	-9.93958
程度の	-9.93976
わり	-9.94082
源氏	-9.94154
深い	-9.94159
主張	-9.94221
確立	-9.9432
歴代	-9.94321
わか	-9.94332
成長	-9.94387
通常の	-9.94524
旨	-9.94682
唄	-9.947
にする	-9.94737
悟	-9.94738
買	-9.94767
y	-9.9477
ふく	-9.94788
するなど	-9.94817
縮	-9.94819
うち	-9.94829
裾	-9.94886
攻撃	-9.94889
られて	-9.94899
手法	-9.94905
史料	-9.94908
劇場	-9.94928
徳川家康	-9.95026
きた	-9.9503
削	-9.95152
の大きさ	-9.95159
皇	-9.95214
創作	-9.95283
田市	-9.95302
ぞう	-9.95353
食べられる	-9.9547
行列	-9.95503
南部	-9.95611
と伝えられる	-9.95659
ひと	-9.95777
象	-9.9578
それに	-9.95785
2005	-9.95788
鑑	-9.95817
レー	-9.95824
圧	-9.9584
浄瑠璃	-9.95847
孝	-9.95855
幹	-9.95856
月上旬	-9.95856
カラオケ	-9.95856
需要	-9.95858
屏風	-9.95859
ネギ	-9.95875
共通	-9.95879
わけではない	-9.95881
彼ら	-9.96002
仮名	-9.96011
試み	-9.96011
目の	-9.96015
が高い	-9.96043
68	-9.96046
1990	-9.9605
の研究	-9.96083
登	-9.96355
信長	-9.96363
残っている	-9.96364
ついた	-9.96444
信者	-9.96466
降	-9.96688
ぜ	-9.96689
の中でも	-9.96695
一門	-9.96718
主体	-9.96728
依	-9.96752
鷹	-9.96762
熊野	-9.96785
日本書紀	-9.96837
巫女	-9.96838
鰹節	-9.96849
旅館	-9.96853
86	-9.97008
築城	-9.9704
を入れ	-9.97142
いつ	-9.97143
飲	-9.97153
することで	-9.97185
96	-9.97235
自体	-9.9735
なので	-9.97368
下に	-9.97388
の小	-9.9739
通常	-9.97413
以前は	-9.97429
ずに	-9.97474
自身	-9.97476
人は	-9.97495
標	-9.97533
共	-9.97611
謡	-9.97675
革	-9.97684
ることができる	-9.97705
することが	-9.97732
為に	-9.97739
拍子	-9.97755
碑	-9.97759
簡	-9.97772
記載	-9.97788
撃	-9.97792
値	-9.978
かない	-9.97802
を除く	-9.97832
牛丼	-9.9784
法を	-9.97857
伝授	-9.97861
間に	-9.97881
盛んに	-9.97954
2003	-9.9801
を持って	-9.98191
下げ	-9.98267
十分	-9.9827
00	-9.98323
過	-9.9857
の名前	-9.98573
道元	-9.98577
確	-9.98633
門流	-9.98673
知られ	-9.98713
シテ	-9.98724
説法	-9.9876
虎	-9.98779
蘇	-9.98815
微	-9.98819
根拠	-9.98845
奉納	-9.98846
欧米	-9.98848
隠居	-9.98848
ていたが	-9.98876
ラー	-9.98891
職業	-9.98909
いき	-9.98935
後半	-9.98965
逆に	-9.9901
皇子	-9.99035
短い	-9.99072
と呼ばれている	-9.99079
翌	-9.99085
に入って	-9.99101
するという	-9.99158
献上	-9.99163
いった	-9.99212
おこ	-9.99287
寺院の	-9.99293
学者	-9.993
分野	-9.99331
身を	-9.99339
記事	-9.99372
使い	-9.99408
▁白	-9.99417
かわ	-9.99422
陸	-9.99486
94	-9.99496
を祀る	-9.99503
薩摩	-9.99524
ユ	-9.99579
臭	-9.99651
」・「	-9.99699
挙	-9.99758
囲	-9.99791
胡	-9.99796
邪	-9.99809
▁13	-9.99815
疑	-9.99829
架	-9.99836
距離	-9.99837
とも言う	-9.99867
後述	-9.99974
次郎	-9.99975
譜	-9.99994
家が	-10.0001
用いられている	-10.0001
つまり	-10.0001
の流れ	-10.0011
低い	-10.0017
伝え	-10.0021
の流派	-10.0025
出る	-10.0025
工業	-10.0026
の対象	-10.0039
一本	-10.0045
でない	-10.0052
言い	-10.0053
演出	-10.0053
ないし	-10.0055
蓮如	-10.0056
の使用	-10.0057
ぶつ	-10.0071
焼失	-10.0074
双	-10.0076
導入	-10.0076
54	-10.0079
進め	-10.0081
評	-10.0081
センター	-10.0084
スター	-10.0085
簪	-10.0086
泡	-10.0086
おにぎり	-10.0086
後継者	-10.0086
彫刻	-10.0086
政策	-10.0088
44	-10.0088
釈迦如来	-10.0088
史跡	-10.009
所有	-10.0094
寛文	-10.0097
演目	-10.0098
ここで	-10.01
の原型	-10.0101
特色	-10.0103
ここ	-10.0103
元々	-10.0107
代々	-10.011
作成	-10.0114
複数の	-10.0115
チャ	-10.0116
重ね	-10.0119
行われていた	-10.0135
こともあり	-10.0139
込んで	-10.0141
の寺院	-10.0146
創建	-10.0154
見る	-10.0161
洛	-10.0163
行った	-10.0165
差し	-10.0169
閉	-10.0171
るもの	-10.0178
影	-10.0182
壊	-10.0187
していく	-10.0189
傘	-10.0189
わる	-10.0189
規制	-10.0191
われた	-10.0193
エビ	-10.0194
大石寺	-10.0196
食感	-10.0199
特殊な	-10.02
全く	-10.02
過ぎ	-10.0201
方が	-10.0206
おでん	-10.0208
公式	-10.0216
といわれ	-10.0219
をつけた	-10.022
といって	-10.0222
のちに	-10.0224
民家	-10.0231
四条	-10.0239
違	-10.024
さえ	-10.0243
明治維新	-10.0244
時には	-10.0244
被	-10.0248
日記	-10.0249
扱い	-10.0254
浮	-10.0255
地方の	-10.0256
を作り	-10.0258
明治時代	-10.026
本館	-10.0266
役者	-10.0269
葺	-10.0276
彩	-10.028
浴	-10.0286
庁	-10.0289
才	-10.0289
獅子	-10.0292
邸	-10.0293
裳	-10.0293
選択	-10.0293
価格	-10.0293
変更	-10.0294
坐禅	-10.0295
制限	-10.0296
論争	-10.0296
英語	-10.0298
つつある	-10.0299
をさす	-10.0299
和菓子	-10.0305
55	-10.031
コー	-10.0311
以外に	-10.0315
▁通常	-10.032
薄い	-10.032
仕上げ	-10.0322
するようになった	-10.0323
種類の	-10.0323
その他の	-10.0324
所属	-10.0326
身体	-10.0328
を得て	-10.0333
クラ	-10.0338
▁鎌倉時代	-10.0346
光寺	-10.0347
れて	-10.0352
することを	-10.0353
の後	-10.0353
加賀	-10.036
はじめ	-10.0365
檀	-10.0365
本来は	-10.0366
期の	-10.0368
に就任	-10.0369
圏	-10.0369
アル	-10.0378
しても	-10.0379
面に	-10.0383
の娘	-10.0393
怪	-10.0397
託	-10.0398
健康	-10.0399
されること	-10.0399
冷や	-10.04
神輿	-10.0401
太陽	-10.0401
むしろ	-10.0402
を持った	-10.0403
までに	-10.0405
二条城	-10.0407
主催	-10.0408
小豆	-10.0414
生まれる	-10.0426
りん	-10.0426
極楽	-10.0426
工事	-10.0429
事実	-10.0432
起こ	-10.0432
造られた	-10.0434
に伝わる	-10.0447
作った	-10.0448
ュ	-10.0451
を開いた	-10.0451
を得る	-10.0455
ためである	-10.0457
のみで	-10.0459
したため	-10.0462
使用された	-10.0463
の変化	-10.0472
上げた	-10.0475
述	-10.0482
構え	-10.0483
の伝統	-10.0485
二つ	-10.0487
たて	-10.049
求	-10.0493
球	-10.0497
候	-10.0501
落語家	-10.0502
左衛門	-10.0503
勘	-10.0505
肌	-10.0505
G	-10.0505
実践	-10.0505
認定	-10.0506
戦争	-10.0506
築造	-10.0508
敷地	-10.0509
座敷	-10.0511
が高く	-10.0512
返し	-10.0514
正装	-10.0515
1970	-10.0516
土器	-10.0517
灌頂	-10.0519
齢	-10.0519
元来	-10.0525
2002	-10.0527
又	-10.0529
味が	-10.053
出される	-10.0534
屋台	-10.0535
辛	-10.0542
大乗仏教	-10.0552
時代に	-10.0554
の中には	-10.0559
が出	-10.0562
を得た	-10.0563
500	-10.0568
を加える	-10.0569
の内容	-10.0582
迎え	-10.0586
の存在	-10.0587
天台宗の	-10.0587
代表	-10.0589
年頃	-10.0591
最近	-10.0593
が一般的	-10.0596
富士	-10.0598
人を	-10.0598
と称される	-10.06
年度	-10.06
伝来した	-10.0603
が行われ	-10.0604
鈴	-10.0606
去	-10.0607
径	-10.061
抗	-10.0611
澄	-10.0611
150	-10.0611
串	-10.0612
沈	-10.0612
襟	-10.0612
を置く	-10.0613
清浄	-10.0616
鰻	-10.0616
郷土料理	-10.0619
みりん	-10.0621
出された	-10.0621
をかける	-10.0621
に位置する	-10.0627
地元	-10.0628
載	-10.0628
線香	-10.0629
が主流	-10.063
体制	-10.063
座主	-10.0631
不足	-10.0631
一族	-10.0632
(15	-10.0633
最大	-10.0634
さら	-10.0638
解説	-10.0643
込	-10.0643
安定	-10.0645
行き	-10.0659
いくつかの	-10.066
山寺	-10.0668
を使用した	-10.0668
振	-10.0671
わず	-10.0672
完全に	-10.0681
を学び	-10.0682
2.	-10.0684
37	-10.0687
んじ	-10.0702
煎茶	-10.0703
同様の	-10.0704
力を	-10.0705
とする説	-10.0706
洗	-10.0707
踏	-10.0709
巡	-10.071
多数の	-10.071
75	-10.0711
楽曲	-10.0713
側の	-10.0716
及	-10.0716
サンスクリット	-10.0717
に行われる	-10.0717
炉	-10.0718
是	-10.0719
枠	-10.0721
月中旬	-10.0721
泥	-10.0721
に当たる	-10.0721
天台座主	-10.0721
世紀後半	-10.0722
▁こうして	-10.0723
演歌	-10.0727
数多く	-10.0728
親指	-10.0728
いく	-10.0729
羽織	-10.073
をつける	-10.0742
機会	-10.0743
動き	-10.0746
っており	-10.0752
幕末	-10.0766
うた	-10.0773
両者	-10.0774
白い	-10.0782
という言葉	-10.0788
▁一般に	-10.0792
事から	-10.0794
意味合い	-10.0794
ておらず	-10.0795
添	-10.0796
古来	-10.0803
000	-10.0807
活	-10.0809
宅	-10.0812
を学んだ	-10.0814
▁199	-10.0814
数は	-10.0817
閣	-10.0818
使用される	-10.0821
陀	-10.0825
裁	-10.0825
込まれ	-10.0825
逸	-10.0829
軸	-10.0829
芝	-10.0829
了	-10.083
訓	-10.083
航	-10.0831
快	-10.0831
長野県	-10.0831
〈	-10.0831
印刷	-10.0831
実際には	-10.0835
戦前	-10.0837
に応じて	-10.0837
真言密教	-10.0838
テン	-10.0838
石垣	-10.0839
平安時代後期	-10.084
とも言われる	-10.0843
管長	-10.0851
を用い	-10.086
従来の	-10.0861
名は	-10.0862
らが	-10.0864
熟成	-10.0873
楼	-10.0874
プラ	-10.0878
の儀式	-10.0878
ことにより	-10.0884
第三	-10.0889
くらい	-10.0889
でき	-10.0892
が多かった	-10.0892
を取る	-10.0896
田楽	-10.0898
すぎ	-10.0899
物として	-10.09
後は	-10.09
争	-10.0921
狭	-10.0923
現代の	-10.0928
ロン	-10.0932
たちが	-10.0932
摂	-10.0934
行われている	-10.0935
の下に	-10.0936
腐	-10.0941
粋	-10.0942
探	-10.0942
スタイル	-10.0942
のみならず	-10.0942
連盟	-10.0942
発掘	-10.0942
硬	-10.0944
コンブ	-10.0945
弘仁	-10.0945
火災	-10.0946
▁つまり	-10.0947
太夫	-10.0951
童子	-10.0953
団子	-10.0956
コース	-10.0958
禅師	-10.096
タレ	-10.0966
天井	-10.0971
てい	-10.0972
格子	-10.0973
の技術	-10.0974
させて	-10.0976
39	-10.0978
するための	-10.0987
最後の	-10.0987
▁平安時代	-10.0993
同年	-10.0996
53	-10.0997
れない	-10.1013
うえ	-10.1016
たら	-10.1017
トン	-10.1021
写	-10.1021
優れた	-10.1034
)3	-10.1037
らく	-10.1041
費	-10.1048
涅槃	-10.1049
雛	-10.1051
扉	-10.1052
垂	-10.1053
課	-10.1053
○	-10.1053
どの	-10.1053
撰	-10.1054
徐々に	-10.1054
胸	-10.1054
弘法大師	-10.1054
フィ	-10.1054
柔道	-10.1056
経緯	-10.1056
戒壇	-10.1056
公演	-10.1058
応永	-10.1062
土佐	-10.1063
に入った	-10.1063
風俗	-10.1064
をはじめとする	-10.1064
やすく	-10.1064
状態で	-10.1066
をしている	-10.1068
立つ	-10.107
吹き	-10.107
シン	-10.107
67	-10.1079
三つ	-10.1084
男子	-10.1091
65	-10.1096
別院	-10.1102
してきた	-10.1107
の第	-10.111
なもの	-10.1113
近年では	-10.1118
前期	-10.1118
この時期	-10.1127
▁12	-10.1128
62	-10.1129
本丸	-10.113
アイ	-10.1131
の位置	-10.1137
続け	-10.1142
部分を	-10.1142
一派	-10.1145
日常	-10.1149
かせ	-10.1155
者を	-10.1155
正式に	-10.116
ケース	-10.1163
杖	-10.1167
犬	-10.1168
毒	-10.1168
安土桃山時代	-10.1168
月下旬	-10.1168
の形	-10.1168
ゼ	-10.1168
イギリス	-10.1168
発掘調査	-10.1169
近江	-10.117
七夕	-10.117
クロ	-10.1174
江戸時代初期	-10.1175
家族	-10.1179
出荷	-10.1182
▁近年	-10.1186
ばん	-10.1187
初期の	-10.1187
扇子	-10.1189
ともいわれる	-10.119
71	-10.1193
画家	-10.1195
形成	-10.1213
全国的に	-10.1214
一条	-10.1216
広い	-10.1224
右手	-10.1225
の場	-10.1226
▁古くは	-10.1232
臣	-10.1244
▁南	-10.1245
途	-10.1245
活躍	-10.1247
業界	-10.1249
飛鳥	-10.1262
一体	-10.1265
時期に	-10.1269
固め	-10.1272
人に	-10.1274
鮮	-10.1275
効	-10.1278
開祖	-10.1279
揚	-10.1279
缶	-10.1282
担当	-10.1282
浸	-10.1283
警	-10.1283
繊維	-10.1283
沼	-10.1283
▁五	-10.1285
外国	-10.1286
美しい	-10.1288
要素	-10.1288
新たに	-10.1289
般若	-10.129
体験	-10.1293
大規模な	-10.1295
交通	-10.1296
発達した	-10.1296
の地	-10.1296
残り	-10.1297
常に	-10.1302
と呼んだ	-10.1303
織物	-10.1305
当主	-10.1309
外観	-10.131
体系	-10.131
交流	-10.132
あら	-10.1333
おか	-10.1337
成人	-10.1339
しろ	-10.1346
二重	-10.1352
国師	-10.1354
協	-10.1355
化し	-10.1359
履	-10.1363
数え	-10.1366
付く	-10.1367
イカ	-10.1372
いで	-10.1373
▁現代	-10.1373
ときは	-10.1379
大きい	-10.138
59	-10.1381
わら	-10.1383
幼	-10.1394
弥	-10.1397
伴	-10.1397
暗	-10.1398
芽	-10.1398
されてきた	-10.1399
ちゅう	-10.1399
煙	-10.1399
賛	-10.1399
相国寺	-10.1399
<	-10.1399
に代表される	-10.1399
岡山県	-10.14
範囲	-10.14
広島県	-10.14
に相当する	-10.1401
皇室	-10.1402
付属	-10.1403
信徒	-10.1403
住居	-10.1404
著作	-10.1407
を説く	-10.1409
まれた	-10.1409
縫い	-10.1409
突き	-10.1413
漬物	-10.1415
毎月	-10.1418
子孫	-10.142
▁明治時代	-10.1423
京都市左京区	-10.143
るために	-10.1451
合う	-10.1451
負	-10.146
庶民の	-10.1464
用い	-10.1465
当て	-10.1467
地の	-10.1467
流行した	-10.1474
日光	-10.1475
育	-10.1477
もなく	-10.1478
男女	-10.1479
わずか	-10.1479
書道	-10.1493
それらの	-10.1497
奈良市	-10.1498
荷	-10.1501
が中心	-10.1502
の僧侶	-10.1505
威	-10.1506
映	-10.1508
大僧正	-10.1511
渋	-10.1515
姓	-10.1515
最初に	-10.1516
化粧	-10.1516
皆	-10.1517
に基づいて	-10.1517
デザイン	-10.1517
暖	-10.1517
云	-10.1517
婆	-10.1517
調整	-10.1518
鑑賞	-10.1518
細かく	-10.1519
統制	-10.1519
現象	-10.152
意匠	-10.152
以外	-10.1521
箇所	-10.1524
修理	-10.1524
集落	-10.1528
2000	-10.1528
回向	-10.153
事情	-10.153
小さい	-10.1531
をつけ	-10.1532
にまで	-10.1534
日本酒の	-10.1534
58	-10.1534
それまで	-10.1538
会館	-10.1548
同様に	-10.1548
の数	-10.1553
納め	-10.1554
向上	-10.1564
日本における	-10.1572
勤	-10.1595
明王	-10.1604
▁これらは	-10.1605
しさ	-10.1607
穀	-10.1608
くじ	-10.162
の御	-10.1623
体の	-10.1624
複数	-10.1625
趣	-10.163
三曲	-10.1632
▁9	-10.1633
芳	-10.1633
懸	-10.1635
標準	-10.1636
年中行事	-10.1636
全般	-10.1636
千葉県	-10.1636
はなく	-10.1636
伴奏	-10.1637
であることから	-10.1637
民衆	-10.1639
共同	-10.164
高麗	-10.1641
国立	-10.1646
伝えられ	-10.1646
先端	-10.1648
山笠	-10.1653
最初	-10.1654
和風	-10.1657
といえば	-10.1658
許可	-10.1659
絵師	-10.1663
知られる	-10.1667
51	-10.1673
最大の	-10.1683
時宗	-10.1688
以前	-10.1692
すべき	-10.1693
を加え	-10.1701
▁中	-10.1703
残った	-10.1711
修法	-10.1718
抹茶	-10.1721
間の	-10.1722
ごう	-10.1723
側に	-10.1724
は主に	-10.1727
切った	-10.1731
その他	-10.1735
巨	-10.174
上から	-10.1748
一般の	-10.1749
阿弥	-10.175
泰	-10.1751
告	-10.1751
酒造り	-10.1754
曳	-10.1755
恩	-10.1755
85	-10.1756
収穫	-10.1756
寧	-10.1756
杯	-10.1756
こちら	-10.1756
耳	-10.1756
神奈川県	-10.1756
参拝	-10.1757
知識	-10.1758
ものに	-10.1758
セット	-10.1759
秀吉	-10.1761
かき	-10.1763
代用	-10.1766
入れる	-10.1766
を入れた	-10.1768
の時代に	-10.177
会場	-10.1771
の作品	-10.1773
藩主	-10.1773
越前	-10.1773
小路	-10.1774
子の	-10.1776
願い	-10.1779
▁江戸	-10.178
例外	-10.179
山崎	-10.1796
を指し	-10.1798
載せ	-10.1803
▁やがて	-10.1809
仕込み	-10.181
と言って	-10.1811
ものではない	-10.1825
一定の	-10.1829
られており	-10.1834
古くは	-10.1843
事が多い	-10.1844
用いた	-10.1845
ここに	-10.1847
▁新	-10.1849
町の	-10.185
であれば	-10.1861
想	-10.1862
困難	-10.1862
禄	-10.1864
世代	-10.1866
駒	-10.1869
刊	-10.1871
前述の	-10.1875
粗	-10.1875
茂	-10.1876
也	-10.1876
だと	-10.1876
丘	-10.1876
梁	-10.1877
渓	-10.1878
滝	-10.1878
きゅう	-10.1878
危険	-10.1878
幾	-10.1878
絃	-10.1878
剤	-10.1878
を中心とする	-10.1878
描写	-10.1878
福岡県	-10.1879
救済	-10.1879
講談	-10.188
判断	-10.188
49	-10.1882
有力	-10.1884
保管	-10.1884
普及した	-10.1885
細川	-10.1886
金属	-10.1888
カラ	-10.189
大会	-10.189
一覧	-10.1892
著書	-10.1894
光明	-10.1896
付ける	-10.1899
上演	-10.1905
いい	-10.1908
調理法	-10.1909
唐紙	-10.1911
る事	-10.1912
考え方	-10.1914
蒸	-10.1917
カン	-10.1921
お盆	-10.1922
高僧	-10.1923
に分類される	-10.1927
56	-10.193
を見る	-10.193
おん	-10.1933
▁戦後	-10.194
することは	-10.1945
が生まれた	-10.1948
的屋	-10.195
手に	-10.1957
専用の	-10.1957
組合	-10.1968
晩	-10.1971
全国に	-10.1972
乗り	-10.1978
抜け	-10.1981
の本尊	-10.1984
▁中世	-10.1986
中央に	-10.1994
綿	-10.1996
豚	-10.1997
菌	-10.1998
殻	-10.2001
ヌ	-10.2001
作者	-10.2002
キリスト教	-10.2002
魚介類	-10.2002
麩	-10.2002
グループ	-10.2002
埼玉県	-10.2002
嗣	-10.2002
溝	-10.2002
昌	-10.2002
三昧	-10.2002
茶の湯	-10.2003
沖縄県	-10.2003
涅槃経	-10.2007
回忌	-10.2008
平安京	-10.2012
坐	-10.2013
発見	-10.2015
親鸞の	-10.2017
押	-10.202
所に	-10.2022
2001	-10.2026
限り	-10.2027
名が	-10.2031
縄	-10.2034
書かれた	-10.2035
御殿	-10.2036
活躍した	-10.2041
と言い	-10.2047
像は	-10.2058
井上	-10.2062
大正時代	-10.2062
f	-10.2064
41	-10.2071
方は	-10.2074
おく	-10.2075
献	-10.2088
しら	-10.2092
祈	-10.2095
は通常	-10.2096
同一	-10.2098
400	-10.2101
木の	-10.2101
彫	-10.2105
の系統	-10.2112
76	-10.2114
雷	-10.2119
功	-10.2121
▁東	-10.2122
緒	-10.2124
児	-10.2124
見られ	-10.2124
鼻	-10.2126
洞	-10.2126
橘	-10.2127
生涯	-10.2127
蛇	-10.2127
京都市東山区	-10.2127
栗	-10.2127
+	-10.2127
皇族	-10.2127
カレーライス	-10.2128
開設	-10.2128
ブランド	-10.2128
料亭	-10.2128
▁重要文化財	-10.213
処理	-10.2131
礼装	-10.2131
地蔵菩薩	-10.2132
入浴	-10.2132
貼り	-10.2132
)」「	-10.2134
甘味	-10.2134
五郎	-10.2135
組み合わせ	-10.2136
西本願寺	-10.2136
モン	-10.2136
彩色	-10.2137
しめ	-10.2137
中国から	-10.214
安全	-10.2144
一般的	-10.2147
仏の	-10.2149
女性が	-10.2159
近衛	-10.216
黄色	-10.216
きり	-10.2164
一乗	-10.2178
祝い	-10.2179
▁高	-10.2183
仏法	-10.2186
存在した	-10.2186
の記述	-10.219
拠点	-10.2199
に入れ	-10.22
兄弟	-10.2202
バラ	-10.2206
方式	-10.2207
▁当時の	-10.2208
出して	-10.2211
働き	-10.2212
左手	-10.2215
まって	-10.2217
吟醸酒	-10.2227
-1	-10.2237
されない	-10.2245
まと	-10.2245
小笠原	-10.2246
豪	-10.225
芝居	-10.2251
研	-10.2251
寮	-10.2251
柿	-10.2253
苑	-10.2253
鎧	-10.2253
浪	-10.2253
購入	-10.2253
阿闍梨	-10.2253
膳	-10.2253
L	-10.2253
日置流	-10.2253
鈔	-10.2253
千手観音	-10.2254
薬師如来	-10.2254
使用されている	-10.2254
によるもの	-10.2254
表千家	-10.2255
豚肉	-10.2257
江戸時代中期	-10.226
以降の	-10.2261
説がある	-10.2263
ならば	-10.2263
紋様	-10.2264
販売されている	-10.2265
権現	-10.2265
解体	-10.2266
正しい	-10.2268
でなく	-10.227
調味	-10.227
ぶり	-10.2283
する場合	-10.2284
方面	-10.229
として知られる	-10.2297
を描いた	-10.2297
半分	-10.2298
供される	-10.2303
の死後	-10.2304
▁2006	-10.2305
現地	-10.2309
四方	-10.2311
台湾	-10.2329
オー	-10.2329
性を	-10.2341
がよく	-10.2343
米の	-10.2344
瓦	-10.2345
46	-10.2349
梵	-10.2349
みられる	-10.2356
年齢	-10.2362
束	-10.2363
は非常に	-10.2369
98	-10.237
に至る	-10.2372
かれた	-10.2372
アジア	-10.2375
懐	-10.2375
町人	-10.2375
鶏	-10.2375
騎	-10.2377
番茶	-10.2378
猿	-10.2378
隣	-10.2379
が強く	-10.2379
仁和寺	-10.2382
の方が	-10.2382
期待	-10.2385
鶏肉	-10.2385
伝えられた	-10.2385
に含まれる	-10.2386
南禅寺	-10.2386
鳥羽	-10.2387
火葬	-10.2389
単位	-10.2391
丹後	-10.2392
相当	-10.2394
表面に	-10.2395
題目	-10.2395
禅僧	-10.2398
奉行	-10.2399
書物	-10.24
文庫	-10.2402
大臣	-10.2403
こん	-10.2404
▁江戸時代には	-10.2406
東北	-10.2406
とも呼ばれ	-10.2409
向け	-10.242
段階	-10.2422
水分	-10.2425
今日では	-10.2426
64	-10.2427
まき	-10.2429
らせ	-10.243
これも	-10.2431
平安時代の	-10.2433
番目	-10.2439
地名	-10.2442
二十	-10.2445
時は	-10.2447
続いて	-10.2457
宴	-10.2459
▁もともと	-10.2464
自らの	-10.247
天皇が	-10.2476
▁かつては	-10.2481
▁二	-10.2484
食堂	-10.2485
採用	-10.2492
地で	-10.2494
▁水	-10.2497
はあまり	-10.2498
融	-10.25
尽	-10.2502
の一種である	-10.2509
緩	-10.2511
誰	-10.2511
イタリア	-10.2511
〉	-10.2511
和歌山県	-10.2512
飲料	-10.2512
釈尊	-10.2514
系譜	-10.2518
に際して	-10.2518
小笠原流	-10.2519
続き	-10.2526
手で	-10.2529
大陸	-10.2534
軽く	-10.2535
に入れて	-10.2537
をつけて	-10.2538
▁2007	-10.2543
民族	-10.2543
相手	-10.2547
タイ	-10.2547
を設け	-10.2549
分の	-10.2551
化する	-10.2552
観客	-10.2553
天保	-10.2554
起き	-10.2558
の内	-10.2559
さない	-10.2567
52	-10.2572
使われている	-10.2573
▁一方で	-10.2578
開始	-10.258
少年	-10.2591
に分かれ	-10.2592
フランス	-10.2592
をかけて	-10.2594
人々の	-10.2601
他に	-10.2605
ーズ	-10.2612
まち	-10.2617
61	-10.2619
かさ	-10.262
すべての	-10.262
すり	-10.2628
味の	-10.2631
一種の	-10.2634
誌	-10.2636
針	-10.2636
準	-10.2637
と同様	-10.2637
ヘ	-10.2638
方を	-10.2639
63	-10.2641
排	-10.2641
呉	-10.2641
ジェ	-10.2642
瑞	-10.2643
虚	-10.2643
祈祷	-10.2643
畑	-10.2643
雑誌	-10.2643
騎射	-10.2645
店で	-10.2645
育成	-10.2646
輸出	-10.265
貞観	-10.2651
考	-10.2651
おろし	-10.2652
分離	-10.2652
置き	-10.2654
伝わっている	-10.2656
となっていた	-10.2657
数珠	-10.2659
理論	-10.2659
どこ	-10.2669
いっ	-10.2669
を迎える	-10.2677
サイ	-10.268
えない	-10.2687
遺構	-10.2692
来た	-10.2695
作用	-10.2701
かま	-10.2702
射法	-10.2703
▁主な	-10.2706
ただ	-10.2707
認識	-10.271
実用	-10.2715
?	-10.2716
▁たとえば	-10.272
手を	-10.2727
は無い	-10.2728
の戦い	-10.2731
と考え	-10.2739
平安時代中期	-10.2746
日付	-10.2747
神社の	-10.2751
医	-10.2751
春日	-10.2753
家庭で	-10.2754
匠	-10.2768
▁仏教	-10.2771
恋	-10.2776
労	-10.2776
滑	-10.2776
辻	-10.2776
遇	-10.2776
涼	-10.2776
流鏑馬	-10.2776
鵜飼	-10.2776
植え	-10.2779
かれる	-10.2781
差異	-10.2781
会議	-10.2784
年から	-10.2792
行なわれる	-10.2793
大量に	-10.2794
教会	-10.2796
ないため	-10.2796
今日の	-10.2798
格式	-10.2799
が大きく	-10.2799
▁198	-10.28
)、「	-10.2801
伏	-10.2805
農業	-10.2805
晩年	-10.2809
部の	-10.2811
たん	-10.2813
に指定されている	-10.2823
▁浄土真宗	-10.2825
清水	-10.2826
の象徴	-10.283
最後に	-10.2831
中には	-10.2835
のが一般的である	-10.2836
避け	-10.284
さし	-10.284
没した	-10.2847
限定	-10.2847
福寺	-10.285
上記の	-10.2852
洋食	-10.2853
)...	-10.2861
なま	-10.2879
口に	-10.2886
誓	-10.2887
廃止	-10.2887
花見	-10.2887
in	-10.2888
がその	-10.2888
an	-10.289
形式の	-10.2892
57	-10.2892
外側	-10.2893
それは	-10.2896
▁北	-10.2897
普	-10.2897
縫	-10.2899
▁現在でも	-10.29
往	-10.2901
並べ	-10.2904
帖	-10.2905
たちは	-10.2907
隊	-10.291
正倉院	-10.2911
スープ	-10.2911
膝	-10.2911
ファン	-10.2911
中華人民共和国	-10.2911
恒	-10.2911
ヴァ	-10.2911
袍	-10.2911
酛	-10.2911
!	-10.2911
乙	-10.2911
とは別	-10.2912
享保	-10.2914
切る	-10.2916
飛び	-10.2917
政権	-10.2919
鉄板	-10.2921
づくり	-10.2922
上部	-10.2923
当初は	-10.2923
を立て	-10.2924
おき	-10.2926
の様式	-10.2929
織り	-10.293
十八	-10.2933
目に	-10.2935
濃い	-10.2935
作り方	-10.2941
使われる	-10.2944
メートルの	-10.2945
)4	-10.2947
大坂	-10.2951
99	-10.2951
教授	-10.2956
ことによって	-10.2966
者に	-10.2967
インドの	-10.2967
がなく	-10.2977
実際の	-10.2985
唱え	-10.2985
もあるが	-10.299
城の	-10.2999
に師事して	-10.2999
の形式	-10.3008
▁本来	-10.3009
二人	-10.3013
祇園祭	-10.3015
▁お	-10.3025
復	-10.303
に至るまで	-10.3034
なん	-10.3035
致	-10.3035
郭	-10.3036
答	-10.3042
契	-10.3044
伯	-10.3047
迫	-10.3048
競馬	-10.3048
岐阜県	-10.3048
暴	-10.3048
樽	-10.3048
スポーツ	-10.3048
ガラス	-10.3048
山梨県	-10.3049
準備	-10.3049
平安時代に	-10.3049
印象	-10.305
風呂	-10.3051
居住	-10.3054
カップ	-10.3054
権力	-10.3054
当たり	-10.3055
通し	-10.3056
たという	-10.3057
家臣	-10.3059
と言える	-10.3059
研究所	-10.3059
以前に	-10.306
各地	-10.306
包み	-10.306
広げ	-10.3061
1960	-10.3063
西日本	-10.3067
鳥の子	-10.3069
近畿地方	-10.3071
パー	-10.3072
十一面観音	-10.3076
隠し	-10.3077
は日本の	-10.3079
▁翌	-10.308
という説もある	-10.308
唱える	-10.3081
室町	-10.3088
の具	-10.3093
の料理	-10.3094
を付け	-10.31
でもあった	-10.3101
120	-10.3108
が一般的である	-10.3108
ほどの	-10.3108
成り	-10.3116
途中	-10.3125
たが	-10.3126
で知られる	-10.3133
出来る	-10.3137
が良い	-10.3142
いずれ	-10.3144
和紙	-10.316
周囲	-10.3168
出て	-10.317
カル	-10.317
に始まる	-10.3173
呼	-10.3178
学問	-10.3181
on	-10.3181
訪	-10.3184
さま	-10.3184
吟	-10.3186
此	-10.3187
爪	-10.3187
急速に	-10.3187
殆ど	-10.3187
京都で	-10.3188
石川県	-10.3188
キャ	-10.3188
を代表する	-10.3188
洋服	-10.3191
世阿弥	-10.3192
少量	-10.3194
火鉢	-10.3194
事例	-10.3195
埋葬	-10.3195
ることもある	-10.3195
の記録	-10.3196
選定	-10.3199
回転	-10.3202
下り	-10.3204
ふぐ	-10.3204
中止	-10.3207
関東地方	-10.3207
合わせる	-10.3208
合わせた	-10.3211
出雲	-10.3213
他宗	-10.3213
▁これにより	-10.3216
▁長	-10.3216
技術が	-10.3222
選手	-10.3222
晴	-10.323
注文	-10.3232
区分	-10.3233
ma	-10.3238
を与える	-10.3239
書かれ	-10.3247
平面	-10.3249
もこの	-10.3253
以外にも	-10.3254
茹で	-10.3255
上野	-10.3259
で用いられる	-10.3259
・・・	-10.3261
なっていった	-10.3264
で行う	-10.3267
故人	-10.3267
下車	-10.3269
後ろ	-10.3271
信心	-10.3275
マイ	-10.3287
▁近世	-10.3299
和尚	-10.3305
嵯峨	-10.331
をした	-10.331
タイプ	-10.3311
救	-10.3312
午	-10.3314
比較	-10.3315
に大きな	-10.3316
四天王	-10.3317
▁近年では	-10.3317
普及し	-10.332
発達	-10.3326
國	-10.3328
沙	-10.3328
剥	-10.3328
ソメイヨシノ	-10.3328
貴重な	-10.3328
グレゴリオ暦	-10.3328
を兼ね	-10.3328
心を	-10.3329
萬歳	-10.3329
精進料理	-10.333
ことである	-10.3331
合掌	-10.3331
寛政	-10.3333
』・『	-10.3333
控え	-10.3334
協力	-10.3334
生産量	-10.3337
は約	-10.3338
も見られる	-10.3338
エン	-10.334
破風	-10.334
若干	-10.3341
風景	-10.3341
上洛	-10.3342
木材	-10.3345
絵巻	-10.3348
サー	-10.335
と呼ばれていた	-10.3353
開花	-10.3354
トロ	-10.3355
77	-10.3355
つけて	-10.3357
産物	-10.3363
防御	-10.3365
に合わせて	-10.337
89	-10.337
頃まで	-10.3375
のではないか	-10.3376
けて	-10.3381
きょうと	-10.3386
ではあるが	-10.3386
なくなる	-10.3387
べし	-10.339
詳しくは	-10.3397
us	-10.3398
という名称	-10.3402
ってきた	-10.3406
水に	-10.3411
のなかで	-10.3415
わけ	-10.3415
部分が	-10.3423
あわせ	-10.3425
弟子の	-10.3431
と同時に	-10.3431
が行われている	-10.3432
れん	-10.3433
酒は	-10.3437
建てられた	-10.3438
全ての	-10.3444
登場する	-10.3444
昇	-10.3456
拳	-10.3458
笑	-10.3459
泳	-10.3462
藁	-10.3467
せた	-10.3471
塀	-10.3471
閑	-10.3471
群馬県	-10.3471
東南アジア	-10.3471
新潟県	-10.3471
掛軸	-10.3472
の二	-10.3473
ホール	-10.3473
近江国	-10.3474
武将	-10.3474
室町幕府	-10.3474
階級	-10.3477
足袋	-10.348
病気	-10.348
およそ	-10.348
の多い	-10.3481
ーン	-10.3481
替	-10.3485
連合	-10.3487
ダイ	-10.3488
開館	-10.3488
真宗	-10.349
見解	-10.349
に比べて	-10.349
あて	-10.3495
形を	-10.3503
舞う	-10.3504
重量	-10.3505
真実	-10.3505
取った	-10.3505
発展し	-10.3506
阿弥陀仏	-10.3508
を設置	-10.3514
くら	-10.3516
本願	-10.352
使われていた	-10.3521
が残っている	-10.3524
の時代	-10.3528
出た	-10.3529
すい	-10.3531
は少ない	-10.3532
ようになっている	-10.3534
ていなかった	-10.3534
が少ない	-10.3534
認められ	-10.3538
大和国	-10.3557
法師	-10.3563
をとる	-10.3565
中国では	-10.3568
舞い	-10.3568
商人	-10.3572
可能な	-10.3577
価	-10.3577
尾張	-10.3578
の多くは	-10.3581
活用	-10.3587
概念	-10.3594
覧	-10.36
の建物	-10.3604
ナー	-10.3609
俵	-10.3613
74	-10.3615
附	-10.3615
聴	-10.3616
インターネット	-10.3616
獣	-10.3616
太平洋戦争	-10.3616
山形県	-10.3616
権威	-10.3618
分解	-10.3619
プレ	-10.3619
を求める	-10.3619
の高さ	-10.3619
浴衣	-10.3619
味噌汁	-10.3621
律宗	-10.3625
で作られた	-10.3625
混ぜ	-10.3626
▁他に	-10.3628
弘安	-10.3628
▁17	-10.3629
からなる	-10.3632
▁この時	-10.3632
▁本来は	-10.3636
書いた	-10.3638
▁すなわち	-10.3644
茶葉	-10.3651
の発展	-10.3653
参り	-10.3653
トラ	-10.3653
観音菩薩	-10.3655
72	-10.3657
行者	-10.3658
の他に	-10.3664
飾る	-10.3665
ゆう	-10.3671
阿弥陀	-10.3671
ーク	-10.3677
にかけての	-10.3679
人間の	-10.368
茶漬け	-10.368
描かれる	-10.3681
里山	-10.3681
日興	-10.3684
歴史的	-10.3686
ぶん	-10.3687
元和	-10.3687
▁各	-10.3687
に似た	-10.3687
かける	-10.3689
を持っている	-10.3689
を見て	-10.3691
伝わる	-10.37
柔らかく	-10.3702
茶を	-10.3703
釈迦の	-10.3703
日本庭園	-10.3705
紙を	-10.3708
御用	-10.371
が少なく	-10.371
工場	-10.3713
重視	-10.3716
明らか	-10.3726
従来	-10.3727
大人	-10.3728
▁能	-10.3728
を使用し	-10.3733
の乱	-10.3737
別に	-10.3739
がい	-10.374
幕府の	-10.3741
1995	-10.3744
悲	-10.3745
斬	-10.3745
取り入れ	-10.3748
の境地	-10.3749
古墳時代	-10.3751
建て	-10.3753
を多く	-10.3758
のものは	-10.3758
一休	-10.3759
昼	-10.3761
無く	-10.3761
杵	-10.3762
冊	-10.3762
存在し	-10.3763
貨	-10.3763
葵	-10.3763
辰	-10.3763
裸	-10.3763
慣習	-10.3763
訴	-10.3763
園城寺	-10.3763
即位灌頂	-10.3764
熊本県	-10.3764
土塁	-10.3764
倉庫	-10.3764
破壊	-10.3764
項目	-10.3766
達磨	-10.3766
吉野	-10.3766
趣味	-10.3768
浅草	-10.3768
並び	-10.3769
単なる	-10.3769
目録	-10.3774
69	-10.3775
薬師寺	-10.3776
洗い	-10.3779
初期に	-10.3786
の前に	-10.3786
下記の	-10.379
)5	-10.379
江戸時代には	-10.3793
飛鳥時代	-10.3794
実現	-10.3797
書かれている	-10.3798
細い	-10.3798
消費者	-10.3799
手事	-10.38
名所	-10.38
の方	-10.3801
が出る	-10.3804
覆	-10.3804
息子	-10.3819
切って	-10.3819
埋め	-10.382
の問題	-10.3823
歳の時	-10.3826
京阪	-10.3828
十六	-10.3834
扱われ	-10.3837
は不明である	-10.3837
がん	-10.3839
地方では	-10.3841
の屋根	-10.3841
してしまう	-10.3844
一定	-10.385
を説いた	-10.3852
とおり	-10.3855
天平	-10.3855
を作った	-10.3855
大阪の	-10.3856
にん	-10.3858
とされていた	-10.3858
別名	-10.3859
▁京都市	-10.3861
が特徴	-10.3864
音色	-10.3867
の修行	-10.387
けた	-10.3874
▁古代	-10.3877
▁187	-10.3878
参考	-10.3889
手の	-10.389
を始め	-10.389
客が	-10.3891
誉	-10.3891
菱	-10.3897
描かれ	-10.3898
大根	-10.39
箇	-10.3903
識	-10.3906
概	-10.3907
潮	-10.3908
充	-10.3908
激	-10.3909
化された	-10.3909
の技法	-10.391
呪	-10.3911
密教の	-10.3912
そもそも	-10.3912
斗	-10.3912
炎	-10.3912
倭	-10.3912
庄	-10.3912
枕	-10.3912
本格的な	-10.3912
埴輪	-10.3912
アメリカ合衆国	-10.3912
養殖	-10.3912
水墨画	-10.3912
宿泊	-10.3913
感謝	-10.3913
も少なくない	-10.3914
伸び	-10.3914
装置	-10.3915
之助	-10.3919
最終	-10.392
転じて	-10.392
炊き	-10.3921
という意味で	-10.3922
払い	-10.3922
主要	-10.3923
廻	-10.3926
日吉	-10.3927
絵巻物	-10.3928
天下	-10.3929
家に	-10.3931
漢訳	-10.3932
身の	-10.3933
物である	-10.3936
部に	-10.3936
意図	-10.3937
江戸時代後期	-10.394
時点で	-10.3941
みず	-10.3947
方形	-10.3949
日本独自の	-10.3954
▁このとき	-10.396
ざけ	-10.3962
酒類	-10.3966
の強い	-10.3967
新暦	-10.3968
様に	-10.3968
本店	-10.397
の主	-10.3972
矢を	-10.3982
彼の	-10.3983
店が	-10.3984
したのは	-10.3985
アー	-10.3998
食べ物	-10.4
音階	-10.4001
グル	-10.4006
に指定	-10.4006
法印	-10.4006
長男	-10.4011
態	-10.4014
に帰	-10.4016
た後	-10.4017
家屋	-10.4019
もない	-10.4025
は本来	-10.403
を出	-10.4033
山田	-10.4033
徳川	-10.4036
没後	-10.4038
展	-10.4043
についても	-10.4045
▁醤油	-10.4047
握	-10.405
由	-10.405
発見された	-10.4051
下着	-10.4052
憲	-10.4053
響	-10.4053
ri	-10.4057
オン	-10.4057
完	-10.4058
株	-10.4058
仰	-10.406
ゆで	-10.4062
ジョ	-10.4062
迦	-10.4063
斉	-10.4063
其	-10.4064
ワサビ	-10.4064
噺	-10.4064
に於いて	-10.4064
漫才	-10.4064
応仁の乱	-10.4064
が描かれている	-10.4064
ゲーム	-10.4064
に似ている	-10.4065
裏千家	-10.4065
終了	-10.4065
関係者	-10.4065
終わり	-10.4065
賀茂	-10.4065
依頼	-10.4065
81	-10.4066
永禄	-10.4066
仏師	-10.4066
礼拝	-10.4066
連続	-10.4067
資格	-10.4067
上がり	-10.4069
九条	-10.4069
議論	-10.4069
るという	-10.407
並ぶ	-10.407
略称	-10.407
▁東大寺	-10.407
成人式	-10.4071
らん	-10.4071
多少	-10.4072
十一	-10.4074
ばかり	-10.4075
ねん	-10.4077
めん	-10.4083
改め	-10.4084
ナイ	-10.4088
西山	-10.4088
の姿	-10.409
登場した	-10.4093
性質	-10.4094
を掛け	-10.4095
とも称される	-10.4096
奈良時代の	-10.4097
追い	-10.4098
などにも	-10.4099
のではなく	-10.4114
共に	-10.4117
世間	-10.4127
法会	-10.4128
景観	-10.4135
ぼん	-10.4136
発生した	-10.4137
旅行	-10.4138
の由来	-10.4138
合戦	-10.4139
攻	-10.4141
頭に	-10.4144
てから	-10.4146
▁西	-10.4147
清楽	-10.4155
を見せ	-10.4163
されることが多い	-10.4167
命じ	-10.4168
掛ける	-10.417
▁当時	-10.4174
山王	-10.4181
中国語	-10.4182
発売	-10.4185
)11	-10.4188
住民	-10.4188
を形成し	-10.419
直し	-10.4196
出現	-10.4197
という説がある	-10.42
が設置され	-10.4206
の事	-10.4208
延暦	-10.4208
珍	-10.4209
せき	-10.4212
烏	-10.4215
絡	-10.4216
健	-10.4217
▁東京	-10.4217
伽	-10.4217
変わり	-10.4217
積極的に	-10.4217
屈	-10.4217
桃	-10.4217
勇	-10.4217
愚	-10.4217
臼	-10.4217
三重県	-10.4217
召	-10.4217
宮内庁	-10.4218
きわめて	-10.4218
労働	-10.4218
大徳寺	-10.4218
試験	-10.4218
年賀状	-10.4218
ホーム	-10.4218
缶コーヒー	-10.4218
折伏	-10.4219
脇侍	-10.4219
計算	-10.422
va	-10.422
ミカン	-10.422
鶏卵	-10.4221
師匠	-10.4221
千利休	-10.4221
平安時代前期	-10.4222
していたが	-10.4222
っぱ	-10.4225
一致	-10.4226
任命	-10.4228
承和	-10.423
酒が	-10.4231
天然	-10.4231
の開祖	-10.4231
少数	-10.4231
ライス	-10.4232
出てくる	-10.4234
色は	-10.4235
だけではなく	-10.4236
1950	-10.4238
姿で	-10.424
だろう	-10.4241
とくに	-10.4245
へん	-10.4248
しま	-10.4254
日本人の	-10.4254
の行事	-10.4257
をそのまま	-10.4257
とは異なる	-10.4257
信じ	-10.4258
室内	-10.4263
寸法	-10.4266
色が	-10.4267
導師	-10.4277
法律	-10.4278
かえ	-10.4282
▁※	-10.4282
の要素	-10.4283
が登場する	-10.4286
種子	-10.4288
を認め	-10.429
女子	-10.4292
出している	-10.4299
の住持	-10.43
科学	-10.4302
奈良時代に	-10.4307
に任じられ	-10.4307
藩の	-10.4308
の販売	-10.4313
北部	-10.4315
どり	-10.4316
集中	-10.4318
はん	-10.4319
数十	-10.4321
を打ち	-10.4321
ではないか	-10.4324
歌舞伎の	-10.4346
97	-10.4348
創業	-10.4349
産の	-10.4352
肴	-10.4353
必ずしも	-10.4353
拠	-10.4354
説いた	-10.4359
を建て	-10.436
堺	-10.4363
みそ	-10.4363
障	-10.4365
隆盛	-10.4368
に使う	-10.437
弥勒	-10.4371
レストラン	-10.4374
棹	-10.4374
檜	-10.4374
鯨	-10.4374
知恩院	-10.4374
鯛	-10.4374
に限らず	-10.4374
誠	-10.4374
監	-10.4374
W	-10.4374
蒲鉾	-10.4374
に至った	-10.4374
福井県	-10.4374
規則	-10.4375
彼岸	-10.4375
をかけ	-10.4375
ませ	-10.4376
設定	-10.4376
四季	-10.4377
追加	-10.4377
再現	-10.4381
和泉	-10.4381
紅葉	-10.4381
粉末	-10.4382
売られている	-10.4382
代将軍	-10.4383
例として	-10.4385
秘仏	-10.4385
保持	-10.4385
便所	-10.4389
地位	-10.4389
存在しない	-10.439
河内	-10.4394
についての	-10.4396
毎	-10.4397
書写	-10.4405
等に	-10.4406
成立した	-10.4408
秋の	-10.4409
さず	-10.441
を有する	-10.4411
まとめ	-10.4412
通常は	-10.4414
と同様の	-10.4418
諸仏	-10.4418
しなかった	-10.4419
するのは	-10.4421
ところもある	-10.4422
縁日	-10.4422
忍者	-10.4423
95	-10.4431
確立した	-10.4431
をして	-10.4447
187	-10.4449
本殿	-10.4454
書院造	-10.4454
本社	-10.4455
中間	-10.4459
漬	-10.446
疏	-10.4461
主として	-10.4461
食文化	-10.4462
皮を	-10.4462
を重ね	-10.4462
が無い	-10.4467
編纂	-10.4468
外に	-10.4472
部分に	-10.4473
ばれ	-10.4473
大小	-10.4474
伝えた	-10.4481
その上に	-10.4481
78	-10.4488
着用する	-10.449
▁起源	-10.4491
試	-10.45
刺	-10.4502
等を	-10.4507
四国	-10.4507
触	-10.4508
も用いられる	-10.4512
誤	-10.4517
▁これに	-10.4521
駅から	-10.4522
隅	-10.4528
で食べる	-10.453
闘	-10.453
摘	-10.453
借	-10.4531
武士の	-10.4531
脈	-10.4532
難波	-10.4532
アミノ酸	-10.4532
濁	-10.4532
妙心寺	-10.4532
金剛峯寺	-10.4532
猫	-10.4532
w	-10.4533
お茶	-10.4533
V	-10.4533
栄養	-10.4533
を除き	-10.4533
にわたって	-10.4533
ろく	-10.4534
振袖	-10.4534
鑑真	-10.4537
豊富	-10.4538
の他	-10.4541
写本	-10.4541
節句	-10.4542
続いた	-10.4546
資料館	-10.4547
方便	-10.4548
ビル	-10.4554
姿勢	-10.4554
争い	-10.4555
扱う	-10.4556
を指して	-10.4558
昭和初期	-10.4562
まさ	-10.4563
が有名	-10.4564
姿を	-10.4565
er	-10.4567
文政	-10.4567
ハー	-10.4567
目的で	-10.4571
用に	-10.4571
食べ方	-10.4571
付けられた	-10.4572
付けた	-10.4577
ハイ	-10.4581
▁この場合	-10.4582
小さく	-10.4582
に加え	-10.4583
弓の	-10.4584
農家	-10.4588
出演	-10.4593
に属し	-10.4595
当時は	-10.4597
らの	-10.4599
地域では	-10.4604
▁前	-10.4606
呼び名	-10.4606
能力	-10.4607
言う	-10.4611
有名である	-10.4614
東京の	-10.4615
のみが	-10.4615
の代表	-10.4618
方向に	-10.4618
ことができ	-10.4619
東本願寺	-10.4624
日本において	-10.4632
死後	-10.4632
に比べ	-10.4634
南側	-10.4635
を高め	-10.4636
小説	-10.4641
呼ばれる	-10.4649
描かれた	-10.465
160	-10.4652
古く	-10.4652
っか	-10.4662
人口	-10.4662
方の	-10.4664
名号	-10.4664
らなかった	-10.4665
化して	-10.4666
する際に	-10.4668
▁生	-10.4669
130	-10.4669
なければならない	-10.4673
を集め	-10.4674
直後	-10.4676
れい	-10.4678
物が	-10.4681
赤い	-10.4682
臂	-10.4685
人数	-10.4686
73	-10.4687
鴨	-10.4687
輩	-10.4689
呂	-10.4689
陶	-10.4692
凝	-10.4693
香川県	-10.4694
財団法人	-10.4694
福島県	-10.4694
鷲	-10.4694
磐	-10.4694
綾	-10.4694
京都市上京区	-10.4694
薬師	-10.4694
桟	-10.4694
南無阿弥陀仏	-10.4694
掲載	-10.4694
鹿児島県	-10.4694
報告	-10.4695
▁更に	-10.4695
篠笛	-10.4695
演劇	-10.4695
豆乳	-10.4695
題材	-10.4696
成就	-10.4696
ジュ	-10.4696
確保	-10.4697
烏丸	-10.4697
取る	-10.4698
説かれる	-10.4698
1999	-10.4698
色彩	-10.4701
派遣	-10.4701
てしまった	-10.4702
包丁	-10.4702
正統	-10.4702
蒲焼	-10.4706
も同様	-10.4707
寒天	-10.4709
上皇	-10.4709
飲用	-10.4711
例えば	-10.4713
塔頭	-10.4715
を変え	-10.4715
詳細は	-10.4717
▁ところが	-10.4725
称号	-10.4725
送り	-10.4727
外国人	-10.4732
やはり	-10.4734
山科	-10.4735
のほかに	-10.4737
優れ	-10.4739
三河	-10.4741
期に	-10.4742
最近では	-10.4744
する者	-10.4744
を結ぶ	-10.4746
省略	-10.4747
対応	-10.475
神戸	-10.4751
企画	-10.4751
▁当初は	-10.4755
在家	-10.4756
じる	-10.4757
つる	-10.4758
▁かつて	-10.4759
難しい	-10.476
門弟	-10.4764
師の	-10.4765
みつ	-10.4765
よし	-10.4767
られない	-10.4769
万人	-10.4772
祭神	-10.4772
天海	-10.4773
貴族の	-10.4779
住持	-10.478
土間	-10.4781
著名	-10.4787
作家	-10.4787
にち	-10.4789
こうじ	-10.4789
勤め	-10.4797
空海が	-10.48
1993	-10.4802
第二次世界大戦	-10.4804
店の	-10.4806
添え	-10.4806
留め	-10.4811
:「	-10.4812
▁真言宗	-10.4813
がく	-10.4817
ごん	-10.4821
が主	-10.4826
三十	-10.4826
屋根の	-10.4835
を楽しむ	-10.4838
92	-10.4841
そこから	-10.4842
摺	-10.4843
詳細	-10.4844
敗	-10.485
僧都	-10.4853
醸	-10.4855
獲	-10.4856
筑	-10.4856
耐	-10.4856
山荘	-10.4856
そこ	-10.4857
煩悩	-10.4857
鯉	-10.4858
磯	-10.4858
狐	-10.4858
聖徳太子	-10.4858
監督	-10.4858
▁俗姓は	-10.4858
大分県	-10.4858
醪	-10.4858
簾	-10.4858
オープン	-10.4858
キャベツ	-10.4858
硯	-10.4858
唐辛子	-10.4858
検討	-10.4858
参詣	-10.4858
宮廷	-10.4858
貯蔵	-10.4859
世紀前半	-10.4859
混乱	-10.4859
防止	-10.4859
陶器	-10.4859
座布団	-10.486
とも言われている	-10.4861
金箔	-10.4861
団扇	-10.4861
となっており	-10.4862
当然	-10.4862
ランド	-10.4862
話題	-10.4863
衛生	-10.4864
入滅	-10.4865
設備	-10.4866
▁日本で	-10.4866
継ぎ	-10.4867
同士	-10.4871
覚如	-10.4872
を使い	-10.4872
帝国	-10.4873
複雑な	-10.4874
北条	-10.4876
小鼓	-10.4876
パート	-10.4878
法親王	-10.4878
円仁	-10.4879
▁天	-10.488
は中国	-10.4881
入門	-10.4881
直線	-10.4881
僧侶の	-10.4886
長崎	-10.4887
応用	-10.4887
ティー	-10.4895
遺物	-10.4897
明らかに	-10.4899
つける	-10.4901
雅楽の	-10.4901
と考えられ	-10.4901
無い	-10.4905
焼いた	-10.4907
収め	-10.4912
を混ぜ	-10.4913
の地位	-10.4913
煮物	-10.4914
1998	-10.4916
であるとされる	-10.4919
ドラ	-10.4919
悪い	-10.4923
神話	-10.4925
登場	-10.4929
色紙	-10.4938
これまで	-10.4942
もあって	-10.4943
両方	-10.4947
なくなり	-10.4947
低く	-10.4947
▁中国では	-10.4948
部分は	-10.4948
抱え	-10.495
4.	-10.4952
特別な	-10.4956
に多く	-10.4958
▁金	-10.4961
を加えた	-10.4962
朝日	-10.4962
一枚	-10.4967
寺に	-10.4968
まえ	-10.4979
この時代	-10.4979
の中では	-10.4983
独立した	-10.499
美濃	-10.4995
定番	-10.4996
例もある	-10.4999
法名	-10.5001
こく	-10.5006
入りの	-10.5009
こととなった	-10.501
旗	-10.5012
日本においては	-10.5016
の上で	-10.5017
建物の	-10.5018
似た	-10.502
損	-10.5021
萬	-10.5022
掲	-10.5024
餓鬼	-10.5024
縛	-10.5024
帝釈天	-10.5024
酵素	-10.5024
弥生時代	-10.5024
繁殖	-10.5024
輝	-10.5024
京都市右京区	-10.5024
蝶	-10.5024
弔	-10.5024
の一環として	-10.5024
U	-10.5024
容易に	-10.5025
吸収	-10.5025
鞍馬	-10.5025
来迎	-10.5025
授与	-10.5025
吉兆	-10.5025
りする	-10.5025
改革	-10.5026
週間	-10.5026
かどうか	-10.5026
護摩	-10.5026
供給	-10.5026
修験道	-10.5027
▁諱は	-10.5027
利益	-10.5028
仏舎利	-10.5028
伊藤	-10.503
玄関	-10.503
記念館	-10.5033
内側	-10.5033
江戸の	-10.5034
というもの	-10.5035
感覚	-10.5035
て食べる	-10.5036
織田	-10.5037
道教	-10.5042
やき	-10.5042
銀行	-10.5044
死者	-10.5044
海軍	-10.5044
江戸期	-10.5045
削り	-10.5048
近い	-10.5049
再生	-10.5049
たとえ	-10.5049
ノリ	-10.5049
高野	-10.5049
十王	-10.505
の形状	-10.5054
設け	-10.5054
からも	-10.5054
相手の	-10.5057
備前	-10.5057
床の間	-10.5058
蕎麦屋	-10.5059
見られない	-10.5068
という語	-10.5069
ta	-10.507
▁代表的な	-10.5073
サクラ	-10.5078
決め	-10.5082
is	-10.5084
マー	-10.5085
三宝院	-10.509
々に	-10.5091
造形	-10.5093
上方落語	-10.5094
本地	-10.5094
が始まり	-10.5096
を扱う	-10.5098
宗門	-10.5101
料理である	-10.5102
始める	-10.5103
舞鶴市	-10.5104
区別する	-10.5105
関西では	-10.5106
供え	-10.5113
竣工	-10.5114
時間が	-10.5119
地域で	-10.5129
79	-10.513
宝塔	-10.5132
春の	-10.5139
バイ	-10.5151
縁起物	-10.5152
複	-10.5155
を取り入れ	-10.5156
重ねて	-10.5157
っていない	-10.5157
年間に	-10.5159
を開く	-10.516
着る	-10.516
に入	-10.5162
北山	-10.5168
化され	-10.517
遍	-10.5175
▁後	-10.5178
鉾	-10.5181
飴	-10.5184
はこれ	-10.5187
醍醐	-10.5188
偈	-10.5188
楊	-10.5191
軟	-10.5194
預	-10.5194
喪	-10.5194
髷	-10.5194
膠	-10.5194
かき氷	-10.5195
練習	-10.5195
サイズ	-10.5195
味わい	-10.5195
伸ばし	-10.5196
消息	-10.5196
地方自治体	-10.5196
近隣	-10.5196
重要視	-10.5196
静岡	-10.5196
諸説ある	-10.5197
受戒	-10.5197
るか	-10.5197
と言った	-10.5197
増加	-10.5198
残る	-10.5202
刀剣	-10.5203
>	-10.5203
詰	-10.5203
少女	-10.5204
の構造	-10.5204
つま	-10.5205
の皮	-10.5207
▁願	-10.5207
握り	-10.5207
の一つで	-10.5209
社殿	-10.521
▁同年	-10.5211
ウン	-10.5213
が現れ	-10.5218
金沢	-10.5221
家は	-10.5222
著名な	-10.5223
落とし	-10.5226
クリ	-10.5231
のみを	-10.5232
二つの	-10.5232
600	-10.5234
品として	-10.5234
定められた	-10.5234
延長	-10.5234
邦楽	-10.5241
を与え	-10.5246
番組	-10.525
籍	-10.5257
餅を	-10.5257
光院	-10.5259
と称した	-10.526
名塩	-10.5265
商業	-10.5266
に関して	-10.5267
るが	-10.5268
ことが多かった	-10.5271
髪を	-10.5271
日本全国	-10.5275
呼ぶ	-10.5288
手段	-10.5296
のことを指す	-10.5299
小野	-10.5299
でいう	-10.5302
中華	-10.5308
出来ない	-10.5321
供物	-10.5324
世紀の	-10.5329
を学ぶ	-10.5332
見られた	-10.5332
供する	-10.5334
と伝えられている	-10.5337
近畿	-10.5338
有り	-10.5338
新年	-10.5338
を参照のこと	-10.534
日から	-10.5341
いていた	-10.5342
建築様式	-10.5343
91	-10.5344
のもと	-10.5345
払	-10.5348
の形態	-10.5348
茶入	-10.5349
▁最近では	-10.5349
の一人	-10.535
を行って	-10.5351
▁四	-10.5356
66	-10.5358
を知る	-10.5358
語り	-10.5359
丹波	-10.5359
裂	-10.536
▁2008	-10.5362
婚	-10.5362
掘	-10.5362
フェ	-10.5364
っぽ	-10.5364
稲荷	-10.5365
都道府県	-10.5366
貧	-10.5366
あらゆる	-10.5366
イセエビ	-10.5366
大韓民国	-10.5366
羊羹	-10.5366
櫛	-10.5366
一寸法師	-10.5366
アニメ	-10.5366
祐	-10.5366
尻	-10.5366
法相宗	-10.5366
鷺	-10.5366
濾過	-10.5366
明かり障子	-10.5367
弾圧	-10.5368
裁判	-10.5368
整理	-10.5368
陰陽	-10.5369
振興	-10.5369
塩辛	-10.537
円珍	-10.5371
梅若	-10.5373
支持	-10.5373
ばし	-10.5373
建具	-10.5374
さき	-10.5374
のみである	-10.5375
歌詞	-10.5375
行政	-10.5379
印相	-10.5382
料金	-10.5382
移転	-10.5383
ある程度	-10.5384
処分	-10.5386
斎宮	-10.5386
もち米	-10.5388
としていた	-10.5392
トリ	-10.5394
街道	-10.5399
これらは	-10.5399
道路	-10.54
いま	-10.5403
独自に	-10.5405
東洋	-10.5406
行動	-10.5406
文永	-10.5407
華道	-10.5407
発明	-10.5408
と言われ	-10.541
挿	-10.5412
が入る	-10.5413
分布	-10.5415
山城国	-10.5415
他にも	-10.5425
の元	-10.5426
下の	-10.5429
本部	-10.543
まつ	-10.5433
みかん	-10.5434
建てられ	-10.5435
過程で	-10.5436
茶会	-10.5438
人々が	-10.5439
林家	-10.5439
事は	-10.5439
出身の	-10.5439
勧め	-10.5442
のが特徴	-10.5443
以下のように	-10.5443
画面	-10.5444
ものや	-10.5445
議員	-10.5446
酒屋	-10.5457
してしまった	-10.5461
唐手	-10.5463
カビ	-10.5464
るべき	-10.5464
風流	-10.5473
正法	-10.5474
が使われる	-10.5475
点を	-10.5476
グラ	-10.5486
170	-10.5487
▁御	-10.5489
本仏	-10.5499
向けの	-10.5501
事で	-10.5504
物質	-10.5504
百済	-10.5505
あくまで	-10.5507
or	-10.5507
付いた	-10.5508
ことによる	-10.5511
観念	-10.5519
月には	-10.5527
の一つとして	-10.5529
働	-10.5532
▁京	-10.5534
結婚	-10.5538
西方	-10.554
究	-10.5541
毬	-10.5541
峯	-10.5542
真宗大谷派	-10.5542
塵	-10.5542
秦	-10.5542
芯	-10.5542
刺繍	-10.5542
奨励	-10.5542
舞踊	-10.5542
三曲合奏	-10.5543
伊勢神宮	-10.5543
灯籠	-10.5544
荘厳	-10.5544
未満	-10.5545
寄進	-10.5546
大蔵経	-10.5546
改修	-10.5546
行われるようになった	-10.5547
服装	-10.5548
は少なく	-10.5548
東福寺	-10.5549
河原	-10.555
ポン	-10.555
足利	-10.5551
模写	-10.5552
勤行	-10.5552
変え	-10.5552
平安時代末期	-10.5553
を中心として	-10.5553
描かれている	-10.5554
陣屋	-10.5555
遊女	-10.5556
相対	-10.5557
七日	-10.5558
無料	-10.5558
観世流	-10.5558
演奏する	-10.5559
一遍	-10.556
が生まれ	-10.5564
作庭	-10.5565
まったく	-10.5567
家康	-10.5567
の言葉	-10.5568
番号	-10.557
主要な	-10.557
左右に	-10.557
を務めた	-10.5572
東海	-10.5574
山門	-10.5574
記述がある	-10.5576
しゃく	-10.5576
南都	-10.5576
の没後	-10.5581
外部	-10.5582
五十	-10.5584
ではないが	-10.5584
発音	-10.5585
ガン	-10.5585
若い	-10.5586
維持	-10.5587
原則	-10.5588
十郎	-10.5588
派生	-10.559
行く	-10.559
すら	-10.5591
と呼ばれるようになった	-10.5599
後世の	-10.5599
みな	-10.5603
後も	-10.5612
射手	-10.5612
に向かって	-10.5616
同様	-10.5617
大変	-10.5617
ブラ	-10.562
山車	-10.562
ヶ月	-10.5622
を打つ	-10.5622
との関係	-10.5625
世に	-10.5625
かつては	-10.5626
火を	-10.5629
本門	-10.563
好んで	-10.5635
を利用して	-10.5636
婦	-10.5638
と考える	-10.5642
本線	-10.5647
が最も	-10.565
ことや	-10.5651
とは別に	-10.5659
示す	-10.5677
大社	-10.5679
東側	-10.568
が必要である	-10.5681
まれている	-10.5685
▁他の	-10.5688
自体が	-10.5688
帰国	-10.5688
原則として	-10.569
隔	-10.5691
当日	-10.5695
施行	-10.5698
ひら	-10.5699
見える	-10.5705
祓	-10.5708
賜	-10.5712
に登場する	-10.5713
掌	-10.5717
卓	-10.5717
に入れる	-10.5718
肥	-10.5719
環	-10.5719
赴	-10.572
盗	-10.572
澤	-10.572
嫁	-10.572
–	-10.572
琉球	-10.572
具体的な	-10.572
曹	-10.572
アワビ	-10.572
洲	-10.572
笙	-10.572
茨城県	-10.572
笹	-10.572
敦	-10.572
胎蔵界	-10.572
潜	-10.572
升	-10.5721
警察	-10.5721
旋律	-10.5721
加盟	-10.5721
阿修羅	-10.5721
豚カツ	-10.5721
山口県	-10.5721
▁よって	-10.5722
ジャンル	-10.5722
戦闘	-10.5723
受賞	-10.5723
伊賀	-10.5723
開扉	-10.5724
要因	-10.5725
開創	-10.5725
通し矢	-10.5725
拝殿	-10.5725
多様	-10.5729
とは異なり	-10.573
秘密	-10.573
が置かれ	-10.573
傾向にある	-10.5731
のなかに	-10.5732
のが一般的	-10.5733
説話	-10.5735
時代には	-10.5736
双方	-10.5738
ブル	-10.574
明治政府	-10.574
影響を与えた	-10.5742
のひとつである	-10.5742
してから	-10.5743
したもので	-10.5744
号を	-10.5745
敷き	-10.5746
東北地方	-10.5748
を受けている	-10.5749
るのは	-10.5753
たものを	-10.5754
竹刀	-10.5756
会津	-10.5757
和弓	-10.5759
られるようになった	-10.5761
を通して	-10.5767
最後	-10.5769
近代化	-10.5772
▁上記の	-10.5776
と異なり	-10.5794
▁江戸時代の	-10.5798
若者	-10.5801
かね	-10.5801
作られ	-10.5804
分ける	-10.5804
付いて	-10.5817
▁但し	-10.582
分派	-10.5821
-8	-10.5821
二代目	-10.5821
野村	-10.5823
と称して	-10.5824
地上	-10.5824
どん	-10.5829
酸化	-10.583
本体	-10.5831
ものと思われる	-10.5838
遅れ	-10.584
建築物	-10.5842
大本山	-10.5843
それ以前	-10.5848
ができる	-10.5853
山水	-10.5855
音が	-10.5862
御文	-10.5864
傾	-10.5865
説く	-10.5867
であって	-10.5872
会長	-10.5875
稀	-10.5875
分家	-10.5879
大津	-10.588
ようになって	-10.5881
)8	-10.5882
したものを	-10.5882
の関係	-10.5882
離れた	-10.5883
はず	-10.5884
の真言宗の僧	-10.5885
心の	-10.5886
修学	-10.5889
の成立	-10.589
とする説もある	-10.5894
紋付	-10.5895
たため	-10.5898
販売される	-10.5899
の音楽	-10.59
紹	-10.5902
痛	-10.5902
募	-10.5902
壮	-10.5902
篳篥	-10.5902
鳳	-10.5902
千家	-10.5902
たこ焼き	-10.5902
受け継がれ	-10.5903
蒸留	-10.5903
鉄砲	-10.5903
るなど	-10.5904
に仕え	-10.5905
厳しい	-10.5906
有効	-10.5907
相違	-10.5907
友禅	-10.5908
相続	-10.5908
ゴマ	-10.5909
紋章	-10.5909
たか	-10.5911
呼び方	-10.5912
費用	-10.5912
を開始	-10.5914
すこと	-10.5914
先祖	-10.5914
力士	-10.5917
講堂	-10.5918
正しく	-10.5919
茶道具	-10.5922
唯一の	-10.5925
めい	-10.5926
宮津	-10.5926
古今	-10.5928
▁逆に	-10.593
平家	-10.5932
開店	-10.5933
西側	-10.5934
永正	-10.5935
と称された	-10.5936
市川	-10.594
特定	-10.594
部門	-10.5942
ようだ	-10.5943
土産	-10.5944
合成	-10.5945
存在している	-10.5948
▁平成	-10.5949
をかけた	-10.5949
国土	-10.5953
事務	-10.5956
阿弥陀仏の	-10.5958
の裏	-10.5959
住吉	-10.596
ものではなく	-10.5962
であったため	-10.5964
画像	-10.5966
各派	-10.5968
添加	-10.597
必要がある	-10.5974
の際には	-10.5977
とうじ	-10.5978
占	-10.5981
▁文化財	-10.5988
種類がある	-10.5989
やかな	-10.5997
屋号	-10.6002
ではなかった	-10.6005
説もある	-10.6006
しやすい	-10.6006
が多数	-10.6007
的なもの	-10.601
松明	-10.601
節分	-10.6011
▁一般的に	-10.6015
日本へ	-10.6016
周囲に	-10.6018
始まった	-10.6019
形が	-10.6021
十七	-10.6022
ことが出来る	-10.6023
を着用する	-10.6024
伝統的	-10.6025
日本画	-10.6027
帰依	-10.6027
伝えられている	-10.6029
箏の	-10.603
厚く	-10.6031
ないので	-10.6035
鬼の	-10.6036
建設された	-10.604
細く	-10.604
十五	-10.6042
の邸宅	-10.6043
開催される	-10.6045
んでいた	-10.6048
置かれ	-10.6054
会員	-10.606
教化	-10.6064
の各	-10.6065
形は	-10.6066
めし	-10.607
わた	-10.6074
棺	-10.6075
仙台	-10.6076
麗	-10.6078
ついで	-10.6078
湾	-10.608
足利義	-10.6085
狂	-10.6086
索	-10.6086
委員会	-10.6086
鵜	-10.6087
擬	-10.6087
賓	-10.6087
を問わず	-10.6087
傍	-10.6087
茶筅	-10.6087
皇后	-10.6087
衿	-10.6087
般若心経	-10.6087
経由	-10.6087
雰囲気	-10.6087
とも書く	-10.6087
紀元前	-10.6088
油で揚げ	-10.6088
創設	-10.6088
特有の	-10.6088
翻訳	-10.6088
免許	-10.6088
固有の	-10.6088
皇帝	-10.6088
ページ	-10.6088
述べた	-10.6088
長崎県	-10.6088
疑問	-10.6089
珍しい	-10.6089
細工	-10.609
束帯	-10.6091
配慮	-10.6091
後醍醐天皇	-10.6091
絶対	-10.6092
渡来	-10.6092
笑い	-10.6092
師範	-10.6095
中国で	-10.6097
海老	-10.6098
)(16	-10.61
際には	-10.6104
甘み	-10.6105
▁これに対して	-10.6107
動作	-10.6107
開業	-10.6107
低下	-10.6108
手間	-10.6109
引用	-10.611
空海の	-10.6112
はならない	-10.6112
高倉	-10.6113
結成	-10.6115
自身の	-10.6118
像の	-10.6121
▁2005	-10.6122
刺し	-10.6123
▁このほか	-10.6123
毎日	-10.6123
あくまでも	-10.6124
軍事	-10.6128
食器	-10.6129
城主	-10.6141
いう	-10.6142
木製の	-10.6144
演じる	-10.6144
恐れ	-10.6144
奪	-10.6145
世紀頃	-10.6146
などでも	-10.6148
塩分	-10.615
のもとで	-10.6153
▁旧	-10.616
末法	-10.6164
を意味し	-10.6165
ざい	-10.6166
台子	-10.6168
j	-10.6169
誕生した	-10.617
地面	-10.6172
づく	-10.6176
ックス	-10.6188
伝える	-10.619
されることもある	-10.6193
正式	-10.6194
日目	-10.6197
1000	-10.6199
を利用した	-10.6202
代わり	-10.6208
田中	-10.6209
地元の	-10.6213
ぶっ	-10.6214
の思想	-10.6214
晴れ	-10.6217
定着し	-10.6219
に建てられた	-10.6222
全国の	-10.6224
日には	-10.6227
総称	-10.6229
生成	-10.6229
が作られ	-10.623
第四	-10.6234
細長	-10.6236
)10	-10.6236
ガイ	-10.6238
たものである	-10.6249
おい	-10.625
文章	-10.6254
跡地	-10.6255
戦い	-10.6261
研究者	-10.6263
吸	-10.6263
だという	-10.6265
ほとんどが	-10.6268
まし	-10.627
到	-10.6271
免	-10.6271
希	-10.6274
左手に	-10.6274
拾	-10.6275
巣	-10.6276
ビタミン	-10.6276
乏	-10.6276
肝	-10.6276
x	-10.6276
泉涌寺	-10.6276
あらかじめ	-10.6276
モデル	-10.6276
党	-10.6276
島根県	-10.6276
棲	-10.6276
胎	-10.6276
に基づき	-10.6276
桑	-10.6276
閻魔	-10.6276
愛媛県	-10.6276
商標	-10.6277
携帯	-10.6278
継続	-10.6278
弥勒菩薩	-10.6279
羅漢	-10.6279
一向宗	-10.6279
酒粕	-10.628
消滅	-10.6281
経験	-10.6281
広まり	-10.6281
回復	-10.6281
見つかっ	-10.6281
銭湯	-10.6284
塩漬け	-10.6284
木綿	-10.6285
方針	-10.6286
汚	-10.6291
長唄	-10.6292
おかず	-10.6294
田辺	-10.6294
古式	-10.6297
六角	-10.6299
)、『	-10.63
それまでの	-10.63
だから	-10.6303
緑色	-10.6306
戦場	-10.6308
臨時	-10.6309
が存在した	-10.6309
酒質	-10.6312
小紋	-10.6314
内藤	-10.6315
を有し	-10.6316
仏塔	-10.6316
マル	-10.6319
振る	-10.632
十四	-10.6322
に配	-10.6323
全体の	-10.6326
の墓	-10.6326
と称し	-10.6327
▁この頃	-10.6328
月から	-10.6328
現実	-10.6329
代の	-10.6331
とよばれる	-10.6331
八重	-10.6335
整	-10.6342
造像	-10.6342
近年は	-10.6344
▁号は	-10.6344
例である	-10.6345
で作った	-10.6345
流布	-10.6348
ざん	-10.6349
自身が	-10.6359
場合も多い	-10.6362
国産	-10.6363
江戸時代から	-10.6364
▁このことから	-10.637
意義	-10.6376
少なく	-10.6376
sa	-10.6378
室町時代に	-10.638
曜	-10.6382
山内	-10.6383
▁木造	-10.6394
前後に	-10.6396
の長男	-10.6398
京都府京都市	-10.6399
v	-10.64
と読む	-10.64
すぐに	-10.6404
ピー	-10.6406
数え年	-10.641
南宋	-10.6415
感じ	-10.6421
普通の	-10.6421
▁現代の	-10.6422
支え	-10.6423
を守る	-10.6433
などによって	-10.6451
実に	-10.6452
われている	-10.6453
伝書	-10.6456
魏	-10.6462
名称は	-10.6463
大原	-10.6465
用いられていた	-10.6467
篠	-10.6467
槍	-10.6467
戯	-10.6467
幽	-10.6467
惣	-10.6468
妙法蓮華経	-10.6468
兜	-10.6468
宮城県	-10.6468
薪	-10.6468
駐車場	-10.6468
挽	-10.6468
犯	-10.6468
を継いだ	-10.6468
システム	-10.6468
三十三間堂	-10.6468
釘	-10.6468
悦	-10.6468
乞	-10.6468
牧	-10.6468
明神	-10.6468
風呂敷	-10.6469
祝儀	-10.647
不詳	-10.647
口伝	-10.647
勝負	-10.6471
摂津国	-10.6471
不受不施派	-10.6472
善導	-10.6472
香炉	-10.6473
八幡宮	-10.6478
にしたもの	-10.6478
ことはない	-10.648
飲食店	-10.6481
明治期	-10.6481
熊本	-10.6482
無量	-10.6482
大仏殿	-10.6482
2009	-10.6483
に位置し	-10.6483
mm	-10.6484
拳法	-10.6485
春秋	-10.6486
精米	-10.6488
1940	-10.649
いわ	-10.6492
は必ずしも	-10.6494
宝物	-10.6496
小倉	-10.6497
関白	-10.6501
松竹	-10.6502
舞楽	-10.6506
事実上	-10.6509
ながらも	-10.6512
点が	-10.6515
しかも	-10.6518
出され	-10.6518
(187	-10.652
演奏される	-10.652
刀を	-10.6521
和食	-10.6525
大工	-10.6526
炒め	-10.6529
最上	-10.653
の教えを	-10.6532
を超え	-10.6533
を張り	-10.6534
崩れ	-10.6538
そこで	-10.6543
前後の	-10.6544
宴会	-10.6544
大鼓	-10.6546
ってくる	-10.655
三宝	-10.655
内宮	-10.655
たとえば	-10.6553
ていること	-10.6554
事相	-10.6555
の発達	-10.6561
六道	-10.6566
るようになり	-10.6566
五条	-10.6566
上げて	-10.6571
緑茶	-10.6575
.0	-10.6581
造られる	-10.6583
回し	-10.6584
平城	-10.6586
刀身	-10.6591
唐の	-10.6592
▁初	-10.6592
事もある	-10.6604
薬味	-10.6604
京の	-10.6608
炊	-10.6609
邦	-10.661
が最初	-10.6611
に向け	-10.6611
の道具	-10.6616
三世	-10.6617
冬の	-10.6618
門前	-10.6627
もその	-10.6629
無し	-10.6635
められた	-10.6643
もまた	-10.6648
の材料	-10.6649
という言葉が	-10.6656
正確	-10.6658
詣	-10.6659
審査	-10.6664
甚	-10.6664
紗	-10.6664
宗務支所	-10.6664
焚	-10.6664
糊	-10.6664
囲炉裏	-10.6664
朗	-10.6664
メディア	-10.6664
竈	-10.6664
ヒンドゥー教	-10.6664
劫	-10.6664
搗	-10.6664
▁それは	-10.6664
世紀初頭	-10.6665
天武天皇	-10.6665
見た目	-10.6665
▁従って	-10.6665
機構	-10.6666
文殊菩薩	-10.6666
授戒	-10.6667
が入っている	-10.6667
ないもの	-10.6667
皇居	-10.6667
体育	-10.6667
伊豆	-10.6667
精舎	-10.6667
摂取	-10.6668
対策	-10.6668
射撃	-10.6668
カツオ	-10.6669
天の川	-10.667
リーグ	-10.667
800	-10.6671
油揚げ	-10.6671
大いに	-10.6674
1948	-10.6675
草庵	-10.6677
神戸市	-10.6677
米を	-10.6678
果実	-10.6679
人たち	-10.6679
の時に	-10.668
こみ	-10.6681
にとっては	-10.6682
孔子	-10.6684
進む	-10.6686
ルール	-10.6686
焼け	-10.6688
河川	-10.6691
八角	-10.6691
名古屋市	-10.6693
ものを指す	-10.6693
正式な	-10.6694
明暦	-10.6695
以外では	-10.6705
▁関東	-10.6705
千代	-10.6713
既	-10.6715
余り	-10.6715
命名	-10.6718
▁元禄	-10.6728
部位	-10.673
外宮	-10.6731
作例	-10.6734
▁神	-10.6735
使った	-10.6736
○○	-10.6736
遊行	-10.6739
を描く	-10.6743
命を	-10.6746
の目的	-10.6746
基本的な	-10.6752
してある	-10.6753
JR	-10.6754
つぶ	-10.6755
場所に	-10.6756
秘伝	-10.6756
になっていた	-10.6758
現状	-10.6758
松平	-10.6759
▁黒	-10.676
が見える	-10.6765
但し	-10.6768
創始	-10.6776
行い	-10.6782
を占め	-10.6783
かず	-10.6784
明け	-10.6789
されたものである	-10.6789
経文	-10.679
くろ	-10.6796
変化した	-10.6796
と見られる	-10.6796
松本	-10.6801
規模の	-10.6802
等が	-10.6808
などにより	-10.6812
その中で	-10.6813
白米	-10.6816
スク	-10.6817
下部	-10.6827
北側	-10.6828
フラ	-10.6832
もり	-10.6833
長屋	-10.6837
に移転	-10.6838
現れ	-10.684
が存在し	-10.684
最中	-10.6841
っこ	-10.6842
例としては	-10.6842
が使用される	-10.6842
正月に	-10.6843
ここから	-10.6846
として用いられる	-10.6846
割れ	-10.6847
ていて	-10.6848
次第	-10.6852
垂れ	-10.6853
の舞	-10.6855
チェ	-10.6855
ものが多く	-10.6857
ないこと	-10.6858
ることが多い	-10.6861
夏の	-10.6861
改めて	-10.6861
祇	-10.6863
前半	-10.6863
東京国立博物館	-10.6864
彌	-10.6864
ふんどし	-10.6864
壷	-10.6864
嶋	-10.6864
拭	-10.6864
かまぼこ	-10.6864
バリエーション	-10.6864
ヴィ	-10.6864
欠かせない	-10.6864
爆	-10.6864
股	-10.6864
紫宸殿	-10.6864
煉瓦	-10.6864
コレクション	-10.6865
烏帽子	-10.6865
滞在	-10.6865
冷凍	-10.6865
夫婦	-10.6865
変わった	-10.6865
チーム	-10.6866
呪術	-10.6866
存続	-10.6866
ウェ	-10.6867
逸話	-10.6868
細かい	-10.6868
唯一	-10.687
沢庵	-10.6871
江戸時代前期	-10.6872
併せて	-10.6872
弦楽器	-10.6873
横笛	-10.6874
進んだ	-10.6877
で行われた	-10.6878
改正	-10.6879
フグ	-10.688
宝暦	-10.6882
▁その結果	-10.6884
の始まり	-10.6884
ニン	-10.6885
すみ	-10.6886
の教義	-10.6886
するのが	-10.6886
号壁	-10.6889
道を	-10.689
タコ	-10.6895
曜日	-10.6897
上がる	-10.6899
進行	-10.6901
人工	-10.6902
客の	-10.6904
の産地	-10.6904
厨子	-10.6905
審	-10.6908
好き	-10.6914
手前	-10.6916
両手	-10.692
を付けて	-10.6921
京都御所	-10.6923
出土した	-10.6928
それ以外の	-10.6929
人もいる	-10.693
一説には	-10.6932
江戸城	-10.6933
くなった	-10.6934
構	-10.6946
祝日	-10.6949
のう	-10.6949
林寺	-10.6953
合わせて	-10.6959
頃には	-10.696
魚の	-10.6965
を付ける	-10.6967
奏者	-10.6968
ことはなかった	-10.6972
の次男	-10.6975
国会	-10.6978
を出し	-10.6985
の基本	-10.6986
小型の	-10.6986
その名	-10.6987
出世	-10.6989
回目	-10.7008
はまだ	-10.7008
必要な	-10.7011
認め	-10.7013
かたち	-10.7014
を構え	-10.7015
を建立し	-10.7015
移行	-10.7017
様々	-10.7021
仏性	-10.7023
▁幕末	-10.7027
▁近代	-10.7027
に改め	-10.7029
水分を	-10.7031
)※	-10.7032
が有名である	-10.7034
日まで	-10.7035
このころ	-10.7035
麓	-10.7036
験	-10.7036
を著し	-10.7039
ひな	-10.7045
1987	-10.7047
出来た	-10.7048
中央の	-10.7051
たけ	-10.7052
自体は	-10.7053
を一	-10.7054
ゆえに	-10.7056
国道	-10.706
が基本	-10.7061
なみ	-10.7061
伸	-10.7064
討	-10.7064
叡	-10.7066
刑	-10.7067
セン	-10.7068
火縄銃	-10.7068
の基礎	-10.7068
リズム	-10.7068
コンビニエンスストア	-10.7068
砕	-10.7068
袿	-10.7068
岩手県	-10.7068
もっぱら	-10.7068
と改称	-10.7068
符	-10.7068
閏	-10.7068
霞	-10.7069
征夷大将軍	-10.7069
眠	-10.7069
うなぎ	-10.7069
を祖とする	-10.7069
沿革	-10.7069
畿内	-10.7069
にあたって	-10.7069
沿岸	-10.7069
終わった	-10.7069
周濠	-10.7069
足利義満	-10.707
平均	-10.707
立てた	-10.707
天台教学	-10.707
と呼んでいる	-10.707
激しく	-10.707
襖障子	-10.7071
更	-10.7073
永平寺	-10.7073
チャン	-10.7073
興隆	-10.7074
落とす	-10.7074
事務所	-10.7074
大量の	-10.7076
混合	-10.7076
雑煮	-10.7077
建立された	-10.7077
調弦	-10.7077
ともいい	-10.7077
歩く	-10.708
に分けられる	-10.7081
業務	-10.7083
仏典	-10.7085
今井	-10.7086
抑え	-10.7087
安価な	-10.7088
隠元	-10.7089
関西歌舞伎	-10.709
山本	-10.7091
学術	-10.7091
問答	-10.7093
含む	-10.7094
買い	-10.7094
証明	-10.7094
空気	-10.7094
の道	-10.7098
運行	-10.71
方法は	-10.7101
水引	-10.7102
寄り	-10.7103
生地を	-10.7103
調子	-10.7103
がつく	-10.7104
造られ	-10.7104
育て	-10.7104
さか	-10.7106
の復興	-10.7117
俗に	-10.7118
略して	-10.7119
の前身	-10.7119
芸道	-10.712
西洋の	-10.7128
太子	-10.7129
入り口	-10.7132
一般には	-10.7137
泉寺	-10.7139
がよい	-10.7145
の天台宗の僧	-10.7147
元日	-10.7147
現れた	-10.7151
披露	-10.7154
カリ	-10.7156
する場合もある	-10.7157
本土	-10.7157
の作	-10.7161
▁大阪	-10.7164
ばら	-10.7167
進出	-10.7168
漉	-10.7168
女神	-10.7174
と言えば	-10.7176
の語	-10.7179
▁戦国時代	-10.718
肉を	-10.718
見ることができる	-10.7181
数学	-10.7182
シー	-10.7183
140	-10.7185
▁現代では	-10.7185
▁六	-10.7192
茶人	-10.7192
の南	-10.7192
は基本的に	-10.7193
中学校	-10.7198
に限られ	-10.7201
粉を	-10.7204
したのが	-10.7208
池田	-10.721
はほぼ	-10.7211
をのせ	-10.7216
いくつか	-10.7218
位置づけ	-10.7241
の誕生	-10.7242
熊	-10.7243
として使われる	-10.7249
ョ	-10.7249
東国	-10.7254
所作	-10.7256
明治時代以降	-10.7263
淀	-10.7264
考案された	-10.7266
就	-10.7272
互	-10.7274
郷土	-10.7275
桃山	-10.7276
幣	-10.7276
鞠	-10.7277
鵺	-10.7277
しばらく	-10.7277
椀	-10.7277
功績	-10.7277
立川流	-10.7277
猪	-10.7277
デンプン	-10.7277
乃	-10.7277
猛	-10.7277
匹	-10.7277
御土居	-10.7277
〕	-10.7277
〔	-10.7277
聖武天皇	-10.7277
溜	-10.7277
Y	-10.7277
と違い	-10.7277
崩壊	-10.7277
普段	-10.7277
秋田県	-10.7278
審判	-10.7278
失敗	-10.7278
広がり	-10.7279
終わる	-10.7279
変わる	-10.7279
に乗せ	-10.7279
▁原文	-10.728
留袖	-10.728
商売	-10.7281
自宅	-10.7281
の国	-10.7281
ソバ	-10.7282
もらう	-10.7282
有る	-10.7282
公案	-10.7283
老人	-10.7283
懐石	-10.7283
金剛界	-10.7283
サンスクリット語	-10.7285
包む	-10.7286
ボウ	-10.7287
和讃	-10.7287
嵐山	-10.7287
1945	-10.7287
のちの	-10.729
自在	-10.729
火入れ	-10.7292
歌人	-10.7295
コマ	-10.7295
記す	-10.7295
(=	-10.73
物は	-10.7302
天王	-10.7302
小学校	-10.7305
卵を	-10.7308
各種の	-10.731
でもあり	-10.7311
が大きい	-10.7313
源信	-10.7315
長寿	-10.7315
巨大な	-10.7316
ヶ寺	-10.7316
利用される	-10.7316
▁基本的に	-10.7316
金具	-10.7318
化学	-10.7318
料理を	-10.7322
続ける	-10.7323
移築	-10.7324
関西風	-10.7325
木を	-10.7325
出家し	-10.7326
下記	-10.7331
利用する	-10.7332
洋風	-10.7333
ぬき	-10.7334
南朝	-10.7335
を模した	-10.7336
飲食	-10.7337
内観	-10.7343
らせた	-10.7348
なっていく	-10.7349
の文字	-10.735
効果がある	-10.7351
者として	-10.7351
専門店	-10.7352
反り	-10.7354
習慣が	-10.7359
つくり	-10.7361
の末	-10.7363
義経	-10.7365
御前	-10.7365
することもある	-10.7366
じり	-10.7371
全面	-10.7376
階層	-10.7377
大路	-10.7378
宗教的	-10.7385
進んで	-10.7385
ng	-10.739
全体を	-10.7392
三男	-10.7393
料理屋	-10.7393
ちん	-10.7394
明治時代に	-10.7397
ときには	-10.7398
備え	-10.7403
▁北海道	-10.7405
過程	-10.7406
異なり	-10.7409
を伝える	-10.7412
山頂	-10.7413
の出	-10.7416
年以上	-10.7424
内外	-10.743
数多くの	-10.7431
禅寺	-10.7433
石川	-10.7433
(158	-10.7436
ルト	-10.7437
わす	-10.7439
以来の	-10.7439
山形	-10.7442
代表作	-10.7443
~5	-10.7445
三代目	-10.745
本曲	-10.7466
を造る	-10.7466
さまざま	-10.7469
天神	-10.7472
再開	-10.7472
文化が	-10.7473
括	-10.7474
礼服	-10.7476
混同	-10.7477
岳	-10.7477
ところから	-10.7478
駄	-10.7481
短く	-10.7481
で作られる	-10.7481
否	-10.7486
誇	-10.7486
修行者	-10.7487
センチ	-10.7487
刷	-10.7488
材質	-10.7489
弥陀	-10.7489
酔	-10.7489
せられた	-10.7489
鳩摩羅什	-10.7489
葱	-10.749
インターチェンジ	-10.749
高等学校	-10.749
揺	-10.749
稿	-10.749
襦袢	-10.749
遂	-10.749
琵琶湖	-10.749
柏	-10.749
キリシタン	-10.749
驚	-10.749
▁山号は	-10.749
樂	-10.749
を除いて	-10.749
渡り	-10.749
読誦	-10.749
ワキ	-10.749
アルコール添加	-10.749
障害	-10.7491
危機	-10.7491
源頼朝	-10.7491
日本古来の	-10.7491
被害	-10.7491
収録	-10.7491
自治体	-10.7491
メント	-10.7491
簡易	-10.7492
貞享	-10.7492
修復	-10.7492
担ぎ	-10.7492
比率	-10.7492
雪舟	-10.7493
it	-10.7493
kg	-10.7493
国民服	-10.7493
電話	-10.7495
と推定される	-10.7495
想定	-10.7496
分裂	-10.7497
レイ	-10.7497
文化的	-10.7498
建仁寺	-10.7498
濃度	-10.7499
建てた	-10.75
させること	-10.75
経過	-10.75
高度な	-10.7501
再度	-10.7502
オリ	-10.7502
女性用	-10.7503
呼ばれ	-10.7504
井戸	-10.7507
焼き鳥	-10.7509
ておく	-10.7509
原型	-10.7509
を元に	-10.751
講義	-10.7511
連歌	-10.7512
故実	-10.7513
月見	-10.7517
閉じ	-10.7519
焼失した	-10.7519
名誉	-10.752
半ば	-10.7521
を用いている	-10.7521
空海は	-10.7522
ニア	-10.7522
▁構造	-10.7524
っても	-10.7526
定める	-10.7526
▁真	-10.7527
の中から	-10.7527
が挙げられる	-10.7527
馬場	-10.7528
と並んで	-10.7534
枚の	-10.7538
山岳	-10.7538
の製造	-10.7543
ゆみ	-10.7543
できなかった	-10.7544
西暦	-10.7544
▁花	-10.7545
が広く	-10.755
就任	-10.7551
ション	-10.7555
に渡り	-10.756
たちの	-10.7561
オチ	-10.7563
から見て	-10.7565
廃れ	-10.757
を重視し	-10.7571
唐代	-10.7572
いろ	-10.7573
理由で	-10.7573
頭部	-10.7576
食する	-10.7581
にあたり	-10.7583
一般的には	-10.7586
青年	-10.7588
統合	-10.7593
が増えた	-10.7598
勧	-10.76
煎	-10.76
以外は	-10.7602
を見た	-10.7605
岡山	-10.7605
そうした	-10.7606
衛	-10.7606
方法で	-10.7619
社寺	-10.7624
チベット	-10.7629
▁高野山	-10.7633
を乗せ	-10.764
世紀に	-10.7642
を作って	-10.7642
▁中国の	-10.7651
※	-10.7655
ジャー	-10.7655
1989	-10.7656
▁同じ	-10.7658
うる	-10.7658
訪れた	-10.7662
留ま	-10.7666
々と	-10.7667
が起源	-10.7669
1991	-10.7669
▁この時代	-10.7671
互いに	-10.7673
と思われ	-10.7674
もつ	-10.7676
伝えられる	-10.7679
レス	-10.768
▁この他	-10.768
複雑	-10.7687
ているが	-10.7687
ところで	-10.7692
安価	-10.7692
怒	-10.7693
▁詳細は	-10.7694
挟	-10.7696
のほうが	-10.7698
芸者	-10.7698
欄	-10.7701
七条	-10.7702
南西	-10.7703
京都駅	-10.7704
巾	-10.7704
藻	-10.7704
鰹	-10.7704
己	-10.7705
行事として	-10.7705
纏	-10.7705
はっきり	-10.7705
謝	-10.7706
滋賀	-10.7706
z	-10.7707
署	-10.7707
暑	-10.7707
びょう	-10.7707
ともいえる	-10.7707
コンニャク	-10.7707
ぼさつ	-10.7707
スーパーマーケット	-10.7707
五重塔	-10.7707
被葬者	-10.7707
にもかかわらず	-10.7707
蓄	-10.7707
国の史跡に指定され	-10.7707
輔	-10.7707
暁	-10.7707
負担	-10.7707
帽子	-10.7707
があげられる	-10.7708
高知県	-10.7708
自動車	-10.7708
にわたり	-10.7708
洗練	-10.7708
平家物語	-10.7708
東寺長者	-10.7709
ユズ	-10.771
輪郭	-10.771
基盤	-10.7711
の登場	-10.7712
ペン	-10.7712
メイン	-10.7713
イクラ	-10.7713
を構成する	-10.7715
確定	-10.7716
汁粉	-10.7717
日本でも	-10.7718
久遠	-10.7721
珠光	-10.7721
を混ぜて	-10.7722
講師	-10.7725
正月の	-10.7726
起こった	-10.7727
チョ	-10.7729
ッド	-10.7729
以下のような	-10.7729
つけた	-10.7731
観光客	-10.7732
弓馬	-10.7732
和服の	-10.7733
深さ	-10.7735
ねぎ	-10.7736
-7	-10.7737
身頃	-10.7738
多様な	-10.7739
消え	-10.7739
▁のちに	-10.7741
というのは	-10.7746
▁まず	-10.7749
出入り	-10.7752
5%	-10.7753
にあって	-10.7755
を離れ	-10.7755
ようにして	-10.7758
を切り	-10.7758
続けた	-10.776
換え	-10.7771
使用されていた	-10.7772
てき	-10.7775
不可能	-10.7776
北朝	-10.7778
劣化	-10.7778
生じる	-10.7781
のもとに	-10.7782
が残る	-10.7785
始まる	-10.7789
平和	-10.7792
es	-10.7793
ca	-10.7793
ごろから	-10.7802
取り付け	-10.7803
ti	-10.7803
年代以降	-10.7809
遺品	-10.7814
消化	-10.7816
全日本	-10.7818
大蔵	-10.7821
の根	-10.7822
参加者	-10.7824
を集めた	-10.7827
市民	-10.7828
ひとつ	-10.7833
玄室	-10.7833
▁もっとも	-10.7834
尊像	-10.7835
この頃	-10.7845
合同	-10.7846
描いた	-10.7847
歌手	-10.785
地域によって	-10.7854
があるため	-10.7867
▁日本における	-10.7867
が普通	-10.7868
に安置され	-10.7869
都合	-10.7871
木製	-10.7874
チン	-10.7875
なのか	-10.7877
蜜	-10.7885
(160	-10.7885
の概念	-10.7888
きっかけ	-10.789
通説	-10.7891
を感じ	-10.7893
後方	-10.7895
三弦	-10.7898
だら	-10.7898
るようになる	-10.7899
だけを	-10.7902
相伝	-10.7908
が無く	-10.7913
答え	-10.7913
パイ	-10.7915
釣	-10.7915
福岡	-10.7917
徒歩約	-10.7917
議会	-10.7918
携	-10.7918
あらわれ	-10.7918
福知山	-10.7919
)(13	-10.7919
必	-10.7923
湿	-10.7923
無地	-10.7926
徹	-10.7928
舎利	-10.7929
テキスト	-10.7929
鍔	-10.7929
大極殿	-10.7929
饗	-10.7929
タンパク質	-10.7929
堕	-10.7929
擁	-10.7929
プラスチック	-10.7929
桁	-10.7929
ドイツ	-10.7929
毘沙門天	-10.7929
巳	-10.7929
高価な	-10.7929
陀羅尼	-10.7929
万葉集	-10.7929
李	-10.7929
定かではない	-10.7929
舌	-10.7929
團	-10.7929
蘭	-10.7929
交互に	-10.7929
考慮	-10.7929
おこなわれ	-10.793
コーナー	-10.793
が進み	-10.793
普賢菩薩	-10.793
と書く	-10.7931
決まり	-10.7931
民謡	-10.7932
1992	-10.7932
仁親王	-10.7933
野球	-10.7934
今後	-10.7936
伝わり	-10.7936
遺産	-10.7937
1941	-10.7937
龍笛	-10.7938
室町時代中期	-10.7938
てくる	-10.7938
予定	-10.7939
実態	-10.7939
山椒	-10.7939
律師	-10.7939
▁元々は	-10.794
鎌倉幕府	-10.794
成果	-10.7941
を迎え	-10.7942
km	-10.7944
検出	-10.7946
担	-10.7946
大覚寺	-10.7947
シテ方	-10.7947
とも表記	-10.7949
徳利	-10.7949
を安置する	-10.7952
玄米	-10.7958
だったが	-10.796
真理	-10.796
儒	-10.7961
支店	-10.7962
弱い	-10.7964
日本食	-10.7966
後世	-10.7969
廃寺	-10.7973
日本国内	-10.7973
▁近年は	-10.7978
与え	-10.7978
の儀	-10.7983
la	-10.7985
に入れた	-10.7986
日本の伝統的な	-10.7991
つい	-10.7992
生卵	-10.7993
日曜日	-10.7995
越後	-10.7999
ミン	-10.7999
古来から	-10.8
造る	-10.8004
学んだ	-10.8007
かけて	-10.8007
着色	-10.8007
高山	-10.8008
通信	-10.801
神仏	-10.8013
建造	-10.8013
▁興福寺	-10.8015
忠実	-10.8017
絶え	-10.8022
簡単に	-10.8025
名勝	-10.8025
を設ける	-10.8033
武者	-10.8036
の区別	-10.8039
▁ここで	-10.8041
魚を	-10.8044
の周囲	-10.8046
見え	-10.8054
に対しては	-10.8057
上品	-10.8063
を継承し	-10.8066
を言う	-10.8069
実際	-10.807
南無	-10.807
ā	-10.807
▁2000	-10.8073
左右の	-10.8075
いたり	-10.8076
▁以上	-10.8076
大手	-10.8078
ひき	-10.8079
んじん	-10.8087
であることを	-10.809
屋外	-10.809
点から	-10.8096
室町時代の	-10.8097
を務める	-10.8103
結ぶ	-10.8106
分かれ	-10.811
的である	-10.8121
普及する	-10.8125
めの	-10.8127
梅干	-10.8128
山に	-10.8129
は比較的	-10.813
遅	-10.8136
-18	-10.8139
基本的に	-10.8142
ことに由来する	-10.8149
ベース	-10.815
フライ	-10.8151
慮	-10.8151
祥	-10.8152
砲	-10.8153
▁初期の	-10.8154
販	-10.8155
北陸	-10.8155
誘	-10.8156
療	-10.8156
奨	-10.8156
宮崎県	-10.8156
疎	-10.8156
わさび	-10.8156
黄檗宗	-10.8156
青蓮院	-10.8156
巌	-10.8156
謀	-10.8156
窯	-10.8157
頓	-10.8157
クリーム	-10.8157
撮影	-10.8157
枯山水	-10.8157
疫病	-10.8157
報恩	-10.8157
ゆかりの	-10.8157
構築	-10.8157
笠懸	-10.8157
認知	-10.8158
ダイコン	-10.8158
を目指し	-10.8159
荒廃	-10.8159
ジョン	-10.816
透明	-10.816
を主張し	-10.8161
財政	-10.8161
住まい	-10.8161
直垂	-10.8162
せずに	-10.8162
▁別名	-10.8162
財産	-10.8163
智慧	-10.8163
寄付	-10.8164
建久	-10.8165
文禄	-10.8167
▁当時は	-10.8167
相承	-10.8169
とはいえ	-10.817
能楽師	-10.817
結界	-10.8172
▁このうち	-10.8174
厚さ	-10.8175
例がある	-10.8175
対面	-10.8177
ませる	-10.8177
廃城	-10.8177
えい	-10.8178
具足	-10.8179
武芸	-10.818
ニー	-10.8181
清水寺	-10.8182
の遺	-10.8185
他人	-10.8185
黄金	-10.819
故事	-10.819
武田	-10.819
食べて	-10.8191
梅干し	-10.8193
合気	-10.8196
具合	-10.8196
そく	-10.8198
背中	-10.8198
法輪	-10.8201
通夜	-10.8202
とあり	-10.8206
を設立	-10.8207
ドル	-10.8207
する際	-10.8211
祖先	-10.8213
現代では	-10.8216
かは	-10.8216
になっており	-10.8217
(120	-10.822
民俗	-10.8228
第二次世界大戦後	-10.8232
固形	-10.8234
わった	-10.8234
に立ち	-10.8237
に載せ	-10.824
ないよう	-10.8241
も参照	-10.8242
正座	-10.8242
全体に	-10.8244
をつとめ	-10.8246
であることが	-10.8253
昭和時代	-10.8254
次のように	-10.8259
もいる	-10.8261
男性用	-10.8262
大宮	-10.8262
礼法	-10.8267
書風	-10.8267
可能性がある	-10.8267
三輪	-10.8268
ドリ	-10.8275
古流	-10.8282
歌合	-10.8285
したとされる	-10.8285
を付けた	-10.8286
を防ぐ	-10.8288
諸説	-10.8292
演者	-10.8295
を授け	-10.8296
座る	-10.8296
史上	-10.8302
日本各地に	-10.8303
煎茶道	-10.8303
北宋	-10.8317
を超える	-10.832
▁矢	-10.8321
するように	-10.8327
内側に	-10.8328
上り	-10.8328
実際は	-10.8331
かわり	-10.8333
を残し	-10.8335
を切る	-10.8338
巧	-10.8339
白色	-10.834
乾燥させた	-10.834
三蔵	-10.8341
指摘され	-10.8349
仕切	-10.8354
蒸した	-10.8355
石造	-10.836
店では	-10.8361
▁江戸時代に	-10.8368
踊	-10.8374
を取り入れた	-10.8376
称名念仏	-10.838
吊	-10.8381
はじめて	-10.8386
尋	-10.8387
ニュー	-10.8387
を遂げ	-10.8388
狙	-10.8389
を持たない	-10.8389
栃木県	-10.8389
呑	-10.8389
膨	-10.8389
バランス	-10.8389
コロッケ	-10.8389
八坂神社	-10.8389
胤	-10.8389
ふすま	-10.8389
靴	-10.8389
宇宙	-10.8389
諦	-10.8389
貢献	-10.8389
ギャ	-10.8389
新潟	-10.839
支援	-10.839
珍しく	-10.839
伝播	-10.839
奈良県奈良市	-10.8391
臨終	-10.8391
廃絶	-10.8391
すき焼き	-10.8392
漢詩	-10.8392
があること	-10.8392
柔らかい	-10.8393
土俵	-10.8394
境界	-10.8394
阿弥陀堂	-10.8395
蒔絵	-10.8395
代わって	-10.8395
共通する	-10.8395
化したもの	-10.8396
1969	-10.8396
未来	-10.8397
正教会	-10.8397
秋田	-10.8397
東方	-10.8398
増え	-10.8399
山口	-10.84
遺骨	-10.84
どころ	-10.8401
学習	-10.8401
取引	-10.8403
しかない	-10.8404
であったこと	-10.8405
考案	-10.8405
喜多	-10.8405
堺市	-10.8405
を持っていた	-10.8405
ウィ	-10.8406
鷹狩	-10.8407
律令	-10.8407
役職	-10.8408
誤り	-10.8409
自治	-10.8409
天長	-10.841
の動き	-10.8412
上杉	-10.8418
盛平	-10.8419
どちら	-10.8419
という言葉は	-10.8419
皇女	-10.842
をもとに	-10.8422
そうめん	-10.8422
造られている	-10.8427
して食べる	-10.843
に加えて	-10.843
臭い	-10.8432
この時	-10.8434
正殿	-10.8437
が現れる	-10.8439
方言	-10.8439
鎌倉市	-10.844
万円	-10.8442
ようになったのは	-10.8446
辺り	-10.8446
認められる	-10.8451
若手	-10.8451
この世	-10.8452
一日	-10.8454
ぞく	-10.8454
たらこ	-10.8457
それほど	-10.846
僧侶が	-10.8463
積み	-10.8466
に任じられた	-10.8467
ができ	-10.8471
守り	-10.8471
言葉である	-10.8475
を表現する	-10.8476
東日本	-10.8478
門主	-10.8479
基本的には	-10.8482
もちろん	-10.8484
黒田	-10.8485
の影響で	-10.849
実は	-10.8493
中興	-10.8494
販売する	-10.8494
周辺の	-10.8495
やく	-10.8497
ゆく	-10.8499
▁一般的には	-10.85
強化	-10.8501
鎌倉時代に	-10.8504
言えば	-10.8505
▁平安時代の	-10.8506
がち	-10.8507
取り上げられ	-10.8517
した場合	-10.852
浸透	-10.8527
を行なう	-10.8528
1973	-10.8529
ぎん	-10.8529
伝統的に	-10.8531
多くの場合	-10.8534
と称され	-10.8539
に分け	-10.8548
があって	-10.8552
炒	-10.8553
存在していた	-10.8554
用意	-10.8555
側は	-10.8558
ことをいう	-10.8562
理由は	-10.8564
西部	-10.8571
900	-10.8572
1972	-10.8574
が始まった	-10.8577
など様々な	-10.8585
季	-10.8604
蒲	-10.8609
につれ	-10.8613
明確に	-10.8617
一大	-10.862
▁ここでは	-10.862
食料	-10.8621
億	-10.8623
横浜	-10.8623
期には	-10.8623
吉祥	-10.8624
操	-10.8624
雁	-10.8626
潔	-10.8627
厄	-10.8627
柴	-10.8627
慕	-10.8627
絣	-10.8627
テーマ	-10.8627
ワカメ	-10.8627
惑	-10.8627
症	-10.8627
腸	-10.8627
掻	-10.8627
紬	-10.8627
陸奥国	-10.8627
ハンバーグ	-10.8627
おそらく	-10.8627
とも言える	-10.8627
の流れを汲む	-10.8627
叙	-10.8627
沸	-10.8627
蹴鞠	-10.8627
偶	-10.8627
駐	-10.8627
晋	-10.8627
ケチャップ	-10.8627
隋	-10.8627
つなぎ	-10.8628
途絶え	-10.8628
を築いた	-10.8628
始まり	-10.8628
燃料	-10.8628
歓喜	-10.8628
皇太子	-10.8628
ショウガ	-10.8628
を覆う	-10.8628
防衛	-10.8628
山田錦	-10.8628
豪族	-10.8628
追求	-10.8629
義太夫節	-10.8629
の名残	-10.8629
牛乳	-10.863
理想	-10.8631
冬至	-10.8631
海藻	-10.8631
延喜	-10.8631
顔料	-10.8632
融通念仏	-10.8632
ヤマ	-10.8632
淀川	-10.8633
出家して	-10.8633
西大寺	-10.8633
死亡	-10.8633
融合	-10.8634
京都府舞鶴市	-10.8635
1952	-10.8635
ソン	-10.8636
1949	-10.8636
中央区	-10.8636
演武	-10.8636
価値観	-10.8638
荘園	-10.8638
編集	-10.8639
辛口	-10.864
ネタ	-10.8641
日本初の	-10.8641
遠州	-10.8642
大和絵	-10.8642
一旦	-10.8642
シート	-10.8642
死者の	-10.8642
唐揚げ	-10.8643
/201	-10.8643
周り	-10.8644
を載せた	-10.8644
築かれた	-10.8644
忘れ	-10.8647
キリ	-10.8647
細長い	-10.8648
をつくる	-10.8649
決して	-10.8651
四天王寺	-10.8655
現れる	-10.8658
美術品	-10.8658
宗務	-10.866
の前で	-10.866
最終的に	-10.8661
刻み	-10.8663
酸味	-10.8665
山麓	-10.8665
▁本尊は	-10.8666
の日記	-10.8667
配達	-10.8668
豪華な	-10.8669
特性	-10.8674
ユー	-10.8677
(180	-10.8681
仏具	-10.8683
赤色	-10.8687
▁一般には	-10.8687
1985	-10.8687
聞き	-10.869
安楽	-10.8696
役所	-10.8697
という呼称	-10.87
事故	-10.8701
代表的	-10.8702
ちゃん	-10.8702
の良い	-10.8703
煮る	-10.8705
影響を与え	-10.8707
.1	-10.8713
明楽	-10.8714
まれる	-10.8717
蔵元	-10.872
の代表的な	-10.8721
建物は	-10.8723
中尊	-10.8724
枯	-10.8725
衝	-10.8727
一向	-10.8728
現在まで	-10.8731
大王	-10.8735
も含め	-10.8738
法流	-10.8741
1974	-10.8745
古代インド	-10.8749
の姿を	-10.8755
埋	-10.8759
ひろ	-10.8762
花火	-10.8768
しまう	-10.8772
北区	-10.8772
5.	-10.8775
(→	-10.8778
した際	-10.878
一帯	-10.878
本家	-10.8786
南方	-10.8787
離れ	-10.8798
設	-10.8799
届	-10.8803
町屋	-10.8803
の名で	-10.8805
付けて	-10.8806
(118	-10.8807
むら	-10.8817
al	-10.8827
を含め	-10.8834
鉄製	-10.8834
の低い	-10.8836
に師事し	-10.8841
将軍家	-10.8841
こととなる	-10.8842
聖人	-10.8843
見方	-10.8843
に触れ	-10.8847
に指定された	-10.8849
旦	-10.8851
前者	-10.8854
>199	-10.8858
欧	-10.8859
みる	-10.8863
器楽	-10.8863
山伏	-10.8863
と呼んで	-10.8865
粕	-10.8866
幡	-10.8868
雀	-10.8869
バル	-10.8869
醤	-10.887
旋	-10.887
庇	-10.8871
窟	-10.8871
んじゃ	-10.8871
憤	-10.8871
曖昧	-10.8871
西日本旅客鉄道	-10.8871
湧	-10.8871
碧	-10.8871
者不取正覺	-10.8871
晒	-10.8871
鋼	-10.8871
喩	-10.8871
文化財保護法	-10.8871
観世音菩薩	-10.8871
青森県	-10.8871
籤	-10.8871
狩猟	-10.8871
宇多天皇	-10.8871
の臨済宗の僧	-10.8871
繁栄	-10.8872
亡くなった	-10.8872
交換	-10.8872
変遷	-10.8872
促進	-10.8872
幽玄	-10.8872
とりわけ	-10.8872
努力	-10.8873
激しい	-10.8873
足利義政	-10.8873
打撃	-10.8874
若狭	-10.8874
内臓	-10.8874
二の丸	-10.8874
の観点から	-10.8874
サンガ	-10.8875
始祖	-10.8875
農民	-10.8876
プール	-10.8876
入道	-10.8876
さけ	-10.8876
センチメートル	-10.8877
の割合	-10.8877
歩き	-10.8878
便器	-10.8878
まぶし	-10.8878
文化庁	-10.8879
が出て	-10.888
1951	-10.888
東海道	-10.8881
収蔵	-10.8881
午前	-10.8882
香典	-10.8882
東アジア	-10.8882
ベル	-10.8883
長方形	-10.8885
をなす	-10.8886
反発	-10.8887
▁彼は	-10.8887
高まり	-10.8888
ハン	-10.889
日本三大	-10.889
に置く	-10.8891
太鼓台	-10.8891
散楽	-10.8891
続けている	-10.8895
身延	-10.8898
が増え	-10.8898
流罪	-10.8899
▁母は	-10.8904
古筆	-10.8906
客に	-10.8906
変わって	-10.8907
らせる	-10.891
とん	-10.8912
ポー	-10.892
美濃国	-10.8921
のようなもの	-10.8923
松山	-10.8924
間違い	-10.8925
少なくとも	-10.8925
早い	-10.8925
地域もある	-10.8928
上位	-10.8931
越え	-10.8932
音頭	-10.8934
自由に	-10.8935
手首	-10.8936
増し	-10.8941
役目	-10.8946
入れて	-10.8946
蓮如の	-10.8952
図書	-10.8952
哲	-10.8952
説明する	-10.8954
戦国	-10.8955
いったん	-10.8957
浮か	-10.8962
神社建築	-10.8963
連れ	-10.8963
市内	-10.8964
様々である	-10.8967
本質	-10.8971
されていった	-10.8972
抱	-10.8972
に書かれた	-10.8975
抽出	-10.8978
正平	-10.8978
の拠点	-10.8984
を迎えた	-10.8985
北東	-10.8996
次のような	-10.9002
)(12	-10.9002
一緒に	-10.9004
べる	-10.9006
最澄は	-10.901
に通じ	-10.9013
葺き	-10.9022
呼び	-10.9024
与えられる	-10.9025
はすべて	-10.9028
糸を	-10.9029
「○○	-10.9031
さく	-10.9038
に存在する	-10.9039
音楽として	-10.9042
開発された	-10.9042
香木	-10.9045
一郎	-10.905
いなかった	-10.9061
法度	-10.9061
をよく	-10.9062
焼いて	-10.9062
その起源	-10.9066
天明	-10.9076
伝法	-10.9076
唯	-10.9077
ごま	-10.9077
に達し	-10.9077
限られた	-10.9082
触れ	-10.9084
に成立した	-10.9085
ぎり	-10.9085
下げる	-10.9086
残されている	-10.9094
特殊	-10.9095
捨	-10.9101
すき	-10.9103
学派	-10.9104
粘	-10.9104
(155	-10.9106
合せ	-10.9108
二階	-10.9108
独自	-10.9108
ショー	-10.9109
点前	-10.911
親しまれ	-10.9113
が登場し	-10.9113
ことになった	-10.9114
迷	-10.9117
立てる	-10.9118
求められる	-10.9118
茶器	-10.9118
況	-10.912
ということで	-10.912
旬	-10.9121
貢	-10.9121
賊	-10.9121
慰	-10.9121
鏃	-10.9121
樋	-10.9121
券	-10.9121
ひやむぎ	-10.9121
スーパー	-10.9121
闇	-10.9121
勧修寺	-10.9121
京都市中京区	-10.9121
博覧会	-10.9121
本格的に	-10.9121
おこなう	-10.9121
亜	-10.9121
苗	-10.9121
毘	-10.9121
介錯	-10.9121
鉱	-10.9121
ベトナム	-10.9121
淵	-10.9121
創価学会	-10.9121
を目的とした	-10.9122
由緒	-10.9122
詳しい	-10.9122
観無量寿経	-10.9122
ハウス	-10.9122
単独で	-10.9122
遷都	-10.9122
遊戯	-10.9123
崇拝	-10.9123
金属製の	-10.9123
主人公	-10.9123
評判	-10.9123
公認	-10.9123
華やかな	-10.9123
次々と	-10.9124
豊臣	-10.9124
使わない	-10.9124
改築	-10.9124
説かれている	-10.9124
浄土真宗本願寺派	-10.9125
しておく	-10.9126
に準じ	-10.9126
はないが	-10.9126
を生かし	-10.9127
頻繁に	-10.913
供える	-10.913
親しまれている	-10.9131
シソ	-10.9131
を残している	-10.9133
どれ	-10.9133
退治	-10.9135
がほとんど	-10.9136
十二単	-10.9136
和算	-10.9137
取って	-10.9138
につれて	-10.9138
地帯	-10.9138
永久	-10.9139
据え	-10.9139
大福	-10.9139
あわせて	-10.9139
を務め	-10.9142
寿命	-10.9142
摺り	-10.9143
弓射	-10.9145
その中に	-10.9146
チェーン店	-10.9147
▁そのほか	-10.9148
を繰り返し	-10.9149
空手道	-10.9149
美味	-10.9149
聖宝	-10.915
の項を参照	-10.9151
タイプの	-10.9152
を展示	-10.9153
初出	-10.9153
食べた	-10.9153
定着した	-10.9154
そのものが	-10.9155
を置き	-10.9156
檀家	-10.9157
に従って	-10.9159
安芸	-10.9159
甘い	-10.916
関西地方	-10.916
屋町	-10.9161
霊場	-10.9162
前提	-10.9163
仏説	-10.9166
カイ	-10.9173
が用いられた	-10.9174
都市部	-10.9178
出前	-10.9179
太さ	-10.918
取れ	-10.918
を助け	-10.9185
▁字は	-10.9186
人気がある	-10.9187
と同じように	-10.9187
モー	-10.9188
編み	-10.9195
のが特徴である	-10.9195
比叡山に	-10.9197
に使用される	-10.9198
描	-10.92
調べ	-10.9202
店もある	-10.9207
本名	-10.9207
するとき	-10.9208
そで	-10.9209
▁他にも	-10.9212
身につけ	-10.9214
野菜を	-10.9214
香道	-10.9214
内部に	-10.9218
揃え	-10.9219
らによって	-10.9221
休日	-10.9226
春分	-10.9226
中でも	-10.9229
▁台湾	-10.9229
re	-10.9233
階建て	-10.9236
べん	-10.9237
ことができた	-10.9242
を開催	-10.9243
は不明	-10.9244
隠れ	-10.9245
昔から	-10.9248
登場し	-10.9249
コロ	-10.9252
が発達し	-10.9253
まっている	-10.9254
▁JR	-10.9263
両面	-10.9264
を起こし	-10.9265
が加えられ	-10.9267
の無い	-10.9277
貸し	-10.9279
形式である	-10.928
自家	-10.9282
の遺構	-10.9283
徳一	-10.9284
-12	-10.9285
糖化	-10.9288
弟子たち	-10.9289
理由から	-10.9289
の多くが	-10.929
専門の	-10.9299
打つ	-10.9302
と表記され	-10.9302
▁通常は	-10.9302
伝統芸能	-10.9304
真似	-10.9314
参加する	-10.9318
を目的として	-10.9319
芸人	-10.9328
京極	-10.9329
ジー	-10.933
概要	-10.933
利用者	-10.9332
大部分	-10.9334
選ばれ	-10.9336
儒学	-10.9336
蔵人	-10.9336
の一種で	-10.9339
吉村	-10.9345
仏道	-10.9346
を占める	-10.9347
の門人	-10.9348
内では	-10.935
を施した	-10.9354
位置付け	-10.9358
が行われていた	-10.9367
北方	-10.9371
歌舞伎役者	-10.9375
凶	-10.9375
妹	-10.9377
飼	-10.9377
嘆	-10.9377
に残る	-10.9377
酉	-10.9377
藍	-10.9377
データ	-10.9377
スタンド	-10.9377
綴	-10.9377
七福神	-10.9377
爾	-10.9377
翼	-10.9377
翰	-10.9377
菖蒲	-10.9377
搾	-10.9377
鏑	-10.9377
如意輪観音	-10.9377
当道座	-10.9377
衡	-10.9377
鍛錬	-10.9377
窮	-10.9377
幻	-10.9377
什	-10.9377
唐招提寺	-10.9377
を担う	-10.9377
精米歩合	-10.9377
戴	-10.9377
シーズン	-10.9377
コンサート	-10.9377
焦げ	-10.9379
転換	-10.9379
に従い	-10.9379
手裏剣	-10.9379
滅亡	-10.938
を以って	-10.938
回廊	-10.938
能楽協会	-10.9381
ふる	-10.9381
山水図	-10.9381
多宝塔	-10.9382
習俗	-10.9382
延喜式	-10.9383
将来	-10.9383
ヘラ	-10.9384
気候	-10.9384
文字通り	-10.9385
不可	-10.9386
森林	-10.9387
片岡	-10.9387
防具	-10.9387
本拠	-10.9387
池坊	-10.9387
明確な	-10.9389
天部	-10.939
虎口	-10.939
農村	-10.9391
名前の由来	-10.9392
開放	-10.9392
運ぶ	-10.9393
に限って	-10.9393
翌日	-10.9395
明治天皇	-10.9395
理念	-10.9396
正確な	-10.9397
派祖	-10.9399
良源	-10.94
-16	-10.94
その年の	-10.94
国分寺	-10.9401
麺類	-10.9403
真打	-10.9403
を含めた	-10.9404
無かった	-10.9404
技能	-10.9405
狭い	-10.9405
花街	-10.9406
を祈る	-10.9407
女房	-10.9407
なぜ	-10.9407
和太鼓	-10.9409
吉野家	-10.9413
新しく	-10.9415
安永	-10.9416
国指定	-10.9416
度々	-10.9418
厚い	-10.9418
元祖	-10.9421
仏教界	-10.9423
うちに	-10.9425
とみなされ	-10.9427
個性	-10.943
に用いられた	-10.9435
つくられた	-10.9437
蕎麦粉	-10.9438
を創建し	-10.9438
穀物	-10.9438
聖天	-10.9441
留学	-10.9441
版木	-10.9442
繰り	-10.9444
区画	-10.9444
うま	-10.945
することが多い	-10.9454
出版物	-10.9457
祖師	-10.9458
▁中でも	-10.9459
衰え	-10.946
御霊	-10.946
na	-10.946
なれば	-10.9465
につき	-10.9468
対抗	-10.9479
読む	-10.9482
からくり	-10.9483
を襲名	-10.9485
で言う	-10.9485
ローマ	-10.9489
かれている	-10.9493
京都市北区	-10.9496
まとめた	-10.9503
灌頂を受け	-10.9514
に見える	-10.9516
ひとつの	-10.9516
入る	-10.9521
煮た	-10.953
相手を	-10.953
ついに	-10.9531
しゅん	-10.9536
この場合	-10.9539
が成立した	-10.9539
(186	-10.954
で使われる	-10.9544
がかり	-10.955
ことなど	-10.9551
▁前者	-10.9553
文人	-10.9564
小屋	-10.9566
教区	-10.9567
▁その後も	-10.957
途中で	-10.9572
要求	-10.9574
くち	-10.9578
北西	-10.958
ってしまう	-10.9582
ことはできない	-10.9584
茅	-10.9585
te	-10.9585
そん	-10.9594
えり	-10.9594
水平	-10.9599
江戸初期	-10.9601
喫茶	-10.9605
払う	-10.9611
チェーン	-10.9613
を挙げ	-10.9615
わせる	-10.9617
を合わせて	-10.9619
自己	-10.962
食物	-10.9624
歌い	-10.9629
大寺	-10.9629
仏教では	-10.9629
八代	-10.9633
繋	-10.9636
無量寿	-10.9637
徹底	-10.9638
大祭	-10.9639
泊	-10.9639
発酵させ	-10.9639
別れ	-10.9639
有形文化財	-10.964
裕	-10.964
地域によっては	-10.964
呈	-10.964
耶	-10.964
咒	-10.964
をもたらす	-10.964
篤	-10.964
を名乗る	-10.9641
偏	-10.9641
啓	-10.9641
裃	-10.9641
宗教法人	-10.9641
縄文時代	-10.9641
修二会	-10.9641
発泡酒	-10.9641
八木城	-10.9641
柵	-10.9641
神仏習合	-10.9641
キャラクター	-10.9641
ロシア	-10.9641
を掲げ	-10.9641
神護寺	-10.9641
大晦日	-10.9641
輸送	-10.9641
いけない	-10.9641
に所在する	-10.9641
腐敗	-10.9641
を帯び	-10.9641
凡夫	-10.9641
必須	-10.9641
凝固	-10.9641
祭事	-10.9642
児童	-10.9642
大日経	-10.9642
神明造	-10.9642
伊丹	-10.9643
匂い	-10.9644
ようやく	-10.9644
柚子	-10.9645
竹林派	-10.9645
もろ	-10.9645
木喰	-10.9645
規格	-10.9646
獅子舞	-10.9646
声聞	-10.9646
公共	-10.9647
布団	-10.9647
与えられた	-10.9648
結婚式	-10.9649
改善	-10.9649
伊達	-10.9649
資源	-10.9649
鴨川	-10.9649
書籍	-10.965
武田流	-10.965
1946	-10.965
ぐらい	-10.965
地方によっては	-10.965
玉露	-10.965
建武	-10.9651
打楽器	-10.9651
強制	-10.9652
写経	-10.9653
妙法	-10.9654
が非常に	-10.9654
穢れ	-10.9655
原材料	-10.9656
参入	-10.9656
釣り	-10.9657
桜井	-10.9657
に適した	-10.9658
がなされている	-10.9659
蒸す	-10.966
焼香	-10.9661
開基	-10.9661
頼光	-10.9662
執行	-10.9662
たのは	-10.9663
ジン	-10.9663
方丈	-10.9664
家系	-10.9665
陵墓	-10.9668
法皇	-10.967
真乗	-10.9671
発足	-10.9672
ッキ	-10.9674
700	-10.9675
行幸	-10.9677
団地	-10.9678
前日	-10.9679
が好まれる	-10.9682
を提供する	-10.9682
0°	-10.9683
生前	-10.9683
広場	-10.9683
歌謡	-10.9685
分割	-10.969
入口	-10.9691
茅葺	-10.9696
と呼ばれることもある	-10.9698
作曲家	-10.9701
ごとく	-10.9702
決められ	-10.9705
邸宅	-10.9706
販売している	-10.9706
大規模	-10.9714
に行われている	-10.9715
称名	-10.972
も使われる	-10.9722
数字	-10.9725
を備えた	-10.9725
帰り	-10.9734
世日	-10.9735
マス	-10.9745
ゴー	-10.9749
する方法	-10.9751
生業	-10.9752
金銅	-10.9754
を防ぐため	-10.9757
に向けて	-10.9758
に通じる	-10.9759
ガス	-10.9762
pa	-10.9765
日野	-10.9777
熱い	-10.9779
認	-10.9782
勝手	-10.9786
壁面	-10.979
流入	-10.9794
重箱	-10.98
遠く	-10.9801
一時期	-10.9802
ものだ	-10.9805
右手に	-10.9805
崩	-10.9808
リング	-10.9811
箔	-10.9811
下賜	-10.9812
中身	-10.982
三大	-10.9821
チャー	-10.9826
が使われている	-10.9826
いたもの	-10.9829
保存会	-10.9832
に由来し	-10.9838
アラ	-10.9838
がついた	-10.984
伝わっ	-10.9848
なめ	-10.9848
歴史的に	-10.9851
前田	-10.9855
記している	-10.9858
じき	-10.9863
特徴がある	-10.9863
語である	-10.987
広まって	-10.9871
で見られる	-10.9872
したりする	-10.9873
専用	-10.9878
にあわせて	-10.9882
の名は	-10.9888
小川	-10.9891
出店	-10.9892
神々	-10.9894
まれに	-10.9899
新聞社	-10.99
汲	-10.9903
していて	-10.9903
を交配	-10.9903
透	-10.9904
盂蘭盆	-10.9905
察	-10.9907
看	-10.9908
凍	-10.9908
踊る	-10.9909
鎌	-10.991
ルーツ	-10.991
鎖	-10.991
或	-10.991
註	-10.9911
手水鉢	-10.9911
盃	-10.9911
灘	-10.9911
陥	-10.9911
詮	-10.9911
富山県	-10.9911
竿	-10.9911
吐	-10.9911
梨	-10.9911
鮑	-10.9911
丑	-10.9911
を持たせ	-10.9911
武蔵国	-10.9911
貨幣	-10.9911
閉鎖	-10.9911
に応じ	-10.9911
撰述	-10.9911
と見られている	-10.9912
サッカー	-10.9912
が指摘されている	-10.9912
截金	-10.9912
楼閣	-10.9912
子ども	-10.9912
慈悲	-10.9912
梵鐘	-10.9912
殺菌	-10.9912
丘陵	-10.9913
除去	-10.9913
伊予	-10.9913
絶滅	-10.9914
包装	-10.9914
陸軍	-10.9914
を起こす	-10.9915
湿度	-10.9915
阿含	-10.9915
複合	-10.9916
続いている	-10.9917
ボール	-10.9917
風潮	-10.9917
便利	-10.9918
典型的な	-10.9918
白河天皇	-10.9918
カード	-10.9919
瀬戸	-10.9919
電気	-10.9919
区域	-10.992
向かい	-10.992
音を出す	-10.9921
岡崎	-10.9921
精霊	-10.9921
予約	-10.9922
全員	-10.9922
収入	-10.9923
コスト	-10.9924
編成	-10.9925
粘り	-10.9926
建長寺	-10.9926
を表している	-10.9927
を示している	-10.993
踏み	-10.9931
しまい	-10.9931
mg	-10.9934
日本国内で	-10.9935
松尾	-10.9936
を張った	-10.9938
なくても	-10.9939
所在	-10.994
彫り	-10.9941
しようと	-10.9943
天かす	-10.9943
ya	-10.9943
ウマ	-10.9944
料紙	-10.9944
ナン	-10.9946
抜く	-10.9946
に仕えた	-10.9946
有力な	-10.9948
段階で	-10.9948
原理	-10.9949
手事物	-10.995
段位	-10.995
とする説がある	-10.9952
越し	-10.9952
数百	-10.9953
二本	-10.9954
禅定	-10.9958
コク	-10.9961
場合でも	-10.9964
所持	-10.9966
一般化し	-10.9966
の影響を受けて	-10.9967
衰退した	-10.9968
和様	-10.9969
元服	-10.9971
事態	-10.9972
重源	-10.9975
盆地	-10.9977
パリ	-10.9981
代わりに	-10.9981
日本独特の	-10.9986
フォ	-10.9987
できるように	-10.9987
も含む	-10.9996
背景には	-10.9997
ゆき	-10.9999
聖観音	-10.9999
を利用する	-11.0001
玉子	-11.0002
いまだ	-11.0006
傾向がある	-11.0007
外れ	-11.0009
命日	-11.0009
画風	-11.0011
月琴	-11.0015
象徴	-11.0019
によって異なる	-11.0021
1975	-11.0025
条第	-11.0025
外見	-11.0027
工芸品	-11.0028
学ぶ	-11.0028
存在である	-11.0029
と見る	-11.003
太い	-11.0035
んぽ	-11.0035
用法	-11.0035
婦人	-11.0036
負け	-11.0038
人々は	-11.0039
生命	-11.0043
と一緒に	-11.0043
攻め	-11.0046
たところ	-11.0047
作風	-11.0049
渡し	-11.005
っていく	-11.0061
を使うこと	-11.007
オル	-11.007
訪れる	-11.0076
サル	-11.0078
~17	-11.0081
の主流	-11.0087
行っている	-11.0094
を描き	-11.0095
登場している	-11.0099
時代から	-11.0102
換	-11.0104
方等	-11.0106
出品	-11.0108
以前から	-11.011
白川	-11.0112
状のもの	-11.0119
金銀	-11.012
サラ	-11.0121
正面に	-11.0127
ことなどから	-11.0129
を立てる	-11.0135
帳台	-11.0136
京都市内	-11.0137
に見立て	-11.0137
斜面	-11.0146
開催された	-11.0148
技術者	-11.0148
hi	-11.015
工芸	-11.0155
教師	-11.0162
あつ	-11.0162
国の重要文化財	-11.0162
1983	-11.0164
碗	-11.017
着用した	-11.0173
嵐	-11.0175
槽	-11.0179
が主流である	-11.0179
菓	-11.0181
来る	-11.0183
諱	-11.0184
うら	-11.0184
に招かれ	-11.0186
糠	-11.0186
奈	-11.0187
枡	-11.0187
鉦	-11.0188
羊	-11.0188
曾	-11.0188
古事記	-11.0188
宮内省	-11.0188
テーブル	-11.0189
マヨネーズ	-11.0189
婦人標準服	-11.0189
徳島県	-11.0189
櫃	-11.0189
黙	-11.0189
ポイント	-11.0189
おぼろ	-11.0189
燻	-11.0189
タワー	-11.0189
函	-11.0189
を救う	-11.0189
広義には	-11.0189
廂	-11.0189
春日大社	-11.0189
ふりかけ	-11.0189
に伴って	-11.0189
登録有形文化財	-11.019
を祝う	-11.019
もたらされた	-11.019
甘辛	-11.019
短冊	-11.019
技巧	-11.019
復帰	-11.0191
兵庫	-11.0191
数寄屋	-11.0191
収容	-11.0191
漁港	-11.0191
観察	-11.0191
チョウ	-11.0191
天竺	-11.0192
例大祭	-11.0192
受容	-11.0192
を支える	-11.0192
往来	-11.0192
断絶	-11.0193
広告	-11.0193
るのが	-11.0194
送り火	-11.0195
宣言	-11.0195
武田氏	-11.0195
改暦	-11.0196
対照	-11.0196
とも呼ぶ	-11.0197
武家社会	-11.0197
宇治橋	-11.0197
もろみ	-11.0197
追善	-11.0198
念珠	-11.0198
志向	-11.0198
1962	-11.02
河原町	-11.02
展示室	-11.02
想像	-11.02
ショ	-11.0201
なってきている	-11.0201
横浜市	-11.0201
営む	-11.0202
宝珠	-11.0202
創立	-11.0203
丹波国	-11.0203
で構成され	-11.0203
全盛	-11.0203
鎌倉時代後期	-11.0206
巡行	-11.0206
古来より	-11.0207
両端	-11.0208
三角形	-11.0209
日本酒の歴史	-11.0209
直前に	-11.0209
自己の	-11.0213
高温	-11.0214
紅白	-11.0215
名人	-11.0216
おもに	-11.0216
重い	-11.0217
嵯峨天皇	-11.0218
のあいだ	-11.0218
せば	-11.0218
ごろに	-11.022
駅徒歩	-11.0224
新羅	-11.0224
降り	-11.0228
大事	-11.0229
指定文化財	-11.0229
領主	-11.023
実在	-11.0233
ヶ所	-11.0237
インドで	-11.0239
的要素	-11.0239
することがある	-11.024
1930	-11.0245
つね	-11.0245
安土	-11.0249
せつ	-11.0249
で行われている	-11.025
戦時	-11.0251
をかけたもの	-11.0252
曲線	-11.0254
今でも	-11.0256
▁次に	-11.0257
法難	-11.0264
したとき	-11.0265
宗論	-11.027
所有者	-11.0272
三段	-11.0277
書状	-11.0284
厳密には	-11.0291
合流	-11.0293
制定された	-11.0294
貸	-11.0296
ければ	-11.0305
相手に	-11.0311
疏水	-11.0316
誤解	-11.0317
トー	-11.0317
王子	-11.0318
そのうち	-11.0321
大判	-11.0322
何か	-11.0322
紀州	-11.0329
フル	-11.033
三尊	-11.0335
四代目	-11.0337
ーム	-11.0339
事がある	-11.0343
整え	-11.0344
▁ほかに	-11.0345
として用いる	-11.0346
書体	-11.0347
重さ	-11.035
が知られる	-11.035
三国	-11.0353
を開け	-11.0356
江戸時代以降	-11.0361
このとき	-11.0362
濃く	-11.0363
知られた	-11.0365
が難しい	-11.0367
上京	-11.0367
盛り付け	-11.0369
和歌山	-11.0372
着付け	-11.0377
十九	-11.0378
さくら	-11.0378
島原	-11.038
隣接	-11.038
1.5	-11.0383
発展させ	-11.0383
射的	-11.0386
le	-11.0389
諸宗	-11.0397
を挙げる	-11.0398
主導	-11.0399
用として	-11.04
の影響を受け	-11.0416
なれ	-11.0427
銅製	-11.0427
に入ってから	-11.0434
lo	-11.0437
グリ	-11.0437
中山	-11.0437
定められている	-11.0438
一代	-11.0439
メリ	-11.044
論じ	-11.0441
開け	-11.0443
遷	-11.0445
も含めて	-11.0448
うん	-11.045
併	-11.0451
が生じ	-11.0455
寝殿造	-11.0462
▁これに対し	-11.0463
繁	-11.0463
准	-11.0473
危	-11.0473
鹿児島	-11.0473
を呼び	-11.0474
篭	-11.0474
勧学	-11.0474
励	-11.0474
芦	-11.0474
遣唐使	-11.0474
培	-11.0474
古今和歌集	-11.0474
愛染明王	-11.0474
蝋	-11.0474
鳥取県	-11.0474
パターン	-11.0474
かもしれない	-11.0474
衽	-11.0474
エピソード	-11.0474
卵かけご飯	-11.0474
シロップ	-11.0474
愛好家	-11.0474
石州流	-11.0474
伺	-11.0474
征	-11.0474
横穴式石室	-11.0474
謙	-11.0474
ういろう	-11.0474
京都市伏見区	-11.0474
繰り返す	-11.0474
美人画	-11.0474
虚空蔵菩薩	-11.0474
が望ましい	-11.0474
蓬	-11.0474
ユガケ	-11.0474
呼吸	-11.0475
薙刀	-11.0475
もたらした	-11.0475
勧請	-11.0475
個々の	-11.0476
真言律宗	-11.0476
詩吟	-11.0476
を好む	-11.0476
鐘楼	-11.0476
を象徴する	-11.0477
▁諡号は	-11.0477
霊験	-11.0477
珍重され	-11.0478
故郷	-11.0478
御影堂	-11.0478
叩き	-11.0478
宇佐	-11.0478
たいてい	-11.0478
概ね	-11.0478
生み出され	-11.0479
杜氏集団	-11.0479
であると考えられている	-11.0479
とほぼ同じ	-11.0479
永享	-11.048
空襲	-11.0481
ヒット	-11.0482
民間信仰	-11.0482
登場人物	-11.0483
上述の	-11.0483
酒税法	-11.0485
に尽力した	-11.0485
食べられている	-11.0485
混入	-11.0485
間仕切り	-11.0485
1967	-11.0486
頼政	-11.0486
即ち	-11.0486
者もいる	-11.0487
1954	-11.0487
最も古い	-11.0488
世襲	-11.0488
仏陀	-11.0488
が入った	-11.0488
御影	-11.0489
山田流	-11.049
午後	-11.0491
多聞	-11.0491
尊称	-11.0492
案内	-11.0493
徳川家	-11.0496
熱湯	-11.0496
三千家	-11.0496
主珠	-11.0498
階段	-11.05
六条	-11.05
わん	-11.0502
建長	-11.0505
唐草	-11.0506
十二天	-11.0506
使用した	-11.0506
置いて	-11.0507
仙台市	-11.0508
支部	-11.0508
大悲	-11.0508
担い	-11.0509
一面	-11.051
帰る	-11.0511
唐衣	-11.0513
安政	-11.0514
エル	-11.0516
富士山	-11.0518
宇治市	-11.0518
~16	-11.0519
転用	-11.0521
高さ約	-11.0523
幅約	-11.0524
習い	-11.0524
仕掛け	-11.0526
五百	-11.0527
に移り	-11.0531
海岸	-11.0535
釈迦仏	-11.0536
生物	-11.0537
城壁	-11.0539
加えて	-11.0541
主流	-11.0542
記した	-11.0547
仏堂	-11.0548
料理店	-11.0551
文治	-11.0552
二条家	-11.0561
区別される	-11.0563
折れ	-11.0568
世界的に	-11.0568
利用されている	-11.0569
かけた	-11.0572
方角	-11.0573
今も	-11.0576
ッタ	-11.0578
を着る	-11.0583
できず	-11.0587
扱	-11.0594
ポリ	-11.0596
前面	-11.0596
を被	-11.0599
木刀	-11.0612
学部	-11.0613
得意	-11.0619
を残した	-11.0621
三代	-11.0632
に対応し	-11.0632
バン	-11.0641
ルー	-11.0645
▁元は	-11.0651
政治的	-11.0655
(168	-11.066
内にある	-11.066
を採用し	-11.0665
甘く	-11.0665
ることなく	-11.0667
片手	-11.0675
に住し	-11.0679
を演じ	-11.068
をいれ	-11.0683
止める	-11.0684
挿し	-11.0688
違いがある	-11.0694
平時	-11.0695
用具	-11.0698
米飯	-11.07
楽譜	-11.0707
を求め	-11.0715
で使用される	-11.0718
という伝説	-11.0728
などもある	-11.0735
ザー	-11.0738
に師事	-11.0739
五大	-11.0744
に必要な	-11.0745
再建された	-11.0762
を記した	-11.0766
求め	-11.0766
提出	-11.0766
表現される	-11.0766
卿	-11.0766
訪問	-11.0767
陳	-11.0768
棄	-11.0768
誦	-11.0768
迹	-11.0768
后	-11.0768
を用いること	-11.0768
悉	-11.0768
滴	-11.0768
ヴ	-11.0768
おしぼり	-11.0768
惟	-11.0768
おおむね	-11.0768
ゆっくり	-11.0768
萌	-11.0768
貌	-11.0768
ひょう	-11.0768
圓	-11.0768
坪	-11.0768
棗	-11.0768
瞑想	-11.0768
敏	-11.0768
聖護院	-11.0768
あっさり	-11.0768
何度も	-11.0768
八ッ橋	-11.0768
阻	-11.0768
慢	-11.0768
陶磁器	-11.0768
に及ぶ	-11.0768
オリジナル	-11.0768
催馬楽	-11.0768
桓武天皇	-11.0768
一念三千	-11.0768
紺	-11.0769
曇	-11.0769
商店街	-11.0769
繊細	-11.0769
瀧	-11.0769
鯖	-11.0769
元興寺	-11.0769
雌	-11.0769
謂	-11.0769
或いは	-11.0769
広大な	-11.0769
勾当	-11.0769
が出土している	-11.0769
に伴う	-11.0769
文殊	-11.0769
夜叉	-11.077
希望	-11.077
効率	-11.077
を残す	-11.077
麹菌	-11.0771
大幅に	-11.0771
と推定されている	-11.0772
博士	-11.0772
普段着	-11.0772
スペース	-11.0773
クラブ	-11.0773
養老	-11.0773
カフェ	-11.0774
善光寺	-11.0774
補強	-11.0774
こういった	-11.0774
アミ	-11.0774
と記されている	-11.0774
西洋音楽	-11.0775
歩射	-11.0775
ピン	-11.0776
うじ	-11.0777
契約	-11.0777
要請	-11.0777
汲み	-11.0777
吸い物	-11.0777
競馬場	-11.0777
温州	-11.0777
多摩	-11.0778
ウス	-11.0778
吉備	-11.0779
偈文	-11.0779
命令	-11.0779
美しく	-11.078
1953	-11.078
鳥居	-11.0781
始められた	-11.0781
格好	-11.0782
▁その一方で	-11.0782
ハモ	-11.0782
1934	-11.0785
目立つ	-11.0785
大坂城	-11.0785
資金	-11.0785
液体	-11.0788
が設けられ	-11.0788
連ね	-11.0788
地謡	-11.0789
ビン	-11.0791
長らく	-11.0792
主題	-11.0794
隔て	-11.0795
織部	-11.0796
言語	-11.0798
亭主	-11.0799
祭壇	-11.08
本調子	-11.0802
現存している	-11.0804
慶安	-11.0804
(159	-11.0805
、199	-11.0809
囃子方	-11.081
酒母	-11.0811
稀に	-11.0813
を発売	-11.0815
実戦	-11.0816
を参考に	-11.0817
炊いた	-11.0817
に対応する	-11.0819
選ばれた	-11.0819
無理	-11.0821
(169	-11.0823
宝蔵	-11.0824
卒業	-11.0824
波羅蜜	-11.0827
が残されている	-11.0834
各流派	-11.0837
一貫	-11.0837
ぶえ	-11.0838
1979	-11.0838
場合もあり	-11.084
の形に	-11.0843
一般家庭	-11.0847
果物	-11.0847
あわ	-11.0849
表される	-11.0856
同県	-11.0862
つめ	-11.0864
指す	-11.0864
は全く	-11.0865
じつ	-11.0878
神職	-11.0879
大夫	-11.0881
布施	-11.0885
-9	-11.0893
うす	-11.09
いかに	-11.0905
を着用し	-11.0909
獲得	-11.0916
仕舞	-11.0917
側から	-11.0922
根元	-11.0923
小手	-11.0924
一対	-11.0929
たび	-11.0929
得られる	-11.0931
水着	-11.0936
高級な	-11.0942
されず	-11.0948
されることがある	-11.0948
はもちろん	-11.0949
シカ	-11.0952
に乗り	-11.0955
新酒	-11.0959
地形	-11.0964
別々	-11.0969
三味線音楽	-11.0973
月現在	-11.0976
移住	-11.0976
使われるようになった	-11.0986
同時代	-11.0995
程度である	-11.1
することによって	-11.101
清め	-11.1017
坂本	-11.1018
前方後円墳である	-11.1021
同寺	-11.1025
黒い	-11.1035
てゆく	-11.104
帰国した	-11.1045
とみられる	-11.1045
ものだった	-11.1047
ついて	-11.1048
もよい	-11.1048
弟子に	-11.1051
ふれ	-11.1052
斜	-11.1054
頻	-11.1061
仏教における	-11.1061
期間中	-11.1068
ォ	-11.1069
援	-11.1069
天皇陵	-11.107
眉	-11.107
濠	-11.107
係	-11.107
孤	-11.107
凡	-11.1071
華厳	-11.1071
撤	-11.1071
躍	-11.1071
ぢ	-11.1071
六尺褌	-11.1071
粟	-11.1071
カルシウム	-11.1071
&	-11.1071
アクセス	-11.1071
冥	-11.1071
大量生産	-11.1071
市販されている	-11.1071
蒙	-11.1071
瓜	-11.1071
五輪塔	-11.1071
矩	-11.1071
二箇相承	-11.1072
八部衆	-11.1072
栖	-11.1072
続日本紀	-11.1072
斑	-11.1072
鋭	-11.1072
賑	-11.1072
膾	-11.1072
哀	-11.1072
と比べて	-11.1072
⇒	-11.1072
市町村	-11.1072
タイ王国	-11.1072
生田流	-11.1072
佃煮	-11.1072
苦しみ	-11.1072
椅子	-11.1072
やぐら	-11.1072
日本国外	-11.1072
葬式	-11.1072
孔雀	-11.1072
破却	-11.1072
も多かった	-11.1072
灯篭	-11.1072
援助	-11.1073
惣菜	-11.1073
侘び	-11.1073
訓練	-11.1073
に至り	-11.1073
漆塗り	-11.1074
胡麻	-11.1074
摂受	-11.1074
公卿	-11.1074
提灯	-11.1074
引き続き	-11.1074
連絡	-11.1074
グラム	-11.1075
を重視する	-11.1075
日常生活	-11.1076
言及	-11.1076
精進	-11.1076
市街地	-11.1076
華厳経	-11.1077
わけではなく	-11.1077
崩御	-11.1077
印可	-11.1077
食卓	-11.1077
非難	-11.1078
西京極	-11.1078
の入った	-11.1079
丁目	-11.1079
ッシュ	-11.1079
揉み	-11.1079
修羅	-11.108
巻藁	-11.108
完成させた	-11.108
出ている	-11.108
対比	-11.108
解散	-11.108
弁慶	-11.1081
正方形	-11.1081
開眼	-11.1082
シャン	-11.1082
結局	-11.1082
約束	-11.1082
刻んだ	-11.1085
宣伝	-11.1086
入寂	-11.1087
革新	-11.1087
ボン	-11.1088
付加	-11.1089
の一尊	-11.109
創始者	-11.109
えば	-11.109
常住	-11.1091
合計	-11.1091
像容	-11.1092
電子	-11.1094
あま	-11.1094
日常的に	-11.1095
ことがあった	-11.1095
千歳	-11.1096
工法	-11.1097
遺体	-11.1097
で販売されている	-11.1098
年創業	-11.1102
堀川	-11.1102
を着た	-11.1103
ia	-11.1103
ぐる	-11.1104
部材	-11.1105
上がった	-11.1106
誕生日	-11.1106
千葉	-11.1107
なかったため	-11.1108
楽しむ	-11.1109
どのような	-11.1112
1928	-11.1113
長浜	-11.1113
がわかる	-11.1113
袖口	-11.1113
づき	-11.1116
木版	-11.1117
てきている	-11.1122
挙げられる	-11.1123
平氏	-11.1125
法眼	-11.1128
禁止された	-11.1128
宮中で	-11.113
入唐	-11.1133
(133	-11.1139
高価で	-11.114
行基	-11.1147
ことが可能	-11.115
採用され	-11.1154
劣	-11.1168
絵像	-11.1173
隣接する	-11.1175
広がって	-11.118
と述べている	-11.1183
劣る	-11.1184
1977	-11.1192
三角	-11.1193
のことであり	-11.1195
に行く	-11.12
浸透し	-11.1201
戒名	-11.1202
ミリ	-11.1203
がみられる	-11.1205
正宗	-11.1205
化している	-11.1207
大相撲	-11.1212
歌う	-11.1213
巻いた	-11.122
250	-11.1223
沿	-11.1224
欠け	-11.1227
貼	-11.1232
を獲得し	-11.1232
朝食	-11.1235
に移った	-11.1236
を示し	-11.1241
をとって	-11.1242
辛味	-11.1249
最古	-11.1251
衝立	-11.1253
から始まった	-11.1254
七宝	-11.1259
になること	-11.1259
揃	-11.1262
を訪れ	-11.1266
が許され	-11.127
問い	-11.1275
に住した	-11.1277
を広め	-11.1282
素人	-11.1282
なくなって	-11.1287
とほぼ同	-11.1289
民俗学	-11.1292
というのが	-11.1293
(127	-11.1293
平安時代初期	-11.1295
一色	-11.13
をうけ	-11.1302
が始まる	-11.1303
中華料理	-11.1304
-14	-11.1312
を見せる	-11.1314
上手	-11.1314
を禁じ	-11.1321
制作された	-11.1321
が記され	-11.1323
器具	-11.1325
駆	-11.1328
ともいわれ	-11.1328
音域	-11.134
ずら	-11.1342
取り組	-11.1343
開いた	-11.1351
を引く	-11.1352
白く	-11.1359
狩り	-11.1371
役人	-11.1373
輿	-11.1375
揉	-11.1376
は多い	-11.1376
核	-11.1377
を利用し	-11.1377
ダン	-11.1377
緯	-11.1379
杜	-11.1379
巻く	-11.1379
峰山	-11.1381
すず	-11.1382
兆	-11.1382
姉	-11.1384
朱子学	-11.1384
艶	-11.1384
つながり	-11.1384
亥	-11.1384
噛	-11.1384
リスト	-11.1384
京都市下京区	-11.1384
曼殊院	-11.1384
妃	-11.1384
アルコール度数	-11.1384
金剛頂経	-11.1384
鳴らす	-11.1384
患	-11.1384
遁	-11.1384
鳩	-11.1384
インスタント	-11.1384
マグロ	-11.1384
明智光秀	-11.1384
紀伊国	-11.1384
わび茶	-11.1384
蔭	-11.1384
麟	-11.1384
純米酒	-11.1384
倫	-11.1384
NHK	-11.1384
訛	-11.1384
ヲ	-11.1384
框	-11.1384
多宝如来	-11.1384
定額寺	-11.1384
而	-11.1384
▁いっぽう	-11.1384
環濠	-11.1384
イワシ	-11.1384
狭義の	-11.1384
漆喰	-11.1384
刺激	-11.1385
朱雀	-11.1385
中興の祖	-11.1385
ちり	-11.1385
数々の	-11.1385
富士門流	-11.1385
麻呂	-11.1385
押さえ	-11.1385
常設	-11.1386
拝読	-11.1387
衆徒	-11.1388
湿気	-11.1388
こふん	-11.1388
解禁	-11.1388
を以て	-11.139
習得	-11.139
平城京	-11.139
勧学会	-11.139
との交流	-11.1391
甲賀	-11.1391
活字	-11.1391
▁この間	-11.1392
乾燥させる	-11.1392
近辺	-11.1392
を行っていた	-11.1393
音写	-11.1393
大同	-11.1393
表情	-11.1394
盛んになった	-11.1395
異なった	-11.1395
マーク	-11.1395
相談	-11.1396
場合によっては	-11.1396
デン	-11.1396
衣冠	-11.1397
離宮	-11.1397
1968	-11.1398
回収	-11.1399
福知山市	-11.1399
フリー	-11.14
沿い	-11.1402
のいずれか	-11.1402
交配	-11.1402
未だ	-11.1403
勝利	-11.1403
四つ	-11.1403
慈円	-11.1403
記載されている	-11.1405
を指す言葉	-11.1406
外交	-11.1406
くず	-11.1407
調製	-11.1407
ものも多い	-11.1408
発願	-11.1409
を組み合わせた	-11.141
に至って	-11.141
と呼ぶことがある	-11.1411
を許され	-11.1412
照明	-11.1412
内陣	-11.1414
日本舞踊	-11.1414
散らし	-11.1414
差別	-11.1417
引き違い	-11.1419
せられる	-11.142
失われた	-11.1421
キン	-11.1421
母屋	-11.1421
門人	-11.1422
白河	-11.1424
年月日	-11.1424
他宗派	-11.1428
教如	-11.1428
指南	-11.1436
明応	-11.1437
住所	-11.1439
各宗派	-11.1439
が確認されている	-11.1439
保存性	-11.144
東密	-11.144
世尊	-11.1441
ru	-11.1442
ばい	-11.1444
芸風	-11.1447
ばち	-11.145
露地	-11.1455
本朝	-11.1457
風土	-11.1457
利用された	-11.1459
全部	-11.1461
十方	-11.1466
だす	-11.1468
略式	-11.147
筆頭	-11.1471
各々	-11.1473
高知	-11.1476
1978	-11.1478
が設けられた	-11.1481
の化身	-11.1481
形をしている	-11.1486
演芸	-11.1496
指導者	-11.1499
者たち	-11.15
平野	-11.1501
高度	-11.1502
描き	-11.1503
を備え	-11.1505
代替	-11.1506
現世	-11.1507
しようとした	-11.1512
ことば	-11.1515
墓所	-11.1516
五段	-11.1517
許された	-11.152
認められた	-11.1521
おび	-11.1521
の影響を受けた	-11.1523
使い分け	-11.1523
文楽	-11.1529
五徳	-11.153
に備え	-11.1531
五色	-11.1534
を図る	-11.1538
種目	-11.1539
次男	-11.1555
挙げられ	-11.1557
仏教寺院	-11.1557
考えられている	-11.1559
付けられている	-11.1561
si	-11.1567
も増え	-11.1575
切り身	-11.1578
を取って	-11.1578
理由として	-11.158
が確認され	-11.158
を乗せた	-11.1581
勝寺	-11.1587
考えられる	-11.1587
の浄土真宗の僧	-11.1592
平行	-11.1593
長安	-11.1598
にくく	-11.1602
入れた	-11.1603
べく	-11.1608
出発	-11.1609
生酒	-11.1613
和田	-11.1617
わい	-11.162
襲名	-11.1621
に分けて	-11.1628
に住む	-11.1631
として知られている	-11.1636
主人	-11.1641
どちらも	-11.1643
卒	-11.1646
が生じた	-11.165
注目され	-11.1654
宋代	-11.1655
せない	-11.1656
悪人	-11.1659
硬く	-11.1664
固める	-11.1675
しようとする	-11.1679
のぼり	-11.1681
汚れ	-11.1681
後述する	-11.1682
1984	-11.1685
神田	-11.1692
頭上	-11.1692
布袋	-11.1695
マツ	-11.1696
駆け	-11.1697
韓	-11.1697
説が有力	-11.1698
喰	-11.17
曽	-11.1701
徴	-11.1705
促	-11.1705
旭	-11.1706
卯	-11.1706
萩	-11.1706
焙	-11.1706
大日本武徳会	-11.1706
慎	-11.1706
膜	-11.1706
鞘	-11.1706
こんにゃく	-11.1706
手延べ	-11.1707
持ち帰った	-11.1707
高松塚古墳	-11.1707
潤	-11.1707
謎	-11.1707
スパゲッティ	-11.1707
香辛料	-11.1707
スタジアム	-11.1707
穿	-11.1707
と推測されている	-11.1707
玄奘	-11.1707
が定められ	-11.1707
錬	-11.1707
一澤帆布	-11.1707
当該	-11.1707
憂	-11.1707
レシピ	-11.1707
擦	-11.1707
甥	-11.1707
ラジオ	-11.1707
ミルク	-11.1707
輪王寺	-11.1707
千鳥の曲	-11.1707
に関わる	-11.1707
垂迹	-11.1707
に過ぎない	-11.1707
阿弥陀仏の本願	-11.1707
傳	-11.1707
を行なった	-11.1707
嗜好	-11.1707
阿弥陀三尊	-11.1707
大根おろし	-11.1707
ぜんざい	-11.1707
淡麗	-11.1708
権大僧都	-11.1708
親鸞聖人	-11.1708
筑紫	-11.1708
十刹	-11.1708
を置いた	-11.1709
ザクラ	-11.1709
三重塔	-11.1709
褐色	-11.1709
看板	-11.171
申請	-11.171
還俗	-11.171
羽二重	-11.171
人形浄瑠璃	-11.171
選抜	-11.171
徳川幕府	-11.171
隙間	-11.1711
叩く	-11.1711
種々の	-11.1712
だし汁	-11.1712
斜め	-11.1712
京都府宇治市	-11.1712
占め	-11.1714
実験	-11.1714
仏事	-11.1714
津軽	-11.1715
やわらか	-11.1715
ゴム	-11.1716
外郭	-11.1716
廃業	-11.1717
吸い	-11.1718
1961	-11.1718
松浦	-11.1718
早生	-11.1719
戦乱	-11.1719
成熟	-11.1719
明確	-11.1721
治承	-11.1721
正式名称	-11.1721
特徴的な	-11.1721
優位	-11.1721
を置いて	-11.1723
一連の	-11.1723
されるようになり	-11.1725
中国大陸	-11.1725
大津市	-11.1726
前座	-11.1727
仕切り	-11.1727
僧録	-11.1727
石山寺	-11.1728
にならない	-11.1728
どちらか	-11.1728
読経	-11.1729
モノ	-11.1729
1935	-11.173
千鳥	-11.173
義務	-11.173
路線	-11.173
江戸中期	-11.1732
図柄	-11.1734
の項目を参照	-11.1734
延宝	-11.1735
寛正	-11.1736
含み	-11.1737
義満	-11.1738
展示されている	-11.1739
宝永	-11.1741
豊作	-11.1741
下ろし	-11.1742
島津	-11.1743
他界	-11.1744
勝ち	-11.1749
を送る	-11.1749
に際し	-11.1755
とも考えられる	-11.1758
パス	-11.176
びわ	-11.176
普及している	-11.1763
真如	-11.1767
とも呼ばれた	-11.1767
後世に	-11.1768
用いられるようになった	-11.1769
象徴的	-11.1773
ることになった	-11.1774
藤原氏	-11.1778
番地	-11.1778
教室	-11.1781
手がけ	-11.1781
台座	-11.1782
形成された	-11.1784
―『	-11.1784
成形し	-11.1785
重宝	-11.1786
うちわ	-11.1787
一辺	-11.1793
禁じ	-11.1793
社長	-11.1796
演じられる	-11.1797
仏画	-11.1798
観光地	-11.1805
柱間	-11.1814
という概念	-11.182
まわり	-11.1821
南東	-11.1822
頂上	-11.1822
該当	-11.1822
新館	-11.1824
得る	-11.1828
四郎	-11.1831
を唱えた	-11.1835
馬上	-11.1835
創始した	-11.1836
に達する	-11.1836
(157	-11.1836
即位式	-11.1844
が現れた	-11.1854
大文字	-11.1858
迎	-11.186
と指摘	-11.1861
年竣工	-11.1862
長期	-11.1863
通用	-11.1874
詳しく	-11.1878
茹でた	-11.188
という意味である	-11.1881
がなされ	-11.1882
1981	-11.1882
あっても	-11.1884
を再興し	-11.1884
学び	-11.1894
テイ	-11.1897
枯れ	-11.1904
みん	-11.1904
寺院建築	-11.1907
を着て	-11.191
汁物	-11.1911
らぬ	-11.1911
』(『	-11.1916
くなっている	-11.1918
勤める	-11.1923
加える	-11.1926
哲学	-11.193
せっ	-11.1933
見物	-11.1943
天地	-11.1949
鎌倉時代初期	-11.1951
開く	-11.1951
左近	-11.1956
極楽浄土	-11.1971
ってしまった	-11.1984
中宮	-11.1986
本願寺第	-11.1988
を開いて	-11.199
に描かれた	-11.1993
平等	-11.1994
それ以降	-11.1994
和え	-11.1995
橋本	-11.2001
指摘し	-11.2001
~8	-11.2003
包んで	-11.2005
ch	-11.2006
蹴	-11.2012
といえ	-11.2014
般若経	-11.2019
穢	-11.2021
受け入れ	-11.2022
侵	-11.2024
成道	-11.2024
絞	-11.2026
かえって	-11.203
剛	-11.2034
新義真言宗	-11.2037
発見されている	-11.2038
注意が必要である	-11.2038
掃	-11.2039
泣	-11.204
刈	-11.204
土蜘蛛	-11.204
迎賓館	-11.204
百貨店	-11.204
今出川	-11.204
武者小路千家	-11.204
サツマイモ	-11.204
宵	-11.204
勲	-11.204
オーケストラ	-11.204
湛	-11.204
滓	-11.204
ブドウ	-11.204
武徳会	-11.204
シイタケ	-11.204
プロジェクト	-11.204
持統天皇	-11.204
十二神将	-11.204
祠	-11.204
蔀	-11.204
蹟	-11.204
ソフト	-11.204
嘱	-11.204
詔	-11.204
ビジネス	-11.204
しっかり	-11.204
甲冑	-11.204
勢至菩薩	-11.204
既存の	-11.204
長谷寺	-11.204
廃仏毀釈	-11.204
號館	-11.204
広隆寺	-11.204
繋がり	-11.204
南無妙法蓮華経	-11.204
野村万蔵	-11.204
血脈相承	-11.204
併設	-11.204
真如苑	-11.204
撤去	-11.204
滋賀県大津市	-11.204
にとどま	-11.204
重要無形文化財	-11.2041
何らかの	-11.2041
運搬	-11.2041
南方録	-11.2041
拡張	-11.2041
食糧	-11.2041
という考え	-11.2041
釈迦牟尼仏	-11.2042
を終えた	-11.2042
砲術	-11.2042
狩衣	-11.2042
のが普通である	-11.2042
から離れ	-11.2042
II	-11.2043
を願う	-11.2043
築造時期	-11.2044
宗旦	-11.2044
の高弟	-11.2044
合併	-11.2044
低温	-11.2044
子内親王	-11.2044
相互	-11.2045
次いで	-11.2045
雛祭り	-11.2045
温かい	-11.2046
幅広い	-11.2046
渡辺	-11.2046
カレーソース	-11.2047
親族	-11.2047
寛弘	-11.2047
歳のとき	-11.2047
値段	-11.2048
服飾	-11.2049
採取	-11.2049
ゲン	-11.2049
ol	-11.205
踏歌	-11.205
写実	-11.205
季語	-11.2051
顕如	-11.2051
の学僧	-11.2051
銘柄	-11.2052
鳥の子紙	-11.2053
知恵	-11.2053
あえて	-11.2054
書誌	-11.2055
語録	-11.2056
古文書	-11.2056
称える	-11.2056
1932	-11.2058
ワン	-11.2058
完全	-11.2059
加持	-11.2059
標高	-11.2059
熊手	-11.2061
を含めて	-11.2063
気持ち	-11.2063
と称している	-11.2065
無視	-11.2065
藤井	-11.2066
台密	-11.2066
~15	-11.2068
メン	-11.2068
寛平	-11.2069
出土品	-11.207
河内国	-11.2072
江戸時代末期	-11.2072
有利	-11.2072
円満	-11.2076
硬い	-11.2076
台所	-11.2077
越前国	-11.2078
▁以下に	-11.2082
声明	-11.2083
川越	-11.2084
ブリ	-11.2084
絵具	-11.2084
実如	-11.2084
させている	-11.2088
解明	-11.2089
雄町	-11.209
イオン	-11.209
近衛家	-11.2092
を用いず	-11.2092
無常	-11.2099
半島	-11.2101
尊重	-11.2104
願寺	-11.2104
が可能である	-11.2105
樹木	-11.2106
菩提寺	-11.2108
ソー	-11.2109
保存されている	-11.2112
採用された	-11.2114
おいて	-11.2117
とらえ	-11.212
太田	-11.2121
諸派	-11.2127
暦法	-11.2129
をもった	-11.2132
切断	-11.2137
主食	-11.214
入母屋造	-11.2144
に来る	-11.2152
の名手	-11.2155
住む	-11.216
変形	-11.216
開かれた	-11.2168
貼る	-11.218
火事	-11.2184
地歌三味線	-11.2185
背後	-11.2186
日本各地で	-11.2191
胡弓楽	-11.2192
ようになっていった	-11.2194
?-	-11.2194
神格	-11.2197
(166	-11.2206
感じる	-11.2213
を施す	-11.2213
と主張し	-11.2213
と呼ぶようになった	-11.2214
玄人	-11.2219
二分	-11.2228
場合が多く	-11.2239
原産	-11.225
高級品	-11.2252
科学的	-11.2254
てしまい	-11.226
フォー	-11.2262
つとめ	-11.2266
を求めて	-11.227
(128	-11.2275
を導入し	-11.2289
蔵書	-11.229
進化	-11.2296
出家した	-11.2298
木像	-11.2302
ということである	-11.2302
独立して	-11.2303
返す	-11.2307
酢飯	-11.2312
原形	-11.232
現代でも	-11.2324
歴史上	-11.2325
上級	-11.2331
と言われた	-11.2334
カタ	-11.2338
後見	-11.234
小松	-11.2346
トウ	-11.235
咲	-11.2363
抜いて	-11.2363
音程	-11.2371
唐物	-11.2372
竹林	-11.2374
廊	-11.2374
和暦	-11.2376
鋳	-11.2382
磁	-11.2383
吾	-11.2384
淳	-11.2384
無形文化財	-11.2384
牙	-11.2384
を行うこと	-11.2384
疾	-11.2384
渦	-11.2385
シリーズ	-11.2385
タマネギ	-11.2385
壽	-11.2385
小田原	-11.2385
石清水八幡宮	-11.2385
贅沢	-11.2385
むすび	-11.2385
串に刺し	-11.2385
須弥壇	-11.2385
コンクリート	-11.2385
ほうじ茶	-11.2385
まいづる	-11.2385
単純な	-11.2385
シンボル	-11.2385
印明伝授	-11.2385
太政官	-11.2385
後水尾天皇	-11.2385
かんざし	-11.2385
をあらわす	-11.2385
掘立柱	-11.2385
有職故実	-11.2385
贈答品	-11.2385
信濃国	-11.2385
懺悔	-11.2385
ハワイ	-11.2385
天満宮	-11.2385
鳳凰	-11.2385
鍵	-11.2385
四十九日	-11.2385
捧げ	-11.2385
秒	-11.2385
藤原道長	-11.2385
城下町	-11.2385
木津川	-11.2385
スペイン	-11.2385
アニメーション	-11.2385
亀の尾	-11.2385
停止	-11.2385
酉の市	-11.2385
適宜	-11.2385
叔父	-11.2385
を講じ	-11.2385
暮らし	-11.2386
楽しみ	-11.2386
にわたる	-11.2386
未婚	-11.2386
予想	-11.2386
がついている	-11.2386
弥右衛門	-11.2387
描いている	-11.2387
駄菓子	-11.2387
聞こえ	-11.2387
平安神宮	-11.2388
鋳造	-11.2388
に比べると	-11.2388
遺族	-11.2388
を本尊とする	-11.2388
満年齢	-11.2388
として扱われる	-11.2388
に耐え	-11.2388
訪問着	-11.2388
接待	-11.2388
残された	-11.2388
▁黒壁	-11.2389
▁具体的には	-11.2389
粘土	-11.2389
収納	-11.2389
と見なされ	-11.2389
チーズ	-11.239
束ね	-11.239
鎮守	-11.2391
じゅん	-11.2391
はるかに	-11.2391
忍術	-11.2391
禁止令	-11.2391
エリア	-11.2391
年代後半	-11.2392
電車	-11.2392
祝言	-11.2392
平等院	-11.2392
確認できる	-11.2393
阿波	-11.2393
ネット	-11.2393
の命により	-11.2393
復古	-11.2393
継がれ	-11.2393
兼任	-11.2393
統治	-11.2393
1966	-11.2394
後漢	-11.2394
異なっている	-11.2394
アンド	-11.2394
管領	-11.2394
を輩出	-11.2395
消費量	-11.2395
シーン	-11.2396
吊るし	-11.2396
st	-11.2397
根来寺	-11.2397
を通す	-11.2397
阿弥陀経	-11.2397
1956	-11.2397
に置かれた	-11.2398
流派によって	-11.2398
1939	-11.2399
との関連	-11.2399
ベン	-11.2399
軽量	-11.2399
▁幼名は	-11.2399
本覚	-11.2399
1955	-11.2399
模型	-11.24
が増えている	-11.24
が発生し	-11.2401
信三郎	-11.2401
新成人	-11.2402
岡山市	-11.2403
糖類	-11.2403
タンク	-11.2404
製麺	-11.2405
ハレ	-11.2405
サケ	-11.2406
の帰依を受け	-11.2406
焼肉	-11.2406
明かり	-11.2406
一般庶民	-11.2407
法華堂	-11.2408
つまみ	-11.2409
関西館	-11.2409
威力	-11.2409
教養	-11.241
数寄	-11.2411
発言	-11.2412
葛城	-11.2412
福井	-11.2412
赤飯	-11.2412
居館	-11.2412
田舎	-11.2413
絹糸	-11.2413
上昇	-11.2413
反論	-11.2413
(199	-11.2414
夏場	-11.2416
行なわれた	-11.2418
が起こる	-11.2419
禅宗寺院	-11.2421
意思	-11.2421
救われ	-11.2422
小学生	-11.2423
内閣	-11.2423
福岡市	-11.2423
組歌	-11.2423
女王	-11.2424
破門	-11.2424
創建された	-11.2425
を基に	-11.2426
結んで	-11.2429
を求めた	-11.243
世俗	-11.243
しなければならない	-11.2431
建つ	-11.2434
とは違い	-11.2434
を建立した	-11.2439
する必要がある	-11.244
畠山	-11.244
事前に	-11.2442
恵方	-11.2444
自主	-11.2446
ことなく	-11.2446
がなされた	-11.2449
手事もの	-11.245
▁これによって	-11.2452
わせ	-11.2452
地方もある	-11.2454
曲げ	-11.2455
この説	-11.2456
ネス	-11.2456
鬼門	-11.2456
合図	-11.2457
甘酒	-11.246
んしょう	-11.2467
商家	-11.247
を与えられ	-11.2471
生食	-11.2476
兵法	-11.2484
流れる	-11.2486
履物	-11.2487
暮れ	-11.2487
鉄筋コンクリート造	-11.2487
ことを示す	-11.2493
薩摩藩	-11.2494
五位	-11.2494
に師事した	-11.2496
不定	-11.2497
社会的	-11.2497
一文字	-11.2499
っこう	-11.2503
までの間	-11.2505
生産地	-11.2509
にしたがって	-11.2511
休み	-11.2512
接触	-11.2525
プリン	-11.2526
といっても	-11.2537
味付けした	-11.2541
げい	-11.2544
つぼ	-11.2554
知事	-11.2556
茶色	-11.2557
が入って	-11.2563
列車	-11.2563
の条に	-11.2564
一部では	-11.2568
タカ	-11.2571
三方	-11.2578
落ちる	-11.2586
阪神	-11.2594
言われる	-11.2596
あげる	-11.2597
熟成させ	-11.2617
発表した	-11.2634
丸い	-11.2636
道徳	-11.2641
置かれている	-11.2644
ダル	-11.2645
ロール	-11.2654
立地	-11.2657
を模したもの	-11.2658
を表現した	-11.2661
町内	-11.2665
不動尊	-11.2668
のなかでも	-11.2674
られてきた	-11.2693
渡す	-11.2695
ガー	-11.2702
繰り返し	-11.2703
小正月	-11.2706
揚げる	-11.2707
小型	-11.271
阪	-11.2711
合った	-11.2717
律令制	-11.2719
漫	-11.272
になるように	-11.2722
巨大	-11.2722
ひつ	-11.2729
右側	-11.2733
刀工	-11.2734
消滅した	-11.2736
注釈	-11.274
庶	-11.2741
レコード	-11.2741
ゾ	-11.2742
拙	-11.2742
鮎	-11.2742
宛	-11.2742
チュー	-11.2742
トマト	-11.2742
無形民俗文化財	-11.2742
マスコミ	-11.2742
嶺	-11.2742
朔	-11.2742
蕉	-11.2742
燕	-11.2742
講道館	-11.2742
けいはんな	-11.2742
四十八願	-11.2742
女人禁制	-11.2742
年に品種登録	-11.2742
笏	-11.2742
松花堂	-11.2742
見受けられる	-11.2742
モチーフ	-11.2742
理趣経	-11.2742
嵌	-11.2742
汗	-11.2742
緋	-11.2742
覇	-11.2742
漏	-11.2742
特異な	-11.2742
百人一首	-11.2742
蛋白質	-11.2742
讃岐国	-11.2742
ナポリタン	-11.2742
小堀遠州	-11.2742
夷	-11.2742
とろろ	-11.2742
袂	-11.2742
大きく分けて	-11.2742
味わう	-11.2742
弧	-11.2742
楮	-11.2742
聚	-11.2742
天平勝宝	-11.2742
三論宗	-11.2742
考古学	-11.2742
鉤	-11.2742
悔過	-11.2742
めぐり	-11.2742
措置	-11.2742
土御門	-11.2742
柑橘	-11.2742
を競う	-11.2742
洞窟	-11.2742
世紀中頃	-11.2743
農耕	-11.2743
廃棄	-11.2743
鮮やかな	-11.2743
に次ぐ	-11.2743
玩具	-11.2743
仮設	-11.2743
ショップ	-11.2743
古墳時代前期	-11.2743
1873	-11.2743
いくつも	-11.2744
競争	-11.2744
も含まれる	-11.2744
可能性が高い	-11.2744
を聞く	-11.2744
枡席	-11.2744
キング	-11.2744
博多織	-11.2744
統率	-11.2745
レベル	-11.2745
乾漆	-11.2745
法隆寺金堂	-11.2745
造り酒屋	-11.2745
決まった	-11.2745
風土記	-11.2745
序列	-11.2746
非公開	-11.2746
駅下車	-11.2746
源義経	-11.2746
旧来の	-11.2746
コピー	-11.2747
渋谷	-11.2747
優秀	-11.2747
と呼んでいた	-11.2748
を記念して	-11.2748
亀甲	-11.2749
祀られている	-11.2749
奏法	-11.2749
甲斐国	-11.2749
そういった	-11.2749
美意識	-11.2749
戦国大名	-11.275
煮詰め	-11.275
交渉	-11.275
初詣	-11.275
パック	-11.275
煮込んだ	-11.2751
難波宮	-11.2751
密接	-11.2751
播磨国	-11.2751
前述のように	-11.2751
嵯峨野	-11.2752
決意	-11.2752
共有	-11.2752
摂関家	-11.2753
にいたる	-11.2753
煮込み	-11.2753
適切	-11.2753
図案	-11.2753
注ぐ	-11.2755
1965	-11.2756
絞り	-11.2757
佐久	-11.2758
宗旨	-11.2759
掛け声	-11.2759
延命	-11.2759
▁元来は	-11.2759
を司る	-11.276
水飴	-11.2762
ふん	-11.2762
を願って	-11.2763
短刀	-11.2763
1933	-11.2764
葺石	-11.2765
石碑	-11.2766
ミー	-11.2767
▁彼らは	-11.2769
守護神	-11.277
武具	-11.277
産卵	-11.2774
1931	-11.2774
武官	-11.2774
仁王	-11.2775
死んだ	-11.2775
切妻造	-11.2775
キロ	-11.2776
西陣	-11.2776
金太郎	-11.2777
曲群	-11.2778
中央部	-11.2778
物件	-11.278
▁その際	-11.2781
もこれ	-11.2783
参道	-11.2784
竹輪	-11.2785
九品	-11.2786
などが挙げられる	-11.2787
ライン	-11.2788
三宅	-11.2789
達成	-11.2789
追放	-11.279
頂点	-11.279
1895	-11.2792
考えられ	-11.2793
登り	-11.2794
解決	-11.2794
に完成した	-11.2794
▁以下は	-11.2795
諸島	-11.2795
出版された	-11.2796
洛中	-11.2796
倒れ	-11.2799
上記のような	-11.28
弾き	-11.28
走り	-11.28
伝承されている	-11.2801
鍋料理	-11.2803
境地	-11.2803
も行われている	-11.2805
1890	-11.2808
意味がある	-11.2808
開いている	-11.2811
806	-11.2814
現在に至る	-11.2814
▁このことは	-11.2815
位置づけられ	-11.2816
記録がある	-11.2822
出席	-11.2824
ようとする	-11.283
(148	-11.2831
三寸	-11.2831
小道具	-11.2834
カブ	-11.2836
実物	-11.2842
を著した	-11.2844
貴人	-11.2856
燃え	-11.2857
本人	-11.286
を設けて	-11.286
完全な	-11.286
この地	-11.286
子供たち	-11.2861
作られたもの	-11.2863
伝法灌頂	-11.2867
観音像	-11.2875
参議	-11.2876
締める	-11.2883
安心	-11.2884
集会	-11.2885
水戸	-11.2895
が出現し	-11.29
もんぺ	-11.2913
こともあって	-11.2921
明治維新後	-11.2927
を模して	-11.2935
が発見され	-11.2939
えび	-11.294
削った	-11.2947
段仕込み	-11.2953
燃	-11.2954
墓地	-11.2967
バック	-11.297
2.5	-11.2971
を説いて	-11.2974
衰	-11.2992
しょく	-11.2995
タラ	-11.2999
乱れ	-11.3
見えない	-11.3002
に分かれる	-11.3002
見学	-11.3016
はじめた	-11.3017
築かれ	-11.302
させるため	-11.3023
数回	-11.3023
ござ	-11.3024
覚え	-11.3029
なってきた	-11.3045
当てる	-11.3045
開始された	-11.3054
した上で	-11.3066
を移し	-11.3073
この地域	-11.3074
ダラ	-11.308
久保	-11.3085
に努め	-11.3088
最勝	-11.3088
獄	-11.3092
般	-11.3095
怪談	-11.3096
繰	-11.3098
六段	-11.3103
狩野	-11.3108
灌	-11.3111
堤	-11.3112
少なからず	-11.3112
椿	-11.3112
酷	-11.3112
文部省	-11.3112
禍	-11.3112
炙	-11.3112
ジャポニズム	-11.3112
經	-11.3112
全日本弓道連盟	-11.3112
四度加行	-11.3112
ケーキ	-11.3112
トッピング	-11.3112
烈	-11.3112
薫	-11.3112
副葬品	-11.3112
推古天皇	-11.3112
條	-11.3112
適当な	-11.3112
全国新酒鑑評会	-11.3112
純粋な	-11.3112
頌	-11.3112
傑	-11.3112
幕の内弁当	-11.3112
槌	-11.3112
変わらない	-11.3112
弁才天	-11.3112
太平記	-11.3112
教科書	-11.3112
が強かった	-11.3112
ミュージアム	-11.3112
装身具	-11.3112
屠蘇	-11.3112
ふつう	-11.3112
摩訶	-11.3112
韻	-11.3112
劉	-11.3112
生没年不詳	-11.3112
衾	-11.3112
ねばなら	-11.3112
を歴任し	-11.3112
鶯	-11.3112
淀川水系	-11.3112
を目指す	-11.3112
は以下の通り	-11.3112
総じて	-11.3112
ニンジン	-11.3113
たくさん	-11.3113
にちなんで	-11.3113
を聞いて	-11.3113
怨霊	-11.3113
血脈	-11.3113
茶杓	-11.3114
すり鉢	-11.3114
報恩講	-11.3114
麦芽	-11.3114
肥料	-11.3114
チキン	-11.3114
特別史跡	-11.3115
に戻り	-11.3115
家督	-11.3115
が起こり	-11.3115
少しずつ	-11.3115
といふ	-11.3115
シェア	-11.3115
と区別するため	-11.3115
くわえ	-11.3115
討ち	-11.3116
発祥の地	-11.3116
叡尊	-11.3116
簡素な	-11.3116
を保つ	-11.3116
乳酸	-11.3116
リンゴ	-11.3116
一気に	-11.3116
畜生	-11.3117
加茂	-11.3117
連想	-11.3117
呉服	-11.3117
趣向	-11.3117
打突	-11.3117
表わした	-11.3117
構図	-11.3117
拝領	-11.3118
加わり	-11.3118
土曜日	-11.3118
注釈書	-11.3118
華厳宗	-11.3118
亀岡市	-11.3118
大社造	-11.3118
朱印	-11.3118
端唄	-11.3119
空也	-11.3119
関与	-11.3119
袖丈	-11.3119
果汁	-11.3119
ジャン	-11.3119
漆器	-11.312
筒袖	-11.312
懐石料理	-11.312
吉兵衛	-11.312
豊かな	-11.312
活発	-11.3121
執筆	-11.3121
に近いもの	-11.3122
酒税	-11.3122
▁この寺は	-11.3123
最も一般的な	-11.3123
赤坂	-11.3123
下がり	-11.3123
工房	-11.3123
簡単な	-11.3123
橋姫	-11.3124
咲く	-11.3125
祀った	-11.3125
越後国	-11.3127
録音	-11.3127
視覚	-11.3127
いろいろな	-11.3128
映像	-11.3129
深草	-11.313
証如	-11.313
含め	-11.313
通過	-11.3131
注ぎ	-11.3131
を込め	-11.3132
厳しく	-11.3132
原典	-11.3133
ランク	-11.3133
蒸米	-11.3133
彫像	-11.3133
縮小	-11.3133
を添える	-11.3133
雷神	-11.3134
セイ	-11.3134
占い	-11.3136
の奥義	-11.3137
園芸	-11.3137
二郎	-11.3137
尽くし	-11.3137
長押	-11.3139
レース	-11.3139
顕教	-11.314
自動	-11.314
ウメ	-11.3141
米麹	-11.3141
事項	-11.3142
信頼	-11.3142
延び	-11.3142
強度	-11.3143
覆い	-11.3143
を着け	-11.3144
観音寺	-11.3144
金銭	-11.3145
小麦	-11.3145
家庭料理	-11.3146
施工	-11.3146
紹介されている	-11.3146
創業者	-11.3147
かき混ぜ	-11.3151
ろうとする	-11.3152
報道	-11.3152
事ができる	-11.3153
土壁	-11.3155
三十六	-11.3155
コウ	-11.3155
斬り	-11.3158
を売る	-11.3158
水干	-11.3158
実施された	-11.3159
史実	-11.3159
魚肉	-11.316
ぐち	-11.3166
味覚	-11.3167
昭和天皇	-11.3168
調和	-11.3171
病院	-11.3173
を変える	-11.3174
正応	-11.3175
祖父	-11.3177
檀林	-11.3177
仏殿	-11.3178
記録されている	-11.3178
どんな	-11.3179
中陰	-11.318
動か	-11.3181
医学	-11.3183
ひとり	-11.3184
小泉	-11.3187
を使用している	-11.3187
という名前	-11.3187
信仰の対象	-11.3187
資本	-11.3191
を避けるため	-11.3198
所在地	-11.3199
終戦	-11.32
茶湯	-11.3201
を付けたもの	-11.3206
法令	-11.3211
ga	-11.3211
国鉄	-11.3211
乾物	-11.3212
西洋料理	-11.3215
文化圏	-11.3216
図像	-11.3216
がほとんどである	-11.3221
を含んで	-11.3224
経済的	-11.3227
に戻る	-11.3228
ロウ	-11.3232
ものと考えられる	-11.3232
に帰依し	-11.3234
入れない	-11.3238
日本美術	-11.3239
縁側	-11.3241
京都新聞	-11.3247
配合	-11.3248
廃れた	-11.3252
(156	-11.3253
片方	-11.3254
加賀国	-11.3262
くなって	-11.3262
木村	-11.3266
本願寺派	-11.3266
クレ	-11.3269
家業	-11.3274
出てきた	-11.3279
に沿って	-11.3284
キュ	-11.3287
あめ	-11.329
用心	-11.3292
その間	-11.3296
日本の伝統	-11.33
することにより	-11.3303
三枚	-11.3305
変化する	-11.331
かせた	-11.3322
典籍	-11.3327
を示した	-11.333
演能	-11.3331
サク	-11.3335
松原	-11.3346
持っている	-11.335
ことになっている	-11.3356
左側	-11.3357
描く	-11.336
1200	-11.3366
が設けられる	-11.3371
影響力	-11.3375
同志社	-11.3377
恐	-11.3378
使者	-11.338
取り上げ	-11.3386
として利用される	-11.3392
を基本とし	-11.3408
好まれる	-11.3417
作られていた	-11.3418
(164	-11.342
すぎると	-11.3432
豪華	-11.3433
を書写し	-11.3439
▁197	-11.3441
いえば	-11.3444
飯の上に	-11.3445
役割を果たし	-11.3449
その姿	-11.3451
(178	-11.3451
廻し	-11.3453
研究会	-11.346
を前提とし	-11.3461
明記	-11.3461
権律師	-11.3468
んこう	-11.3471
断面	-11.3483
却	-11.3492
別当職	-11.3495
ショウ	-11.3495
耕	-11.3496
鴈治郎	-11.3496
脳	-11.3496
於	-11.3497
"	-11.3497
浄土三部経	-11.3497
鬘	-11.3497
畏	-11.3497
にょらい	-11.3497
上賀茂神社	-11.3497
ウスターソース	-11.3497
留守職	-11.3497
荼	-11.3497
トンネル	-11.3497
普賢	-11.3497
帷	-11.3497
スポット	-11.3497
大谷廟堂	-11.3497
トイレ	-11.3497
依り代	-11.3497
冷蔵庫	-11.3497
京都国立博物館	-11.3497
慈照寺	-11.3497
鮨	-11.3497
につながる	-11.3497
もてなす	-11.3497
刳	-11.3497
前方後方墳	-11.3497
吉沢検校	-11.3497
臥	-11.3497
七五三	-11.3497
濃厚な	-11.3497
藪	-11.3497
清涼殿	-11.3497
笄	-11.3497
ハレとケ	-11.3497
ヴェ	-11.3497
嶽	-11.3497
キャンペーン	-11.3497
ステーキ	-11.3497
簀	-11.3497
紫式部	-11.3497
庸	-11.3497
にまつわる	-11.3497
X	-11.3497
孟	-11.3497
土壌	-11.3497
要法寺	-11.3497
乳酸菌	-11.3497
昨今	-11.3497
象牙	-11.3497
盗掘	-11.3497
テープ	-11.3498
とみられている	-11.3498
開拓	-11.3498
つながってい	-11.3498
大安寺	-11.3498
萬福寺	-11.3498
承認	-11.3498
現在に至っている	-11.3498
趣旨	-11.3498
源氏物語絵巻	-11.3498
独占	-11.3498
を借り	-11.3499
教育委員会	-11.3499
情緒	-11.3499
厚化粧	-11.3499
末法思想	-11.3499
積極的	-11.35
纏向	-11.35
護持僧	-11.35
盆踊り	-11.35
に渡った	-11.35
婚礼	-11.35
審理	-11.35
昇進	-11.35
平安中期	-11.3501
持ち込まれ	-11.3501
因果	-11.3501
廻向	-11.3501
を定めた	-11.3501
のあり方	-11.3501
奥行き	-11.3502
到着	-11.3503
順序	-11.3503
を担当する	-11.3503
に囲まれ	-11.3503
大正琴	-11.3503
禁制	-11.3504
CD	-11.3504
講演	-11.3504
修練	-11.3504
草履	-11.3504
加減	-11.3504
手のひら	-11.3504
発想	-11.3505
投入	-11.3505
解除	-11.3505
蒸気	-11.3506
現存天守	-11.3506
護持	-11.3508
義太夫	-11.3508
小規模な	-11.3508
行なわれ	-11.3509
関西形式	-11.3509
本拠地	-11.351
1957	-11.351
を説き	-11.351
香港	-11.351
親珠	-11.351
が設けられている	-11.3511
挟み	-11.3511
友人	-11.3511
石棺	-11.3511
1958	-11.3511
調理方法	-11.3511
待ち	-11.3513
運び	-11.3513
細川氏	-11.3514
死ぬ	-11.3514
反応	-11.3515
気温	-11.3515
真雅	-11.3516
甘口	-11.3516
祭典	-11.3516
和泉流	-11.3516
天龍寺	-11.3517
近鉄	-11.3517
お笑い	-11.3518
おどり	-11.3518
感じられる	-11.3519
立たない	-11.3519
永仁	-11.3519
異端	-11.352
仮面	-11.3521
養成	-11.3521
そば粉	-11.3522
を重んじる	-11.3522
▁それゆえ	-11.3522
祓い	-11.3523
山鉾	-11.3525
判定	-11.3525
仲間	-11.3526
カレー粉	-11.3528
斎王	-11.3531
発端	-11.3531
石室内	-11.3531
姫路	-11.3533
配布	-11.3533
菱形	-11.3538
を描いたもの	-11.3538
条約	-11.3539
向きもある	-11.3539
反面	-11.3541
出仕	-11.3542
系図	-11.3543
美術史	-11.3545
役割を果たした	-11.3545
他力	-11.3549
所管	-11.355
堂射	-11.3552
中学生	-11.3554
を要する	-11.3555
能舞台	-11.3555
作成された	-11.3557
和楽器	-11.3557
大きく異なる	-11.3559
聖堂	-11.3559
専門家	-11.3563
修行僧	-11.3563
混ぜて	-11.3564
敷地内に	-11.3565
不空	-11.3566
流祖	-11.3569
下級	-11.3572
浄土に往生	-11.3574
はあるが	-11.3574
干物	-11.3578
の先駆	-11.3578
9.	-11.358
風習がある	-11.3583
を理由に	-11.3583
歳以上	-11.3584
百済観音	-11.3585
諸白	-11.3586
過去帳	-11.3586
梵天	-11.3587
興国	-11.3588
当代	-11.3591
平安時代以降	-11.3591
日本最古の	-11.3592
と考えられた	-11.3593
天暦	-11.3594
登山	-11.3594
を表し	-11.3596
製紙	-11.3598
天津	-11.36
求められ	-11.36
要求される	-11.3602
うまく	-11.3604
続けられ	-11.3606
届け	-11.3606
入場	-11.3606
瓦葺	-11.3607
に見立てた	-11.3608
として使用され	-11.3617
(146	-11.3619
終え	-11.3619
ap	-11.3624
ho	-11.3624
を立てて	-11.3628
焼いたもの	-11.3628
が置かれた	-11.3629
所領	-11.3631
の勤行次第	-11.3632
と書いて	-11.3639
夫人	-11.3646
を備える	-11.365
を否定し	-11.3653
黒色	-11.3658
飾られる	-11.3658
行なう	-11.3661
遅く	-11.3667
を保護する	-11.367
に乗って	-11.3675
を避ける	-11.3676
が流行し	-11.3676
ていたようである	-11.3677
さば	-11.3677
トップ	-11.3679
小乗	-11.3683
述べる	-11.3689
薄茶	-11.3696
を与えた	-11.3703
著者	-11.3706
十数	-11.3707
1982	-11.3712
宝塚	-11.3715
日本各地の	-11.3715
ものもあり	-11.3717
述べている	-11.3726
を指した	-11.3745
つけられた	-11.3754
天文学	-11.3758
づか	-11.3761
研究家	-11.3771
見かけ	-11.3777
大学教授	-11.378
二枚	-11.3784
一体化し	-11.3785
使用していた	-11.3785
好まれた	-11.3786
あげた	-11.3789
低音	-11.38
つけられ	-11.38
ャ	-11.3809
二百	-11.3815
旧蔵	-11.3835
わなかった	-11.3836
を設けた	-11.3839
することになった	-11.3849
店頭	-11.3849
二十五	-11.3851
その弟子	-11.3855
謡曲	-11.3858
お歯黒	-11.386
責任	-11.3869
シンプルな	-11.3875
狩	-11.3876
の如く	-11.3877
拡	-11.388
播磨	-11.3887
日曜	-11.3888
洪	-11.3888
詳	-11.3889
菅	-11.3893
よこ	-11.3894
塞	-11.3895
肖像	-11.3895
ビーフ	-11.3896
太平洋	-11.3896
譬	-11.3897
ポルトガル	-11.3897
猶	-11.3897
人差し指	-11.3897
こだわり	-11.3897
役小角	-11.3897
懇	-11.3897
卸	-11.3897
地方公共団体	-11.3897
大納言	-11.3897
連合国軍最高司令官総司令部	-11.3897
犬追物	-11.3897
;	-11.3897
急激に	-11.3897
祥月命日	-11.3897
鹿苑寺	-11.3897
招き猫	-11.3897
ファッション	-11.3897
箸墓古墳	-11.3897
細川政元	-11.3897
北野天満宮	-11.3897
祟	-11.3897
アレルギー	-11.3897
曇鸞	-11.3897
郵便局	-11.3897
鎬	-11.3897
妙覚寺	-11.3897
胆	-11.3897
駅構内	-11.3897
日本列島	-11.3897
野口王墓	-11.3897
八ツ橋	-11.3897
人情噺	-11.3897
会席料理	-11.3897
多彩な	-11.3897
太陰太陽暦	-11.3897
足利尊氏	-11.3897
塑	-11.3897
欽明天皇	-11.3897
當	-11.3897
層塔型	-11.3897
正法眼蔵	-11.3897
ニンニク	-11.3897
1,000	-11.3897
式年遷宮	-11.3897
本膳料理	-11.3897
三井寺	-11.3897
独特な	-11.3897
三増酒	-11.3897
練行衆	-11.3897
擬宝珠	-11.3897
祚	-11.3897
現世利益	-11.3897
段築成	-11.3897
西部講堂	-11.3897
便宜	-11.3897
良質の	-11.3898
改訂	-11.3898
二月堂	-11.3898
認可	-11.3898
フルート	-11.3898
損傷	-11.3898
売却	-11.3898
施餓鬼	-11.3899
媒体	-11.3899
以下のとおり	-11.3899
古墳時代後期	-11.3899
連携	-11.3899
世紀半ば	-11.3899
熊谷	-11.39
焼損	-11.39
細菌	-11.39
諸説あり	-11.39
予防	-11.39
如是	-11.3901
断簡	-11.3901
を図った	-11.3901
日本に伝わった	-11.3901
おさめ	-11.3901
キロメートル	-11.3902
比叡山延暦寺	-11.3902
輪廻	-11.3902
操作	-11.3902
おやつ	-11.3903
寝殿	-11.3903
進歩	-11.3904
うま味	-11.3904
改装	-11.3904
高校生	-11.3905
鉄板焼き	-11.3905
廊下	-11.3905
冷泉	-11.3906
解脱	-11.3906
法華講	-11.3906
サイト	-11.3906
尊崇	-11.3907
放置	-11.3907
人間国宝	-11.3908
棒術	-11.3909
巻き寿司	-11.3909
咲き	-11.3909
閉館	-11.3909
も可能である	-11.391
こうえん	-11.391
上槽	-11.3911
を抑える	-11.3911
順番	-11.3911
1963	-11.3911
1964	-11.3911
ピース	-11.3911
祭囃子	-11.3912
1959	-11.3912
特別展	-11.3914
1937	-11.3914
義介	-11.3914
ケースもある	-11.3914
発売されている	-11.3915
リード	-11.3915
側近	-11.3915
ナギ	-11.3916
落慶	-11.3916
時代劇	-11.3916
1938	-11.3917
頼朝	-11.3918
が完成した	-11.3918
風情	-11.3918
表裏	-11.392
集積	-11.3921
定着している	-11.3922
怒り	-11.3923
鎌倉時代中期	-11.3923
響き	-11.3923
に努めた	-11.3924
主宰	-11.3924
持ち帰り	-11.3924
責任者	-11.3925
憲法	-11.3926
と呼称する	-11.3926
しょうゆ	-11.3926
調達	-11.3927
六祖	-11.3927
生駒	-11.3927
に分かれている	-11.3928
旗本	-11.3928
こともできる	-11.393
欠点	-11.393
北陸地方	-11.3931
サラダ	-11.3932
条例	-11.3934
組香	-11.3934
近代以降	-11.3936
と表記する	-11.3936
かぶり	-11.3938
と呼ぶこともある	-11.3938
正玄	-11.3939
厚み	-11.3939
表具	-11.3939
様相	-11.3941
深め	-11.3945
茶壺	-11.3946
歌舞伎座	-11.3946
ものが主流	-11.3948
大僧都	-11.395
学園	-11.3951
角度	-11.3952
高かった	-11.3952
量産	-11.3954
得点	-11.396
白隠	-11.3962
使い方	-11.3963
てくれる	-11.3964
七種	-11.3965
塔身	-11.3965
らしく	-11.3971
▁その場合	-11.3974
肉体	-11.3975
として定着した	-11.3982
デー	-11.3986
土蔵	-11.3986
実力	-11.3987
標的	-11.399
和室	-11.399
作られるようになった	-11.3991
交差	-11.3994
中断	-11.3998
書いている	-11.4016
三乗	-11.4016
抹	-11.4018
▁もとは	-11.4024
を表した	-11.4025
秋分	-11.4027
つくった	-11.4028
が施されている	-11.4031
僧堂	-11.4033
塩味	-11.4033
中心部	-11.4033
を引いて	-11.4036
ぴ	-11.404
が悪く	-11.4055
世界観	-11.4056
生じた	-11.4058
薬味として	-11.406
大名家	-11.4071
語られる	-11.4071
別格	-11.4077
取り入れられた	-11.4078
見れば	-11.4078
カラー	-11.4083
(165	-11.41
認識され	-11.4102
他国	-11.4121
今日でも	-11.4124
夜間	-11.4126
すべし	-11.4126
を披露し	-11.4128
祀られる	-11.4129
サバ	-11.4132
抽	-11.4132
を機に	-11.4144
板状	-11.4148
ッパ	-11.4148
本尊像	-11.4156
ことも多く	-11.4165
あられ	-11.4175
コシ	-11.4176
を加えたもの	-11.418
売られる	-11.4185
まじ	-11.4197
(117	-11.421
(126	-11.4218
実家	-11.4224
穏	-11.4225
受け入れられ	-11.4225
巻いて	-11.4232
御厨	-11.4233
オレンジ	-11.4236
を施し	-11.4237
悪化	-11.4243
呼んだ	-11.4247
応え	-11.4249
かつお	-11.4267
確認されている	-11.4285
ro	-11.4286
切妻	-11.4289
多用される	-11.4297
せよ	-11.4301
はあったが	-11.4303
柔	-11.4305
刹	-11.4309
昆	-11.4311
伐	-11.4312
搬	-11.4313
カロリー	-11.4313
窪	-11.4313
モンゴル	-11.4313
砧	-11.4313
佐賀県	-11.4313
険	-11.4313
選択本願念仏集	-11.4313
千代田区	-11.4313
と推測される	-11.4313
京都市営バス	-11.4313
宏	-11.4313
机	-11.4313
社団法人	-11.4313
耐久性	-11.4313
虚無僧	-11.4313
簡略化され	-11.4313
七味唐辛子	-11.4313
大宰府	-11.4313
鉛	-11.4313
卜	-11.4313
銚子	-11.4313
ツッコミ	-11.4314
不思議	-11.4314
古義真言宗	-11.4314
割烹着	-11.4314
照り焼き	-11.4314
にふさわしい	-11.4314
盲人音楽家	-11.4314
実質的に	-11.4314
楯	-11.4314
閲覧	-11.4314
襴	-11.4314
長谷川	-11.4314
麿	-11.4314
アイスクリーム	-11.4314
アーチェリー	-11.4314
藏	-11.4314
キュウリ	-11.4314
暇	-11.4314
萱	-11.4314
隈	-11.4314
スタジオ	-11.4314
羽子板	-11.4314
優美な	-11.4314
塊	-11.4314
三宅藤九郎	-11.4314
哉	-11.4314
一向一揆	-11.4314
辨	-11.4314
遮	-11.4314
ちくわ	-11.4314
甕	-11.4314
姉妹	-11.4314
立派な	-11.4314
1887	-11.4314
入会地	-11.4314
ならびに	-11.4314
印西派	-11.4314
洒落	-11.4314
神仏分離	-11.4314
顧問	-11.4314
この名がある	-11.4314
出雲大社	-11.4314
が含まれている	-11.4315
法名軸	-11.4315
模索	-11.4315
叩いて	-11.4315
完了	-11.4315
妨げ	-11.4315
こんごう	-11.4315
立命館大学	-11.4315
次のとおり	-11.4315
長期保存	-11.4315
広がった	-11.4316
アルコール飲料	-11.4316
多大な	-11.4316
に設けられた	-11.4316
附属	-11.4316
勧進帳	-11.4316
ボックス	-11.4316
障壁画	-11.4316
居酒屋	-11.4316
破損	-11.4316
奥の院	-11.4317
羨道	-11.4317
を目的とする	-11.4317
災害	-11.4317
平安末期	-11.4317
突起	-11.4317
担ぐ	-11.4318
前述の通り	-11.4318
併せ	-11.4318
蓮悟	-11.4318
握り寿司	-11.4318
俊寛	-11.4318
繋ぎ	-11.4318
好評	-11.4319
研修	-11.4319
無量寿経	-11.4319
常識	-11.4319
丈夫	-11.4319
一般公開	-11.432
奉仕	-11.432
マナー	-11.4321
併用	-11.4321
桐紋	-11.4322
補助	-11.4322
家元制度	-11.4322
染料	-11.4322
布教活動	-11.4322
兵士	-11.4323
吉祥天	-11.4323
めでたい	-11.4323
を配し	-11.4323
嘉永	-11.4324
冷たい	-11.4325
四隅	-11.4325
俗称	-11.4325
岩倉	-11.4326
も増えている	-11.4327
坂戸	-11.4327
木棺	-11.4327
ゴール	-11.4327
を決める	-11.4327
法勝寺	-11.4328
店によっては	-11.4329
一致派	-11.4329
休業	-11.4329
大蔵流	-11.4329
知らず	-11.4329
を清める	-11.4329
深夜	-11.433
良好	-11.4331
戻す	-11.4332
管楽器	-11.4333
年に一度	-11.4333
小野流	-11.4333
を修め	-11.4333
侵入	-11.4334
帖目	-11.4334
母親	-11.4335
とどめ	-11.4335
色合い	-11.4335
打刀	-11.4335
作詞	-11.4337
水泳	-11.4339
着装	-11.4342
根来	-11.4342
が必要となる	-11.4342
一括	-11.4343
高校	-11.4343
古武道	-11.4343
古神道	-11.4343
集まる	-11.4344
大師堂	-11.4344
改宗	-11.4344
名跡	-11.4344
生育	-11.4345
発売された	-11.4346
から来ている	-11.4347
高砂	-11.4347
遷化	-11.4347
セル	-11.4347
惜し	-11.4348
保存食	-11.4349
宇治茶	-11.435
小唄	-11.4351
胴体	-11.4353
オオ	-11.4353
1926	-11.4358
金額	-11.4358
焼きそば	-11.4359
に渡って	-11.4359
書院紙	-11.436
祈り	-11.4361
柳川	-11.4365
1927	-11.4365
糖分	-11.4366
交代	-11.4367
組み合わせて	-11.437
1922	-11.437
困難な	-11.4371
並んで	-11.4371
仏教宗派	-11.4373
残心	-11.4375
狂言方	-11.4375
長老	-11.4377
家老	-11.4381
多く存在する	-11.4384
門首	-11.4387
題名	-11.439
1904	-11.4391
参禅	-11.4391
曲芸	-11.4392
冷え	-11.4393
必要性	-11.4394
軽い	-11.4395
花園	-11.4395
に類する	-11.44
使われることが多い	-11.4401
小規模	-11.4402
乾燥させたもの	-11.4409
da	-11.441
が増える	-11.4414
and	-11.442
かけられ	-11.4425
気味	-11.4426
用いられることもある	-11.4427
見かける	-11.4428
を経た	-11.4438
行われてきた	-11.4438
を納める	-11.4443
坊主	-11.4447
下がる	-11.4448
見られるような	-11.4455
から派生した	-11.4456
従え	-11.4459
その際に	-11.4465
設立された	-11.4479
が好まれ	-11.4491
を安置し	-11.4494
ことでも知られ	-11.4496
利点	-11.4502
大正期	-11.4504
th	-11.4505
八寸	-11.4515
ロック	-11.4528
(147	-11.4529
並べて	-11.4535
広めた	-11.4544
よく見られる	-11.456
式典	-11.4564
引揚	-11.4566
に該当する	-11.4595
伏せ	-11.4595
ろん	-11.4605
を乗せる	-11.4613
ーション	-11.4613
盲	-11.4616
il	-11.4617
(179	-11.4633
縄張	-11.4633
▁それに対し	-11.4635
ケイ	-11.4644
ましい	-11.4667
同じような	-11.467
取扱	-11.4673
が開催され	-11.4678
に参禅し	-11.4683
佐藤	-11.4693
装着	-11.4705
姫路城	-11.4714
但	-11.4717
を重んじ	-11.4721
両側	-11.4723
を用いない	-11.4737
敗戦	-11.4744
牒	-11.4745
建仁	-11.4746
鞍	-11.4746
晶	-11.4746
維	-11.4746
歓	-11.4747
されていなかった	-11.4747
滋	-11.4747
彰	-11.4747
披	-11.4747
剃	-11.4747
釧	-11.4748
リットル	-11.4748
イスラム	-11.4748
エドヒガン	-11.4748
タイトル	-11.4748
喉	-11.4748
陪	-11.4748
はんぺん	-11.4748
奈良国立博物館	-11.4748
敢	-11.4748
廓	-11.4748
淨	-11.4748
とは限らない	-11.4748
ひたすら	-11.4748
弽	-11.4748
霧	-11.4748
とは言えない	-11.4748
克	-11.4748
判明している	-11.4748
坦	-11.4748
ふたたび	-11.4748
禿	-11.4748
▁交通アクセス	-11.4748
羯	-11.4748
にかかわらず	-11.4748
フィルム	-11.4748
髭	-11.4748
京都市西京区	-11.4748
▁三昧耶形は	-11.4748
漂	-11.4748
盾	-11.4748
専修念仏	-11.4748
弊	-11.4748
叟	-11.4748
懐奘	-11.4748
蟹	-11.4748
循環	-11.4748
ファー	-11.4748
円筒埴輪	-11.4748
恭	-11.4748
叢	-11.4748
オムライス	-11.4748
式三番	-11.4748
弼	-11.4748
漸	-11.4748
か否か	-11.4748
逮	-11.4748
独立行政法人	-11.4748
把握	-11.4748
蔵王権現	-11.4748
スルメ	-11.4748
翠	-11.4748
に向かう	-11.4748
洗濯	-11.4748
コンピュータ	-11.4748
を使わず	-11.4748
生年不詳	-11.4749
道成寺	-11.4749
噂	-11.4749
村上天皇	-11.4749
と比較して	-11.4749
を行わない	-11.4749
興味深い	-11.4749
片岡仁左衛門	-11.4749
唯識	-11.4749
を伴う	-11.4749
があれば	-11.4749
医療	-11.4749
食物繊維	-11.4749
を活かし	-11.4749
構想	-11.4749
を築き	-11.4749
五色不動	-11.4749
市販の	-11.4749
掃除	-11.4749
低迷	-11.4749
派手な	-11.4749
やまこふん	-11.475
来日した	-11.475
ねんぶつ	-11.475
幼児	-11.475
を失った	-11.475
拾遺	-11.475
長大な	-11.475
夏季	-11.475
漁獲	-11.475
植芝	-11.475
曰く	-11.4751
復刻	-11.4751
になってしまう	-11.4751
に与えた	-11.4751
欧州	-11.4752
大切に	-11.4752
高野豆腐	-11.4752
精霊船	-11.4752
菅原	-11.4752
が増加し	-11.4752
著述	-11.4753
優雅	-11.4753
昇格	-11.4754
昼夜	-11.4754
軍隊	-11.4754
を誇る	-11.4754
範士	-11.4754
花園天皇	-11.4754
に恵まれ	-11.4754
細かな	-11.4754
つつあった	-11.4754
再評価	-11.4755
あぶり	-11.4755
敷居	-11.4756
アルミ	-11.4756
打掛	-11.4756
億円	-11.4756
地震	-11.4756
しだいに	-11.4757
西欧	-11.4757
祀り	-11.4758
狩野派	-11.4758
盂蘭盆会	-11.4758
取り扱い	-11.4758
勝浦	-11.4759
野球場	-11.4759
縦横	-11.476
50%	-11.4762
使える	-11.4763
ソウ	-11.4763
龍樹	-11.4763
氏族	-11.4764
菊紋	-11.4764
菊池	-11.4765
ホン	-11.4765
を始めとする	-11.4765
職員	-11.4766
知られており	-11.4766
武装	-11.4766
盛岡	-11.4766
満州	-11.4767
建保	-11.4768
諸大名	-11.4768
が敷かれ	-11.4768
されることになった	-11.4769
竹製の	-11.4772
採光	-11.4772
満足	-11.4773
鈴木	-11.4773
能登	-11.4773
お守り	-11.4774
炊く	-11.4775
和琴	-11.4775
父親	-11.4775
尾根	-11.4776
版画	-11.4777
若い女性	-11.4777
長崎市	-11.4778
を混ぜたもの	-11.4779
を知っ	-11.4781
同名の	-11.4783
振舞	-11.4783
天下一	-11.4783
旨味	-11.4783
意訳	-11.4783
旨み	-11.4785
卵焼き	-11.4785
ナガ	-11.4785
染色	-11.4787
というよりは	-11.4788
縁覚	-11.4788
記述されている	-11.479
関節	-11.4791
が確立され	-11.4792
と表現する	-11.4793
自社	-11.4796
築地	-11.4796
が成立する	-11.4798
見せる	-11.4798
伏見天皇	-11.4799
1923	-11.4802
殺生	-11.4803
飛行	-11.4805
京都ラーメン	-11.4805
帰国後	-11.4807
2~3	-11.4808
ようとした	-11.4808
設置される	-11.481
(153	-11.4814
洋画	-11.4818
を起源とする	-11.4821
僧兵	-11.4821
いくら	-11.4821
愛用	-11.4822
に転じ	-11.4822
食べたり	-11.4825
俗説	-11.4827
鏡餅	-11.4828
適している	-11.4829
英国	-11.483
に乗せて	-11.4837
注目される	-11.4838
を継承する	-11.4839
吟醸	-11.484
洋楽	-11.4847
果たし	-11.4852
世紀以降	-11.4853
を発する	-11.4856
に取り入れられ	-11.4856
喫茶店	-11.4862
醸造酒	-11.4886
ぎぬ	-11.4893
日本料理店	-11.4894
念仏を唱え	-11.4895
黄身	-11.491
▁第十	-11.4918
視点	-11.4925
編纂された	-11.4929
演技	-11.4929
つかない	-11.4937
営まれる	-11.4938
向かって右	-11.4953
濃茶	-11.4971
(119	-11.4973
入寺し	-11.4982
を生じ	-11.5019
立美術館	-11.503
奪われ	-11.5062
入母屋	-11.5068
伝統工芸	-11.5076
んぱ	-11.5093
(144	-11.5134
を反映	-11.5137
▁159	-11.5145
右近	-11.5179
鰻重	-11.5182
(116	-11.5184
甲斐	-11.5195
稚	-11.5195
歴史学	-11.5196
バス停	-11.5199
ペース	-11.52
焦	-11.52
侘	-11.52
シェ	-11.5201
同一視	-11.5201
翻	-11.5201
諡号	-11.5201
勝劣派	-11.5202
顧	-11.5202
鴻	-11.5203
班	-11.5203
ウイスキー	-11.5203
の代名詞	-11.5203
露天商	-11.5203
須弥山	-11.5203
即身成仏	-11.5203
枕草子	-11.5203
殉	-11.5203
艦	-11.5203
を表わす	-11.5203
カウンター	-11.5203
常磐津	-11.5203
年末年始	-11.5203
漿	-11.5203
鴎	-11.5203
下鴨神社	-11.5203
京阪電気鉄道	-11.5203
廣	-11.5203
蕪	-11.5203
尉	-11.5203
鮭	-11.5203
と比べると	-11.5203
アズキ	-11.5203
文明開化	-11.5203
に専念	-11.5203
ストーリー	-11.5203
内藤ジョアン	-11.5203
日本放送協会	-11.5203
辛子明太子	-11.5203
逐	-11.5203
錫	-11.5203
宮城道雄	-11.5203
稜	-11.5203
蓑	-11.5203
繕	-11.5203
醇	-11.5203
卒塔婆	-11.5203
ことが記されている	-11.5203
睦	-11.5203
吏	-11.5203
東京都台東区	-11.5203
ジャガイモ	-11.5203
ロンドン	-11.5203
佐々木	-11.5203
本能寺の変	-11.5203
皺	-11.5203
矛盾	-11.5203
当山派	-11.5203
軌	-11.5203
公衆浴場	-11.5203
相模国	-11.5203
知名度	-11.5203
オクターブ	-11.5203
笑福亭	-11.5203
尹	-11.5203
将棋	-11.5203
丞	-11.5203
石山本願寺	-11.5203
新鮮な	-11.5203
若しくは	-11.5203
扶	-11.5203
とも称する	-11.5203
富樫	-11.5203
を名乗り	-11.5203
山間部	-11.5203
肯定	-11.5203
もあれば	-11.5203
楽しめる	-11.5203
信貴山	-11.5203
芝居小屋	-11.5203
協議会	-11.5203
抑制	-11.5204
剃髪	-11.5204
鉦鼓	-11.5204
手軽に	-11.5204
高騰	-11.5204
マンション	-11.5204
鼻緒	-11.5204
権少僧都	-11.5204
ブロック	-11.5204
ズボン	-11.5205
望楼型	-11.5205
芝居茶屋	-11.5205
が増す	-11.5205
習わし	-11.5205
発展を遂げ	-11.5205
金剛界曼荼羅	-11.5205
筑波	-11.5205
吟醸香	-11.5206
比丘	-11.5206
記憶	-11.5206
凍結	-11.5206
崇敬	-11.5206
に戻った	-11.5206
度牒	-11.5206
吉凶	-11.5206
禁忌	-11.5206
唱題	-11.5206
生誕	-11.5207
を総称して	-11.5207
雛人形	-11.5207
栄えた	-11.5207
禅林寺	-11.5207
そういう	-11.5208
消防	-11.5208
たたき	-11.5208
ヘビ	-11.5208
ひじき	-11.5208
違反	-11.5208
天保暦	-11.5209
をかけて食べる	-11.5209
なかなか	-11.5209
大学寮	-11.521
体育館	-11.521
典型	-11.521
常陸国	-11.521
残存	-11.5211
付け下げ	-11.5211
梵字	-11.5212
浄土宗の僧	-11.5212
との説もある	-11.5212
運動公園	-11.5213
洪水	-11.5213
世紀初め	-11.5213
アパート	-11.5213
タイム	-11.5213
観阿弥	-11.5213
芳香	-11.5214
とする見方	-11.5214
充実	-11.5214
更新	-11.5214
寒造り	-11.5215
吉右衛門	-11.5215
仁寛	-11.5216
を補う	-11.5216
ブルー	-11.5216
説かれた	-11.5216
余興	-11.5216
盛大に	-11.5217
全域	-11.5218
センス	-11.5218
酒株	-11.5219
毛利	-11.522
兵器	-11.522
幸福	-11.5221
抱き	-11.5222
強力な	-11.5222
引退	-11.5222
牛車	-11.5222
変動	-11.5222
で構成されている	-11.5222
系列	-11.5223
寿永	-11.5223
5°	-11.5223
の立場から	-11.5223
世法主	-11.5225
仕様	-11.5227
ワキ方	-11.5227
寝殿造り	-11.5227
の意向	-11.5228
を提供し	-11.5228
内親王	-11.5228
狭間	-11.5228
よろ	-11.5229
修験者	-11.5229
そんな	-11.5229
他阿	-11.523
的を射	-11.523
隠語	-11.5231
一時的に	-11.5231
天王寺	-11.5232
栄西	-11.5232
有志	-11.5232
が含まれる	-11.5233
車輪	-11.5236
順位	-11.5236
先述の	-11.5236
点在し	-11.5237
飲酒	-11.5238
用材	-11.5238
認められている	-11.5239
を採用する	-11.524
表わされ	-11.524
ケン	-11.5241
臣下	-11.5241
祖霊	-11.5242
雪村	-11.5242
天丼	-11.5242
ことになり	-11.5243
菊花	-11.5244
を強め	-11.5248
桜餅	-11.5251
興味	-11.5255
江戸末期	-11.526
に近づ	-11.5261
ana	-11.5262
建てられる	-11.527
誓願	-11.5287
ことが出来	-11.5298
巧み	-11.5299
に秀で	-11.5299
入らない	-11.5308
せしめ	-11.5308
発祥地	-11.531
眺め	-11.5315
ように見える	-11.5318
ものもあった	-11.5319
導入された	-11.5324
に分類され	-11.5333
の居城	-11.535
抜いた	-11.5358
院に住し	-11.538
1573	-11.5389
的な要素	-11.5393
シャー	-11.5408
を維持し	-11.5422
以内	-11.5424
の広さ	-11.5441
ルーム	-11.5447
行われており	-11.545
がなされる	-11.5455
ja	-11.5468
植えられ	-11.5468
階建	-11.5484
近世以降	-11.5503
ちょうど	-11.5539
祀る	-11.5542
▁第二十	-11.5543
行なわれていた	-11.5546
じゅつ	-11.5546
と呼称し	-11.5548
砂糖を加え	-11.5564
審議	-11.5569
マンガ	-11.5598
ものではなかった	-11.5599
残っていない	-11.5603
保温	-11.5645
と言え	-11.5645
co	-11.5652
順次	-11.5655
具体的に	-11.5673
戦死	-11.5674
憶	-11.5676
盟	-11.5676
叉	-11.5677
宜	-11.5677
責	-11.5678
嗜	-11.5678
訂	-11.5678
金閣寺	-11.5679
赦	-11.5679
趙	-11.5679
第二次大戦	-11.5679
教王護国寺	-11.5679
清凉寺	-11.5679
衍	-11.5679
杭	-11.5679
槻	-11.5679
普化宗	-11.5679
選手権大会	-11.5679
嘘	-11.5679
扁	-11.5679
朋	-11.5679
カステラ	-11.5679
広島風お好み焼き	-11.5679
を強調する	-11.5679
ジュース	-11.5679
償	-11.5679
寅	-11.5679
日光東照宮	-11.5679
暢	-11.5679
溶き卵	-11.5679
瑜伽	-11.5679
関西文化学術研究都市	-11.5679
堪	-11.5679
アフリカ	-11.5679
ファミリー	-11.5679
膨大な	-11.5679
村田珠光	-11.5679
淀古城	-11.5679
須恵器	-11.5679
‐	-11.5679
上流階級	-11.5679
飽	-11.5679
コンビニ	-11.5679
ティング	-11.5679
杮	-11.5679
僧坊酒	-11.5679
広沢流	-11.5679
活性炭	-11.5679
胃	-11.5679
高度経済成長	-11.5679
卍	-11.5679
尖	-11.5679
釉	-11.5679
すなはち	-11.5679
几帳	-11.5679
八橋検校	-11.5679
松尾芭蕉	-11.5679
鎌倉新仏教	-11.5679
鱗	-11.5679
活性化	-11.5679
遥	-11.5679
舞良戸	-11.5679
コンセプト	-11.5679
円覚寺	-11.5679
国民の祝日	-11.5679
最盛期	-11.5679
カトリック	-11.5679
新幹線	-11.5679
胎蔵曼荼羅	-11.5679
どぶろく	-11.5679
たびたび	-11.5679
甫	-11.5679
キムチ	-11.5679
四角形	-11.5679
国税庁	-11.5679
トゥ	-11.5679
蛸	-11.5679
紛争	-11.5679
デジタル	-11.5679
今西家	-11.5679
色々な	-11.5679
御神体	-11.5679
お会式	-11.5679
採り入れ	-11.5679
取り除き	-11.5679
鱈	-11.5679
考察	-11.568
勉強	-11.568
鵜匠	-11.568
缶詰	-11.568
羅城門	-11.568
桂離宮	-11.568
▁なかでも	-11.568
を招く	-11.568
を賜った	-11.568
統括	-11.568
はじまり	-11.568
を選ぶ	-11.568
今度は	-11.5681
裁縫	-11.5681
に従事	-11.5681
処刑	-11.5681
美味しい	-11.5681
創刊	-11.5681
圧縮	-11.5681
ブラック	-11.5681
立涌	-11.5682
准如	-11.5682
秋季	-11.5682
燈籠	-11.5682
課題	-11.5682
依然	-11.5682
はっきりしない	-11.5682
伽藍配置	-11.5683
候補	-11.5683
極楽往生	-11.5683
辞典	-11.5683
相次いで	-11.5683
パスタ	-11.5683
魅力	-11.5683
バンド	-11.5683
財団	-11.5683
裁断	-11.5684
棟梁	-11.5684
仕組み	-11.5684
を生む	-11.5684
選挙	-11.5684
到来	-11.5684
定着する	-11.5684
あがった	-11.5684
に分布する	-11.5685
殺害	-11.5685
告げ	-11.5685
内紛	-11.5685
宴席	-11.5685
壬生	-11.5685
遷宮	-11.5686
平安後期	-11.5686
を挟んで	-11.5686
いわば	-11.5686
革命	-11.5686
次の通り	-11.5687
ベルト	-11.5687
文化遺産	-11.5687
摂政	-11.5687
唯円	-11.5688
が著した	-11.5688
世門主	-11.5688
脇差	-11.5688
木曽	-11.5688
大乗経典	-11.5689
本願寺教団	-11.5689
態度	-11.569
湾曲	-11.569
が宿る	-11.569
交差点	-11.569
行なわれている	-11.5691
因縁	-11.5692
初七日	-11.5692
三の丸	-11.5692
高欄	-11.5693
ッカー	-11.5693
を披露する	-11.5693
携行	-11.5694
おこわ	-11.5694
献立	-11.5695
淀城	-11.5695
運慶	-11.5696
普門	-11.5697
稲作	-11.5697
泰平	-11.5697
煮汁	-11.5698
特権	-11.5698
鳴らし	-11.5699
まぜ	-11.57
風合い	-11.57
......	-11.57
絵詞	-11.5702
改造	-11.5702
雲母	-11.5703
1943	-11.5703
を紹介する	-11.5704
多種多様な	-11.5704
と考えられていた	-11.5705
取得	-11.5705
転調	-11.5706
慶応	-11.5706
かがみ	-11.5707
薬草	-11.5707
多羅	-11.5707
暦応	-11.5707
タネ	-11.5708
夕方	-11.5708
僧綱	-11.5709
かならず	-11.571
無限	-11.571
四条派	-11.5711
辞書	-11.5712
義演	-11.5712
所収	-11.5713
勅許	-11.5714
黒砂糖	-11.5714
上演される	-11.5716
の有無	-11.572
白拍子	-11.5721
六観音	-11.5724
と呼称される	-11.5727
異なって	-11.5727
すり身	-11.5732
多くなっている	-11.5733
寺の住職	-11.5742
よく用いられる	-11.5745
権力者	-11.5757
戦時中	-11.5767
の一角	-11.5769
混ぜ合わせ	-11.5772
傾斜	-11.5773
歴史資料	-11.5797
すべく	-11.581
に師事して出家	-11.5813
尾張藩	-11.5823
盲人	-11.5826
同志社大学	-11.583
チベット仏教	-11.5855
(129	-11.5868
光琳	-11.5869
を添えて	-11.5915
数えられる	-11.5979
言い伝え	-11.5981
さかんに	-11.5995
厳密に	-11.5997
覆われ	-11.5997
再利用	-11.5998
替わり	-11.6004
暮	-11.6029
pe	-11.6042
(154	-11.6077
加えられ	-11.609
十一面	-11.6095
修験	-11.6147
結びつけ	-11.6149
維新後	-11.6161
拍	-11.6162
不受不施	-11.6171
狗	-11.6173
京都学生祭典	-11.6175
塁	-11.6176
停	-11.6178
殖	-11.6178
胞	-11.6178
薩	-11.6178
柑	-11.6179
涙	-11.6179
酥	-11.6179
采	-11.6179
冶	-11.6179
吉本興業	-11.6179
琢	-11.6179
跳	-11.6179
恨	-11.6179
雁皮紙	-11.6179
蚕	-11.6179
上座部仏教	-11.6179
後北条氏	-11.6179
和三盆	-11.6179
ブレンド	-11.6179
酒造好適米	-11.6179
匁	-11.6179
受け継いだ	-11.6179
螺	-11.6179
語呂合わせ	-11.6179
俵屋宗達	-11.6179
桧	-11.6179
に匹敵する	-11.6179
オランダ	-11.6179
凹凸	-11.6179
ギャラリー	-11.6179
ハヤシライス	-11.6179
備後国	-11.6179
曲水の宴	-11.6179
ことが分かる	-11.6179
をかたどった	-11.6179
タレント	-11.6179
句是菩薩位	-11.6179
百万遍	-11.6179
確実な	-11.6179
わざわざ	-11.6179
協同組合	-11.6179
花柳界	-11.6179
鬼子母神	-11.6179
ヒノキ	-11.6179
今川氏	-11.6179
猟	-11.6179
多賀城	-11.6179
奈良県桜井市	-11.6179
竪	-11.6179
翔	-11.6179
親子丼	-11.6179
鹿鳴館	-11.6179
卓袱台	-11.6179
困窮	-11.6179
奴	-11.6179
和服の長着	-11.6179
売茶翁	-11.6179
奔	-11.6179
往生要集	-11.6179
武蔵府中熊野神社古墳	-11.6179
白身魚	-11.6179
頑	-11.6179
両界曼荼羅	-11.6179
卑	-11.6179
枢	-11.6179
参列者	-11.6179
札幌市	-11.6179
農林水産省	-11.6179
風信帖	-11.6179
馴	-11.6179
ご当地	-11.6179
素朴な	-11.6179
蝦夷	-11.6179
肥後国	-11.6179
二楽荘	-11.6179
伸ばす	-11.6179
武田信玄	-11.6179
某	-11.6179
票	-11.6179
菅原道真	-11.6179
喧	-11.6179
実業家	-11.6179
新陰流	-11.6179
武野紹鴎	-11.6179
平清盛	-11.6179
屯	-11.6179
靖	-11.6179
霜	-11.6179
日蓮門下の	-11.6179
をめぐる	-11.6179
二刀流	-11.6179
初心者	-11.6179
大広間	-11.6179
他力本願	-11.6179
を果たした	-11.6179
どんどん	-11.618
グリーン	-11.618
注意を要する	-11.618
善鸞	-11.618
衰微	-11.618
を待つ	-11.618
柄杓	-11.618
任ぜられ	-11.618
と答えた	-11.618
に当たって	-11.618
格闘技	-11.618
中院流	-11.618
どんぶり	-11.618
エビフライ	-11.618
中村鴈治郎	-11.618
顕彰	-11.618
を名乗って	-11.618
堤防	-11.618
複写	-11.618
メンバー	-11.618
堅帽子	-11.618
を囲む	-11.618
とんかつ	-11.6181
わかっていない	-11.6181
1884	-11.6181
いかなる	-11.6181
トンカツ	-11.6181
モダン	-11.6181
泰範	-11.6182
引眉	-11.6182
扇雀	-11.6182
嘉禄	-11.6182
リュー	-11.6182
肖像画	-11.6182
暗殺	-11.6182
金剛杵	-11.6182
回京都学生祭典	-11.6182
コショウ	-11.6182
熟練	-11.6183
タンタン	-11.6183
中央アジア	-11.6183
借景	-11.6183
事が出来る	-11.6183
を除いた	-11.6183
四季醸造	-11.6183
掛け軸	-11.6183
佐伯	-11.6184
遺言書	-11.6184
考証	-11.6184
軽減	-11.6184
干支	-11.6185
と同一視される	-11.6185
明治初年	-11.6185
百姓	-11.6185
演芸場	-11.6185
強調され	-11.6185
庫裏	-11.6186
もてなし	-11.6186
法然上人	-11.6186
漬け込む	-11.6186
に渡る	-11.6186
埋葬施設	-11.6186
炭酸	-11.6186
あがり	-11.6187
温泉旅館	-11.6187
唐破風	-11.6187
清浄なる	-11.6188
くらべ	-11.6188
恵果	-11.6188
が如し	-11.6188
礼儀	-11.6188
武家屋敷	-11.6188
油脂	-11.6189
感情	-11.6189
武帝	-11.6189
拍手	-11.6189
東大寺大仏殿	-11.6189
から渡来した	-11.6189
足利義教	-11.6189
均一	-11.619
研究センター	-11.619
当て字	-11.619
補任	-11.619
選出	-11.6191
飲んだ	-11.6191
留意	-11.6191
に開館した	-11.6191
が考案した	-11.6192
貫首	-11.6192
本門宗	-11.6192
最も重要な	-11.6193
安土城	-11.6193
邪気	-11.6193
優勝	-11.6193
球場	-11.6193
刻印	-11.6194
北魏	-11.6194
ひがし	-11.6194
殿舎	-11.6195
うまみ	-11.6195
才能	-11.6195
にともない	-11.6196
体裁	-11.6196
麹造り	-11.6197
の一員	-11.6197
と号した	-11.6197
ぼだい	-11.6197
わからない	-11.6198
アユ	-11.6198
っぽう	-11.6198
肩衣	-11.6198
氷室	-11.6198
歌垣	-11.6198
錦絵	-11.6198
金融	-11.6198
▁材質は	-11.6199
最高位	-11.62
ポピュラーな	-11.62
彼女	-11.62
夏祭り	-11.6201
1944	-11.6201
大手門	-11.6203
薬指	-11.6203
広く知られる	-11.6205
禁じられている	-11.6205
加わって	-11.6206
に大別される	-11.6207
臂像	-11.6208
遺言	-11.621
初演	-11.6212
減らし	-11.6212
は廃止され	-11.6214
に入っている	-11.6214
をまとめて	-11.6215
熊野神社	-11.6215
行われなくなった	-11.6216
高野山真言宗	-11.622
譲渡	-11.6222
現在地に移	-11.6223
権僧正	-11.6224
もう一つ	-11.6224
帰命	-11.6232
をとっている	-11.6233
を述べ	-11.6236
(139	-11.6242
意味を持つ	-11.625
かんのん	-11.6251
の伝記	-11.6256
んがく	-11.6256
を背景に	-11.6256
終わって	-11.6262
をきっかけに	-11.6269
に任せ	-11.6276
東海地方	-11.6278
1889	-11.6278
に求める	-11.6282
僧正に任じられ	-11.6299
を目的に	-11.6311
ことのできる	-11.6314
風刺	-11.6317
を維持する	-11.6324
が多く見られる	-11.6325
と信じられ	-11.6328
薄れ	-11.634
が失われ	-11.6345
短期	-11.6354
失われて	-11.6379
フランス料理	-11.6379
の外側に	-11.6382
に戻って	-11.6399
挙げて	-11.6442
描いて	-11.6445
軽食	-11.6445
ぽ	-11.6452
と誤解され	-11.6468
簡単	-11.6474
企画展	-11.6517
んぴ	-11.6519
重要文化財に指定され	-11.6525
とよばれ	-11.6552
持ち上げ	-11.6575
許可を得	-11.6605
1688	-11.6617
子として生まれ	-11.662
避	-11.6622
を学んで	-11.6634
を称し	-11.6655
ていたことがわか	-11.667
妖	-11.6679
新設	-11.6693
震	-11.6695
囃	-11.6698
臓	-11.6698
殊	-11.6699
播	-11.6702
栽	-11.6705
瓢	-11.6705
しゃぶしゃぶ	-11.6705
晦	-11.6705
を余儀なくされ	-11.6705
隻	-11.6705
鮓	-11.6705
撓	-11.6705
蛤	-11.6705
に於ける	-11.6705
蘆	-11.6705
ニューヨーク	-11.6705
オオシマザクラ	-11.6705
見瀬丸山	-11.6705
寺請制度	-11.6705
饌	-11.6705
バナナ	-11.6705
自販機	-11.6705
▁休館日	-11.6705
ヅ	-11.6705
閥	-11.6705
冠婚葬祭	-11.6705
千秋楽	-11.6705
葦	-11.6705
ナトリウム	-11.6705
咄	-11.6705
崖	-11.6705
簿	-11.6705
身八つ口	-11.6705
夢窓疎石	-11.6705
居合道	-11.6705
端午の節句	-11.6705
卑弥呼	-11.6705
三大秘法	-11.6705
厳密な	-11.6705
華麗な	-11.6705
譚	-11.6705
開口部	-11.6705
なくてはならない	-11.6705
ストゥーパ	-11.6705
僧尼令	-11.6705
銀閣寺	-11.6705
@	-11.6705
俣	-11.6705
縞	-11.6705
と名づく	-11.6705
に基づいた	-11.6705
レトルト	-11.6705
牢	-11.6705
狭義では	-11.6705
蕨	-11.6705
エネルギー	-11.6705
南都六宗	-11.6705
適度な	-11.6705
錐	-11.6705
を思わせる	-11.6705
手間がかかる	-11.6705
今出川校地	-11.6705
普茶料理	-11.6705
篇	-11.6705
後陽成天皇	-11.6705
放生会	-11.6705
松ヶ崎	-11.6705
藤原行成	-11.6705
オリンピック	-11.6705
インドネシア	-11.6705
梯	-11.6705
老朽化	-11.6705
メロディ	-11.6705
唇	-11.6705
四天珠	-11.6705
山鉾巡行	-11.6705
本阿弥光悦	-11.6705
籐	-11.6705
打起し	-11.6705
電子レンジ	-11.6705
富山市	-11.6705
神社仏閣	-11.6705
から灌頂を受けた	-11.6705
ヤマザクラ	-11.6706
増上寺	-11.6706
竪穴式石室	-11.6706
▁開館時間	-11.6706
斯	-11.6706
四畳半	-11.6706
サントリー	-11.6706
教行信証	-11.6706
生没年	-11.6706
ī	-11.6706
大学別曹	-11.6706
青龍寺	-11.6706
過剰	-11.6706
家督相続	-11.6706
を促す	-11.6706
を好んだ	-11.6706
を巡って	-11.6706
大切な	-11.6706
を結んだ	-11.6706
勿論	-11.6706
比丘尼	-11.6706
衝撃	-11.6706
未詳	-11.6706
緊張	-11.6706
微生物	-11.6706
羅刹	-11.6706
を必要とする	-11.6707
讃嘆	-11.6707
美術工芸品	-11.6707
馬頭観音	-11.6707
ばかりでなく	-11.6707
決まっている	-11.6707
常陸	-11.6707
検索	-11.6707
にちなみ	-11.6707
吾妻	-11.6707
宣教師	-11.6707
本門法華宗	-11.6707
糠漬け	-11.6707
蓮淳	-11.6707
和服を着る	-11.6707
に代わる	-11.6707
余裕	-11.6707
圧迫	-11.6707
開眼供養	-11.6707
国会図書館	-11.6708
要塞	-11.6708
として名高い	-11.6708
威儀	-11.6708
課税	-11.6708
を調節	-11.6708
上方落語協会	-11.6708
に着手	-11.6708
展望	-11.6708
共鳴	-11.6708
仕上がり	-11.6708
から成る	-11.6708
貝殻	-11.6708
を用意し	-11.6709
を多用し	-11.6709
千宗旦	-11.6709
に広がる	-11.6709
に従う	-11.6709
庁舎	-11.6709
酢の物	-11.6709
鴨居	-11.6709
七夕まつり	-11.6709
曳き山	-11.6709
と定めた	-11.6709
短縮	-11.671
依存	-11.671
テンポ	-11.671
天智天皇	-11.671
フルーツ	-11.671
春季	-11.671
離脱	-11.671
扱っている	-11.671
紫蘇	-11.671
科挙	-11.671
を用意する	-11.6711
稲荷寿司	-11.6711
秘抄	-11.6711
勝敗	-11.6711
勅使	-11.6711
由良	-11.6711
徹底的に	-11.6711
ピンク	-11.6712
退去	-11.6712
亀岡	-11.6712
男児	-11.6712
歩兵	-11.6712
家畜	-11.6712
迷信	-11.6713
浄益	-11.6713
煎餅	-11.6713
蓮の葉	-11.6714
財務	-11.6714
解消	-11.6714
母方の	-11.6715
騎馬	-11.6715
情景	-11.6715
駿河国	-11.6715
諸外国	-11.6715
北大路	-11.6716
改変	-11.6716
炭素	-11.6717
サゲ	-11.6717
よく使われる	-11.6717
高く評価され	-11.6718
敬遠	-11.6718
の中核	-11.6718
髪飾り	-11.6719
前方に	-11.6719
居士	-11.672
皮革	-11.672
清規	-11.672
要望	-11.6721
残っていた	-11.6722
込んでいる	-11.6722
を経由して	-11.6723
僧籍	-11.6723
に敗れ	-11.6725
めでた	-11.6727
接客	-11.6728
垂らし	-11.6729
を塗った	-11.6731
よく知られている	-11.6733
醍醐天皇	-11.6733
を祈願する	-11.6738
整形	-11.6743
の間隔	-11.6744
の良さ	-11.6745
蹴上	-11.675
が図られ	-11.6758
入っていない	-11.6759
のことを指し	-11.6767
鎌倉時代末期	-11.6767
代表例	-11.6772
を築いて	-11.6774
酒の肴	-11.6777
をあけ	-11.6783
に似る	-11.6784
1898	-11.6786
徳川家光	-11.6791
を守護する	-11.6798
1897	-11.6799
ドラマ	-11.6823
最も多く	-11.6823
少なくなり	-11.6823
を取り出し	-11.6827
極端に	-11.6827
なるべく	-11.6834
(174	-11.6838
開かれる	-11.6844
挙げる	-11.6845
平安時代中期の天台宗の	-11.6856
の周りに	-11.6861
が開発され	-11.6881
の庇護	-11.6905
その名残	-11.6909
▁166	-11.691
矢を射る	-11.6927
が開かれ	-11.6938
形を整え	-11.6952
of	-11.6981
(185	-11.6982
に限定され	-11.6998
紀州藩	-11.7001
を整える	-11.7015
鼓楼	-11.7031
琳派	-11.7048
▁幼少	-11.7052
演じられ	-11.711
盛りつけ	-11.712
°	-11.7147
を意識し	-11.7151
に乗る	-11.7153
めんつゆ	-11.719
喫	-11.7192
信仰を集め	-11.7197
で包んだ	-11.7201
均	-11.7245
は不明だが	-11.7245
駿河	-11.7251
摂関	-11.7251
柚	-11.7252
紛	-11.7253
捺	-11.726
困	-11.726
摂津	-11.7261
パネル	-11.7261
亦	-11.7261
馴染み	-11.7261
痩	-11.7261
貪	-11.7261
関ヶ原の戦い	-11.7261
身延山久遠寺	-11.7261
蘇我氏	-11.7261
にちなんだ	-11.7261
雉	-11.7261
椎	-11.7261
如意宝珠	-11.7261
尾上菊五郎	-11.7261
越中褌	-11.7261
奠	-11.7261
ネットワーク	-11.7261
キャンパス	-11.7261
丁寧に	-11.7261
倶楽部	-11.7261
已	-11.7261
文部科学大臣	-11.7261
浙江省	-11.7261
濃口醤油	-11.7261
討伐	-11.7261
▁紙本著色	-11.7261
カツレツ	-11.7261
跋	-11.7261
世界各国	-11.7261
峠	-11.7261
市川團十郎	-11.7261
徳川吉宗	-11.7261
淸	-11.7261
に起因する	-11.7261
の鳴き声	-11.7261
オーストラリア	-11.7261
九十九神	-11.7261
分かっていない	-11.7261
揖	-11.7261
立ち食い	-11.7261
仔	-11.7261
常行三昧	-11.7261
肘	-11.7261
食中毒	-11.7261
と公称する	-11.7261
ウンシュウミカン	-11.7261
サークル	-11.7261
フレーズ	-11.7261
光崎検校	-11.7261
妙蓮寺	-11.7261
覚信尼	-11.7261
諭	-11.7261
身に着け	-11.7261
鼠	-11.7261
▁本項では	-11.7261
倶	-11.7261
武徳殿	-11.7261
邑	-11.7261
鑑評会	-11.7261
を連想させる	-11.7261
スリランカ	-11.7261
ブッダ	-11.7261
捕らえ	-11.7261
魔除け	-11.7261
世紀中葉	-11.7261
八重崎検校	-11.7261
顎	-11.7261
Z	-11.7261
フレット	-11.7261
凝灰岩	-11.7261
歎	-11.7261
皮膚	-11.7261
誡	-11.7261
を挟んだ	-11.7261
テリヤキ	-11.7261
興正寺	-11.7261
ウィスキー	-11.7261
委員長	-11.7261
ビニール	-11.7261
上円下方墳	-11.7261
佳	-11.7261
厭	-11.7261
実行委員会	-11.7261
応神天皇	-11.7261
自動販売機	-11.7261
顕浄土真実教行証文類	-11.7261
と名付けられた	-11.7261
のうち重要なものを	-11.7261
偉	-11.7261
関東大震災	-11.7261
大宝律令	-11.7261
戎	-11.7261
綺	-11.7261
道祖神	-11.7261
天平宝字	-11.7261
が好ましい	-11.7261
円筒形	-11.7261
一字金輪仏頂	-11.7261
微妙な	-11.7261
の卵巣	-11.7261
国風文化	-11.7261
も兼ね	-11.7261
▁北大路通	-11.7261
重要伝統的建造物群保存地区	-11.7261
遵	-11.7261
月光菩薩	-11.7261
逝去	-11.7261
毎週	-11.7261
侯	-11.7261
が盛んになり	-11.7261
下野国	-11.7261
だるま	-11.7261
本能寺	-11.7261
壱岐	-11.7261
食べる習慣がある	-11.7261
神聖な	-11.7262
忌避	-11.7262
をあらわし	-11.7262
サンショウ	-11.7262
滑らか	-11.7262
日本食レストラン	-11.7262
とろみ	-11.7262
はたらき	-11.7262
トラブル	-11.7262
伐採	-11.7262
勾配	-11.7262
簡潔	-11.7262
精霊流し	-11.7262
毬杖	-11.7262
少年少女	-11.7262
両脇に	-11.7262
少僧都	-11.7262
提携	-11.7262
シングル	-11.7263
フライパン	-11.7263
降伏	-11.7263
調理器具	-11.7263
明らかでない	-11.7263
アイヌ	-11.7263
繋がる	-11.7263
に至っている	-11.7263
蟇目	-11.7263
埋納	-11.7263
ニホン	-11.7263
磁器	-11.7263
を聞いた	-11.7264
数寄屋造り	-11.7264
納豆菌	-11.7264
干し柿	-11.7264
豪商	-11.7264
落雁	-11.7264
規範	-11.7264
十如是	-11.7265
小豆粥	-11.7265
レーション	-11.7265
道綽	-11.7265
槍術	-11.7265
低価格	-11.7265
加わった	-11.7265
大阪府大阪市	-11.7265
盛んに行われた	-11.7265
焼き討ち	-11.7265
に関する法律	-11.7265
証拠	-11.7266
歌舞伎舞踊	-11.7266
洗浄	-11.7266
を特徴とする	-11.7266
ドーム	-11.7266
尋ね	-11.7266
を建立する	-11.7266
ゲート	-11.7266
統計	-11.7266
の仕方	-11.7267
こういう	-11.7267
1882	-11.7267
変化していった	-11.7268
人気が高い	-11.7268
東大寺別当	-11.7268
禁裏	-11.7268
大和魂	-11.7268
仁左衛門	-11.7269
巡礼	-11.7269
としても有名	-11.7269
混在	-11.7269
頭巾	-11.7269
を勧める	-11.727
全国各地で	-11.727
稚魚	-11.727
銅鏡	-11.7271
楊弓	-11.7271
を塗る	-11.7271
勧進職	-11.7271
に限る	-11.7271
洋装	-11.7271
やすくなる	-11.7271
弟子珠	-11.7274
に分けられ	-11.7278
変革	-11.7285
分からない	-11.7287
を祭る	-11.7294
隆盛を極め	-11.7295
江戸時代中期以降	-11.7301
関わって	-11.7302
フォーク	-11.7309
弓を引く	-11.7325
と思う	-11.7325
他所酒	-11.7325
が導入され	-11.7345
を教える	-11.736
に掛けて	-11.7364
を塗って	-11.7369
引き上げ	-11.7429
詰ま	-11.747
のが始まりとされ	-11.7474
残ってお	-11.7477
を禁止し	-11.7497
(163	-11.7499
授けた	-11.7506
収ま	-11.752
が生え	-11.7558
最高級	-11.7593
読み上げ	-11.7598
破魔矢	-11.7608
一説に	-11.7647
を守って	-11.7721
山岳信仰	-11.7747
真言宗醍醐派	-11.7774
とも言われ	-11.7778
を作成し	-11.779
渉	-11.7835
壬	-11.7841
週	-11.7843
疫	-11.7848
瑠璃	-11.7848
蚊	-11.7849
愛媛	-11.7849
爺	-11.7849
無量寿経仏説無量寿経	-11.7849
寶	-11.7849
淳和院	-11.7849
竹内栖鳳	-11.7849
教相判釈	-11.7849
鄭	-11.7849
鋒	-11.7849
発泡スチロール	-11.7849
京都市西京極総合運動公園	-11.7849
斧	-11.7849
嘉納治五郎	-11.7849
エジプト	-11.7849
嫉妬	-11.7849
展覧会	-11.7849
村上源氏	-11.7849
アカマツ	-11.7849
回遊式	-11.7849
土師器	-11.7849
鎮護国家	-11.7849
斉明天皇	-11.7849
私のしごと館	-11.7849
に先立って	-11.7849
レパートリー	-11.7849
久留米	-11.7849
梶	-11.7849
こってり系	-11.7849
ザンギ	-11.7849
浩	-11.7849
笥	-11.7849
總持寺	-11.7849
長岡京	-11.7849
にちなむ	-11.7849
理事長	-11.7849
辱	-11.7849
修正会	-11.7849
京都市営地下鉄烏丸線	-11.7849
擂	-11.7849
稈	-11.7849
俎	-11.7849
太宰府	-11.7849
道頓堀	-11.7849
ヵ	-11.7849
三杯酢	-11.7849
アピール	-11.7849
キャッチ	-11.7849
天竜寺	-11.7849
應	-11.7849
栃	-11.7849
集合住宅	-11.7849
を持たず	-11.7849
既婚女性	-11.7849
海水浴場	-11.7849
溢	-11.7849
遊園地	-11.7849
高句麗	-11.7849
何度か	-11.7849
杲	-11.7849
神幸祭	-11.7849
御三階櫓	-11.7849
闕	-11.7849
坑	-11.7849
片栗粉	-11.7849
裕福な	-11.7849
奢	-11.7849
を皮切りに	-11.7849
コンベア	-11.7849
スパイス	-11.7849
椎茸	-11.7849
おろす	-11.7849
まっすぐ	-11.7849
抽象的	-11.7849
ギリシャ	-11.7849
天然記念物	-11.7849
茄	-11.7849
上杉謙信	-11.7849
天橋立	-11.7849
普遍的	-11.7849
瀬戸内海	-11.7849
陸上競技場	-11.7849
捌	-11.7849
方広寺	-11.7849
赦免	-11.7849
嘉禎	-11.7849
鯉幟	-11.7849
大きかった	-11.7849
と違って	-11.7849
をおこなった	-11.7849
五台山	-11.785
バス停下車	-11.785
と改名	-11.785
痕跡	-11.785
祝園駅	-11.785
デビュー	-11.785
大黒天	-11.785
緊急	-11.785
蜀	-11.785
週刊	-11.785
蚊帳	-11.785
足利将軍家	-11.785
昔ながらの	-11.785
五大明王	-11.785
出会い	-11.785
慶長の役	-11.785
住吉大社	-11.785
飼育	-11.785
三昧耶	-11.785
の日蓮宗の僧	-11.785
細胞	-11.785
を隠す	-11.785
まちまち	-11.7851
第一旭	-11.7851
兵庫県神戸市	-11.7851
一斉に	-11.7851
求肥	-11.7851
海老芋	-11.7851
大手メーカー	-11.7851
陸軍省	-11.7851
微笑	-11.7851
歳暮	-11.7851
焼却	-11.7851
燃焼	-11.7851
敷き詰め	-11.7851
を築く	-11.7851
民俗文化財	-11.7851
に置かれていた	-11.7851
テレビ番組	-11.7851
大蔵省	-11.7852
デパート	-11.7852
ほっけ	-11.7852
希少	-11.7852
かざり	-11.7852
糠床	-11.7852
認証	-11.7852
について述べる	-11.7852
を生んだ	-11.7852
桃太郎	-11.7852
はあるものの	-11.7852
遍照	-11.7853
競走	-11.7853
本当に	-11.7853
乾燥させて	-11.7853
おいしい	-11.7853
交替	-11.7854
ので注意が必要である	-11.7854
漫画雑誌	-11.7854
須磨	-11.7854
栄養素	-11.7855
TE	-11.7855
で囲まれ	-11.7855
項参照	-11.7855
補給	-11.7855
を原料とする	-11.7857
持ち運び	-11.7857
を納めた	-11.786
すすめ	-11.7862
に関連した	-11.7864
をベースに	-11.7865
を飾った	-11.7866
強調し	-11.7869
0.5	-11.7872
を知り	-11.7879
に因んで	-11.7881
さかのぼ	-11.7885
をまぶして	-11.7889
子供向け	-11.7891
が与えられ	-11.7891
非常に多い	-11.7898
と混同され	-11.7908
名づけられた	-11.7914
なおかつ	-11.7919
を廃し	-11.7921
が廃止され	-11.7923
を祀って	-11.7923
向かって左	-11.7926
酒を飲む	-11.7928
名称の由来	-11.7931
反映され	-11.7939
無量光	-11.7942
侶	-11.797
を考案した	-11.798
hā	-11.8079
働きかけ	-11.8083
説を唱え	-11.8103
生み出した	-11.8114
とみなし	-11.8246
祀られ	-11.8255
を発見し	-11.8281
鉄筋コンクリート	-11.8289
に接し	-11.8306
に所属し	-11.8331
六波羅	-11.8348
に伝わって	-11.8381
竺	-11.8467
1~2	-11.8469
貯	-11.8471
勾	-11.8471
怨	-11.8472
明日香村	-11.8473
たくあん	-11.8474
欽	-11.8474
把	-11.8474
沖	-11.8474
停滞	-11.8474
大正新脩大蔵経	-11.8474
熾	-11.8474
園城寺長吏	-11.8474
へ向かう	-11.8474
ダイエット	-11.8474
如来寿量品	-11.8474
杏	-11.8474
左右対称	-11.8474
朽	-11.8474
朴	-11.8474
自転車	-11.8474
□	-11.8474
たんぱく質	-11.8474
寸松庵色紙	-11.8474
琉球王国	-11.8474
しつらえ	-11.8474
ステージ	-11.8474
フルコンタクト空手	-11.8474
屑	-11.8474
アナゴ	-11.8474
チラシ	-11.8474
宥	-11.8474
修学院離宮	-11.8474
活動弁士	-11.8474
ヤマノイモ	-11.8474
後白河法皇	-11.8474
牟	-11.8474
稼	-11.8474
厄除け	-11.8474
妄	-11.8474
宝篋印塔	-11.8474
旦那様	-11.8474
農業試験場	-11.8474
酒船石	-11.8474
エキス	-11.8474
堆	-11.8474
尿	-11.8474
巴	-11.8474
福祉	-11.8474
謹	-11.8474
髏	-11.8474
キノコ	-11.8474
コミュニケーション	-11.8474
俄	-11.8474
菴	-11.8474
二十四節気	-11.8474
地平線	-11.8474
沸騰	-11.8474
稔	-11.8474
アレンジ	-11.8474
亘	-11.8474
板蓋宮	-11.8474
越天楽	-11.8474
野村又三郎	-11.8474
スケトウダラ	-11.8474
ヒトツモノ	-11.8474
フード	-11.8474
全日本剣道連盟	-11.8474
寵	-11.8474
簡略化した	-11.8474
拵	-11.8474
粛	-11.8474
弓騎兵	-11.8474
庚申	-11.8474
珪	-11.8474
つづみ	-11.8474
帛紗	-11.8474
芥	-11.8474
スカート	-11.8474
振八つ口	-11.8474
蔑	-11.8474
アオノリ	-11.8474
華美な	-11.8474
みじん切り	-11.8474
キャンプ	-11.8474
垂直に	-11.8474
平等院鳳凰堂	-11.8474
三番叟	-11.8474
▁道号は	-11.8474
奈良県天理市	-11.8474
楽水紙	-11.8474
總	-11.8474
飩	-11.8474
廬	-11.8474
徳川秀忠	-11.8474
接着剤	-11.8474
楚	-11.8474
厳島神社	-11.8474
コウジカビ	-11.8474
必然的に	-11.8474
雙	-11.8474
Kyoto	-11.8474
下総国	-11.8474
毀	-11.8474
受け継ぐ	-11.8474
闍	-11.8474
日本達磨宗	-11.8474
紀州徳川家	-11.8474
室生寺	-11.8474
多岐にわた	-11.8474
三千院	-11.8474
The	-11.8474
にとらわれ	-11.8474
お水取り	-11.8475
当身技	-11.8475
葡	-11.8475
チキンライス	-11.8475
ちりめん	-11.8475
奈良県明日香村	-11.8475
智積院	-11.8475
にも通じ	-11.8475
法性寺	-11.8475
そろえ	-11.8475
二の丸御殿	-11.8475
を呈する	-11.8475
丼飯の上に	-11.8475
部派仏教	-11.8475
日蓮宗勝劣派	-11.8475
光明皇后	-11.8475
を防ぎ	-11.8476
飲まれる	-11.8476
優劣	-11.8476
誘導	-11.8476
避難	-11.8476
つくばい	-11.8476
刑罰	-11.8476
往復	-11.8476
だんじり	-11.8476
掘削	-11.8476
陳列	-11.8476
阪急	-11.8476
御家人	-11.8476
望楼	-11.8476
▁本尊は阿弥陀如来	-11.8476
から見ると	-11.8476
礼拝の対象	-11.8476
と改めた	-11.8476
ゴボウ	-11.8476
占領	-11.8476
冬季	-11.8476
最古級	-11.8477
仕上がる	-11.8477
結晶	-11.8477
かぶせ	-11.8477
同義語	-11.8477
割り当て	-11.8477
タントラ	-11.8477
沢庵漬け	-11.8477
鰻丼	-11.8478
を告げる	-11.8478
非日常	-11.8479
地理的	-11.8479
諸々の	-11.8481
万寿寺	-11.8481
はじまる	-11.8481
愛好され	-11.8483
ドゥ	-11.8484
の足跡	-11.8485
過ごし	-11.8487
を巡る	-11.8489
が建立した	-11.8496
ほぐし	-11.8496
散見され	-11.85
見ることが出来る	-11.8507
を招いて	-11.8516
増えてきている	-11.8519
付着し	-11.8526
帆布	-11.8538
を営んで	-11.8545
まわし	-11.8548
を高めるため	-11.8549
を向いて	-11.8551
に特化	-11.8563
お互い	-11.8574
が成立し	-11.8579
祀	-11.8599
を提出し	-11.8603
道を歩	-11.8604
入手し	-11.8616
を祈願した	-11.8631
になってしまった	-11.8657
を主張する	-11.867
が通例である	-11.8677
と記され	-11.8681
を整備し	-11.8696
銀箔	-11.8699
徳川将軍	-11.8715
漉かれ	-11.8782
に数えられ	-11.881
見せて	-11.8817
が開始され	-11.8868
に対抗し	-11.8886
を添加し	-11.8896
を修し	-11.8911
ておいた	-11.8976
クワイ	-11.8985
指摘する	-11.9021
帆	-11.9073
多種多様	-11.9105
椒	-11.9111
が結成され	-11.9123
畜	-11.9124
妓	-11.9136
諡	-11.9136
沓	-11.914
ビュー	-11.914
宗務総長	-11.914
阪急電鉄	-11.9141
五智如来	-11.9141
橿原市	-11.9141
五穀豊穣	-11.9141
馳	-11.9141
マーケット	-11.9141
藤原頼通	-11.9141
ISBN	-11.9141
太政官布告	-11.9141
ハマグリ	-11.9141
摩訶止観	-11.9141
ちらし寿司	-11.9141
正信偈	-11.9141
久遠実成	-11.9141
提唱した	-11.9141
糞	-11.9141
酒呑童子	-11.9141
清涼飲料	-11.9141
董	-11.9141
餌	-11.9141
憧	-11.9141
護身術	-11.9141
になぞらえ	-11.9141
襞	-11.9141
うかがえる	-11.9141
奨学院	-11.9141
ニシキ	-11.9141
姻	-11.9141
寄棟造	-11.9141
斑鳩町	-11.9141
蛍	-11.9141
鈍	-11.9141
近畿日本鉄道	-11.9141
魏志倭人伝	-11.9141
鳥獣人物戯画	-11.9141
▁いずれにせよ	-11.9141
カテゴリ	-11.9141
蓮の葉商い	-11.9141
蟻	-11.9141
設我得佛國中人天	-11.9141
フィリピン	-11.9141
廉価	-11.9141
溪	-11.9141
神籠石	-11.9141
護法善神	-11.9141
峨	-11.9141
柳本古墳群	-11.9141
餐	-11.9141
美山錦	-11.9141
後深草天皇	-11.9141
徽	-11.9141
消滅の危機	-11.9141
王羲之	-11.9141
畢	-11.9141
籬	-11.9141
虹	-11.9141
なぎなた	-11.9141
専修寺	-11.9141
檜皮葺	-11.9141
飛躍的に	-11.9141
▁幼い頃	-11.9141
ヘラクレス	-11.9141
捻	-11.9141
禊	-11.9141
箭	-11.9141
鞭	-11.9141
砦	-11.9141
堯	-11.9141
楷	-11.9141
筈	-11.9141
渇	-11.9141
湘	-11.9141
零	-11.9141
煌	-11.9141
瓊	-11.9141
跨	-11.9141
髻	-11.9141
莱	-11.9141
塾	-11.9141
杢	-11.9141
舜	-11.9141
宰	-11.9806
涌	-11.9851
需	-11.9853
滞	-11.9854
斐	-11.9854
壱	-11.9854
撮	-11.9855
藝	-11.9855
栓	-11.9855
繍	-11.9855
掬	-11.9855
煉	-11.9855
埼	-11.9855
峡	-11.9855
蜂	-11.9855
魯	-11.9855
煤	-11.9855
戊	-11.9855
德	-11.9855
這	-11.9855
只	-11.9855
棘	-11.9855
遙	-11.9855
△	-11.9855
ゑ	-11.9855
鞨	-11.9855
儺	-11.9855
茗	-11.9855
鞄	-11.9855
淫	-11.9855
訣	-11.9855
匿	-11.9855
惧	-11.9855
咸	-11.9855
潅	-11.9855
綸	-11.9855
韋	-11.9855
眺	-12.0434
叩	-12.06
獅	-12.0617
魅	-12.0617
褐	-12.0617
妨	-12.0622
拓	-12.0622
叔	-12.0623
濾	-12.0624
幟	-12.0624
帛	-12.0624
鳶	-12.0624
焔	-12.0624
伎	-12.0624
鎚	-12.0624
鑼	-12.0624
亮	-12.0624
懲	-12.0624
櫻	-12.0624
睡	-12.0624
虐	-12.0624
猷	-12.0624
碁	-12.0624
蝦	-12.0624
癖	-12.0624
叶	-12.0624
汎	-12.0624
幢	-12.0624
逢	-12.0624
唾	-12.0624
禰	-12.0624
忽	-12.0624
躯	-12.0624
且	-12.0624
縹	-12.0624
蕃	-12.0624
坡	-12.0624
蔓	-12.0624
頬	-12.0624
粽	-12.0624
篆	-12.0624
釋	-12.0624
址	-12.0624
碾	-12.0624
羹	-12.0624
櫂	-12.0624
【	-12.0624
籾	-12.0624
諾	-12.0624
齎	-12.0624
謳	-12.0624
】	-12.0624
褄	-12.0624
彙	-12.0624
薗	-12.0625
柊	-12.0625
累	-12.0625
帥	-12.0625
ェ	-12.0645
牌	-12.1455
勉	-12.1457
錯	-12.1457
喝	-12.1457
垢	-12.1457
繭	-12.1457
昏	-12.1457
隷	-12.1457
綜	-12.1457
迄	-12.1457
會	-12.1458
諺	-12.1458
戌	-12.1458
霰	-12.1458
槇	-12.1458
橙	-12.1458
紡	-12.1458
旺	-12.1458
礫	-12.1458
臀	-12.1458
偲	-12.1458
炬	-12.1458
樵	-12.1458
蛙	-12.1458
襠	-12.1458
闡	-12.1458
戟	-12.1458
搦	-12.1458
汝	-12.1458
柾	-12.1458
曼	-12.1458
樺	-12.1458
膏	-12.1458
鰭	-12.1458
莫	-12.1458
脆	-12.1458
鮒	-12.1458
兎	-12.1458
掾	-12.1458
炷	-12.1458
酌	-12.1458
筍	-12.1458
櫨	-12.1458
窒	-12.1458
蜷	-12.1458
鰯	-12.1458
q	-12.1458
歿	-12.1458
閦	-12.1458
醴	-12.1458
縣	-12.1459
畠	-12.2217
蒔	-12.2344
隙	-12.2353
践	-12.236
綽	-12.236
廷	-12.236
糧	-12.2363
苔	-12.2364
玩	-12.2364
緊	-12.2365
箋	-12.2366
醒	-12.2366
閻	-12.2366
逝	-12.2366
淘	-12.2366
醜	-12.2366
[	-12.2366
眞	-12.2366
]	-12.2367
罹	-12.2367
痴	-12.2367
鍬	-12.2367
峻	-12.2367
榊	-12.2367
妊	-12.2367
佑	-12.2367
忙	-12.2367
嘗	-12.2367
桝	-12.2367
賤	-12.2367
巷	-12.2367
蛋	-12.2367
楞	-12.2367
絲	-12.2367
─	-12.2367
棍	-12.2367
楠	-12.2367
焉	-12.2367
榴	-12.2367
礁	-12.2367
舘	-12.2367
澱	-12.2367
槨	-12.2367
隼	-12.2367
剪	-12.2367
梓	-12.2367
埒	-12.2367
尤	-12.2367
楓	-12.2367
茜	-12.2367
濫	-12.2367
偵	-12.2367
弭	-12.2367
暫	-12.2367
倹	-12.2367
圭	-12.2367
欣	-12.2367
彭	-12.2367
凌	-12.2367
ィ	-12.3182
厨	-12.3354
琳	-12.3358
潟	-12.336
杓	-12.3361
截	-12.3362
媒	-12.3362
ぺ	-12.3363
從	-12.3363
洒	-12.3365
仇	-12.3366
梗	-12.3366
瑜	-12.3366
臍	-12.3366
弗	-12.3366
徐	-12.3366
債	-12.3366
煕	-12.3366
á	-12.3366
寡	-12.3366
厩	-12.3366
挫	-12.3366
診	-12.3366
矛	-12.3366
讖	-12.3367
冨	-12.3367
捏	-12.3367
{	-12.3367
滲	-12.3367
烹	-12.3367
}	-12.3367
胚	-12.3367
虜	-12.3367
踞	-12.3367
鋸	-12.3367
栂	-12.3367
槃	-12.3367
邊	-12.3367
姦	-12.3367
囚	-12.3367
聡	-12.3367
錣	-12.3367
《	-12.3367
碩	-12.3367
堰	-12.3367
娑	-12.3367
毫	-12.3367
》	-12.3367
蠣	-12.3367
荻	-12.3367
錆	-12.3367
濤	-12.3367
ś	-12.3367
殷	-12.3367
鑢	-12.3367
錠	-12.3367
匡	-12.3367
蹲	-12.3367
邨	-12.3367
翳	-12.3367
狛	-12.3367
喬	-12.3367
畝	-12.3367
鋤	-12.3367
阮	-12.3367
證	-12.3367
ゝ	-12.3367
à	-12.3367
亨	-12.3367
篩	-12.3367
濱	-12.3367
抑	-12.4332
誕	-12.4446
匂	-12.4465
昧	-12.4468
羨	-12.4469
督	-12.4469
薙	-12.4475
芙	-12.4477
酪	-12.4477
樫	-12.4477
爲	-12.4478
祷	-12.4478
簫	-12.4478
撫	-12.4478
瞋	-12.4478
伍	-12.4478
栴	-12.4478
氣	-12.4478
迅	-12.4478
艘	-12.4478
鬆	-12.4478
襷	-12.4478
汽	-12.4478
裡	-12.4478
暉	-12.4478
冰	-12.4478
套	-12.4478
箙	-12.4478
辟	-12.4478
于	-12.4478
慌	-12.4478
埃	-12.4478
嵩	-12.4478
袷	-12.4478
惠	-12.4478
寇	-12.4478
曝	-12.4478
桴	-12.4478
淋	-12.4478
嚼	-12.4478
喚	-12.4478
栩	-12.4478
掟	-12.4478
涛	-12.4478
鑚	-12.4478
坏	-12.4478
惨	-12.4478
朧	-12.4478
箕	-12.4478
耽	-12.4478
蕾	-12.4478
辯	-12.4478
雫	-12.4478
諜	-12.4478
拈	-12.4478
按	-12.4478
艮	-12.4478
頤	-12.4478
笈	-12.4478
蔦	-12.4478
贋	-12.4478
恕	-12.4478
ぱ	-12.4701
忘	-12.5618
餓	-12.5725
廿	-12.5727
屠	-12.5727
廉	-12.5727
蔡	-12.5727
ò	-12.5728
罵	-12.5728
ū	-12.5728
髄	-12.5728
學	-12.5728
秤	-12.5728
鍼	-12.5728
怠	-12.5728
詐	-12.5728
呵	-12.5728
र	-12.5728
姥	-12.5728
并	-12.5728
湊	-12.5728
ヂ	-12.5728
脛	-12.5728
桔	-12.5728
搭	-12.5728
氾	-12.5728
媚	-12.5728
綬	-12.5728
裄	-12.5728
贖	-12.5728
詁	-12.5728
冲	-12.5728
鯱	-12.5728
偃	-12.5728
憎	-12.5728
漕	-12.5728
箆	-12.5728
禮	-12.5728
荊	-12.5728
म	-12.5728
憚	-12.5728
痰	-12.5728
佩	-12.5728
巽	-12.5728
岬	-12.5728
翫	-12.5728
諫	-12.5728
雕	-12.5728
悼	-12.5728
轢	-12.5728
魄	-12.5728
軋	-12.5728
麾	-12.5728
蔽	-12.5728
耗	-12.5728
贄	-12.5728
脊	-12.5728
桓	-12.5728
薯	-12.5728
譯	-12.5728
枉	-12.5728
輸	-12.7073
控	-12.7097
努	-12.7141
帽	-12.7148
鸞	-12.7152
昨	-12.7154
媛	-12.7155
繊	-12.7155
榛	-12.7156
剰	-12.7156
猴	-12.7156
択	-12.7156
—	-12.7156
悔	-12.7156
盧	-12.7156
訶	-12.7156
霽	-12.7156
捲	-12.7156
姑	-12.7156
欺	-12.7156
鉋	-12.7156
堡	-12.7156
筏	-12.7156
賦	-12.7156
劔	-12.7156
躰	-12.7156
灸	-12.7156
諷	-12.7156
頁	-12.7156
筥	-12.7156
絆	-12.7156
●	-12.7156
凸	-12.7156
愁	-12.7156
癡	-12.7156
罐	-12.7156
顛	-12.7156
尸	-12.7156
弄	-12.7156
淑	-12.7156
諍	-12.7156
聯	-12.7156
腿	-12.7156
薨	-12.7156
諒	-12.7156
鬢	-12.7156
弩	-12.7156
矧	-12.7156
脩	-12.7156
皐	-12.7156
雍	-12.7156
ल	-12.7156
्	-12.7156
匙	-12.7156
蒼	-12.7156
晏	-12.7156
頚	-12.7156
鶉	-12.7156
臘	-12.7156
Q	-12.7157
儚	-12.7157
禪	-12.7157
縒	-12.7157
賈	-12.7157
ゐ	-12.7157
炸	-12.7157
篋	-12.7157
鱧	-12.7157
箒	-12.7157
蘊	-12.7157
褻	-12.7157
é	-12.7157
頸	-12.7157
稙	-12.7157
臈	-12.7157
虞	-12.7157
葭	-12.7157
尭	-12.7157
郁	-12.7157
据	-12.8694
央	-12.8809
曰	-12.8811
蟇	-12.8816
屏	-12.8819
裔	-12.882
勿	-12.882
巫	-12.882
駿	-12.8821
糟	-12.8822
盡	-12.8822
ぁ	-12.8822
棋	-12.8822
斥	-12.8823
璋	-12.8823
來	-12.8823
禎	-12.8823
菰	-12.8823
旛	-12.8823
丙	-12.8823
冕	-12.8823
嶼	-12.8823
皓	-12.8823
霖	-12.8823
哩	-12.8823
樓	-12.8823
馨	-12.8823
凹	-12.8823
艫	-12.8823
熙	-12.8823
咳	-12.8823
嶂	-12.8823
鬚	-12.8823
遼	-12.8823
嗚	-12.8823
茵	-12.8823
寓	-12.8823
閨	-12.8823
í	-12.8823
′	-12.8823
筮	-12.8823
芹	-12.8823
夾	-12.8823
靭	-12.8823
♭	-12.8823
壙	-12.8823
巖	-12.8823
瑛	-12.8823
瑟	-12.8823
舳	-12.8823
裹	-12.8823
欅	-12.8823
谿	-12.8823
癌	-12.8823
與	-12.8823
乎	-12.8823
盥	-12.8823
糒	-12.8823
遜	-12.8823
鋩	-12.8823
騙	-12.8823
晨	-12.8823
竃	-12.8823
腺	-12.8823
蒻	-12.8823
誅	-12.8823
踵	-12.8823
毅	-12.8823
虔	-12.8823
崔	-12.8823
釵	-12.8823
〇	-12.8823
煩	-12.8823
篁	-12.8823
惺	-12.8823
狸	-12.8823
甑	-12.8823
靱	-12.8823
怖	-12.8823
駕	-12.8823
逓	-12.8823
珈	-12.8823
椙	-12.8823
猥	-12.8823
嚢	-12.8823
ぇ	-12.8824
麁	-12.8824
榎	-12.8824
笊	-12.8824
殆	-13.082
佃	-13.0821
痕	-13.0821
漠	-13.0823
姚	-13.0823
几	-13.0823
觀	-13.0823
濯	-13.0823
紳	-13.0823
瞳	-13.0823
宙	-13.0823
祢	-13.0823
捩	-13.0823
憍	-13.0823
珂	-13.0823
絽	-13.0823
鮫	-13.0823
疋	-13.0823
嚴	-13.0823
萼	-13.0823
婉	-13.0823
韜	-13.0823
娼	-13.0823
渾	-13.0823
蕭	-13.0823
墟	-13.0823
价	-13.0823
奯	-13.0823
盒	-13.0823
輦	-13.0823
惚	-13.0823
巒	-13.0823
禽	-13.0823
聟	-13.0823
♯	-13.0823
◎	-13.0823
孚	-13.0823
蓼	-13.0823
襪	-13.0823
蹄	-13.0823
黌	-13.0823
篝	-13.0823
茸	-13.0823
鯵	-13.0823
夭	-13.0823
弐	-13.0823
怯	-13.0823
撹	-13.0823
梱	-13.0823
穆	-13.0823
聲	-13.0823
鍾	-13.0823
☆	-13.0823
憬	-13.0823
荀	-13.0823
麵	-13.0823
褶	-13.0823
ǎ	-13.0823
玲	-13.0823
齋	-13.0823
靡	-13.0823
卷	-13.0823
嗅	-13.0823
實	-13.0823
惡	-13.0823
發	-13.0823
吽	-13.0823
腔	-13.0823
藺	-13.0823
ぃ	-13.0823
汐	-13.0823
糕	-13.0823
崗	-13.0823
崛	-13.0823
狼	-13.0823
浚	-13.0823
壕	-13.0823
晃	-13.0823
曙	-13.0823
蝠	-13.0824
ó	-13.0824
暹	-13.0824
惜	-13.3097
_	-13.3148
騰	-13.3317
攝	-13.3319
撲	-13.332
祗	-13.3321
措	-13.3322
處	-13.3323
勒	-13.3323
ṃ	-13.3323
讒	-13.3323
閲	-13.3323
鬱	-13.3323
睨	-13.3323
羲	-13.3323
袢	-13.3323
墜	-13.3323
埵	-13.3323
傅	-13.3323
苞	-13.3323
蕗	-13.3323
ú	-13.3323
ǔ	-13.3323
श	-13.3323
薛	-13.3323
讚	-13.3323
纈	-13.3323
薮	-13.3323
咬	-13.3323
啖	-13.3323
屁	-13.3323
汀	-13.3323
肄	-13.3323
腫	-13.3323
裙	-13.3323
ぉ	-13.3323
侠	-13.3323
剖	-13.3323
啜	-13.3323
橡	-13.3323
泯	-13.3323
漱	-13.3323
懺	-13.3323
溌	-13.3323
叱	-13.3323
吼	-13.3323
渠	-13.3323
筵	-13.3323
簧	-13.3323
腎	-13.3323
唸	-13.3323
枳	-13.3323
猊	-13.3323
芒	-13.3323
а	-13.3323
ा	-13.3323
啄	-13.3323
喋	-13.3323
擯	-13.3323
肢	-13.3323
筌	-13.3323
舅	-13.3323
覺	-13.3323
謚	-13.3323
·	-13.3323
暈	-13.3323
爐	-13.3323
蝕	-13.3323
≒	-13.3323
厘	-13.3323
斤	-13.3323
梟	-13.3323
瑯	-13.3323
稗	-13.3323
蜃	-13.3323
倚	-13.3323
偸	-13.3323
楢	-13.3323
ì	-13.3323
〆	-13.3323
刎	-13.3323
抛	-13.3323
炫	-13.3323
痺	-13.3323
蓆	-13.3323
蘢	-13.3323
赫	-13.3323
摧	-13.3323
楫	-13.3323
俚	-13.3323
徙	-13.3323
俯	-13.3323
匝	-13.3323
梢	-13.3323
榮	-13.3323
癸	-13.3323
禧	-13.3323
佇	-13.3323
嘲	-13.3323
傭	-13.3323
聾	-13.3324
璃	-13.3324
櫟	-13.3324
痔	-13.3324
ゥ	-13.6591
肖	-13.6651
壌	-13.6653
埴	-13.6655
纂	-13.6656
琉	-13.6656
橿	-13.6656
衞	-13.6656
妬	-13.6656
茹	-14.1586
畿	-14.164
椅	-14.1648
該	-14.1649
肯	-14.1652
號	-14.1654
醍	-14.1654
冑	-14.1655
捧	-14.1655
酎	-14.1655
訟	-14.1656
穫	-14.1656
擲	-14.1656
鈿	-14.1656
庚	-14.1656
凰	-14.1656
瑠	-14.1656
乘	-14.1657
篥	-14.1657
訊	-15.1264
蝙	-15.1265
蕷	-15.1266
莊	-15.1267
舩	-15.1268
肛	-15.1269
翆	-15.127
紆	-15.1271
篌	-15.1272
箜	-15.1273
祕	-15.1274
祁	-15.1275
矜	-15.1276
瑪	-15.1277
瑙	-15.1278
牘	-15.1279
洹	-15.128
泔	-15.1281
欒	-15.1282
檳	-15.1283
榔	-15.1284
曵	-15.1285
昂	-15.1286
捗	-15.1287
愍	-15.1288
忉	-15.1289
徑	-15.129
娶	-15.1291
姨	-15.1292
奝	-15.1293
嚇	-15.1294
噪	-15.1295
嗟	-15.1296
咨	-15.1297
劾	-15.1298
劍	-15.1299
乖	-15.13
黛	-15.1301
鵬	-15.1302
飫	-15.1303
鍍	-15.1304
遽	-15.1305
躪	-15.1306
跪	-15.1307
贇	-15.1308
艱	-15.1309
艇	-15.131
耀	-15.1311
纓	-15.1312
禦	-15.1313
硝	-15.1314
盞	-15.1315
璽	-15.1316
琲	-15.1317
燧	-15.1318
瀕	-15.1319
淆	-15.132
沐	-15.1321
椋	-15.1322
擾	-15.1323
拷	-15.1324
徭	-15.1325
峙	-15.1326
將	-15.1327
婁	-15.1328
姪	-15.1329
喘	-15.133
劒	-15.1331
凋	-15.1332
冗	-15.1333
ण	-15.1334
ड	-15.1335
黴	-15.1336
鹸	-15.1337
閼	-15.1338
閘	-15.1339
逞	-15.134
躙	-15.1341
裲	-15.1342
蜻	-15.1343
蛉	-15.1344
蒟	-15.1345
蒐	-15.1346
苧	-15.1347
臙	-15.1348
翡	-15.1349
緞	-15.135
站	-15.1351
碕	-15.1352
睺	-15.1353
疱	-15.1354
畺	-15.1355
焜	-15.1356
烙	-15.1357
澗	-15.1358
漑	-15.1359
溺	-15.136
泄	-15.1361
樔	-15.1362
擢	-15.1363
姐	-15.1364
埠	-15.1365
哺	-15.1366
咀	-15.1367
吠	-15.1368
俟	-15.1369
ヮ	-15.137
麒	-15.1371
鄰	-15.1372
賎	-15.1373
誨	-15.1374
芿	-15.1375
碍	-15.1376
矯	-15.1377
瞽	-15.1378
瑚	-15.1379
珊	-15.138
爽	-15.1381
潙	-15.1382
渤	-15.1383
歙	-15.1384
圀	-15.1385
僑	-15.1386
餃	-15.1387
闥	-15.1388
鍮	-15.1389
謾	-15.139
衫	-15.1391
蟄	-15.1392
蓉	-15.1393
蒡	-15.1394
耨	-15.1395
砺	-15.1396
瘡	-15.1397
璧	-15.1398
瑾	-15.1399
珎	-15.14
炮	-15.1401
掴	-15.1402
拌	-15.1403
惹	-15.1404
弛	-15.1405
幇	-15.1406
塙	-15.1407
咋	-15.1408
做	-15.1409
魁	-15.141
鐸	-15.1411
諌	-15.1412
藐	-15.1413
綻	-15.1414
絢	-15.1415
瓔	-15.1416
珞	-15.1417
燼	-15.1418
燵	-15.1419
煽	-15.142
斡	-15.1421
攪	-15.1422
宍	-15.1423
嚆	-15.1424
冴	-15.1425
酬	-15.1426
逼	-15.1427
詫	-15.1428
箪	-15.1429
珖	-15.143
燦	-15.1431
潭	-15.1432
椏	-15.1433
杣	-15.1434
愈	-15.1435
悠	-15.1436
廠	-15.1437
嬉	-15.1438
儲	-15.1439
佚	-15.144
雖	-15.1441
趺	-15.1442
蝉	-15.1443
租	-15.1444
礬	-15.1445
攘	-15.1446
捜	-15.1447
嘩	-15.1448
咫	-15.1449
儡	-15.145
傀	-15.1451
亟	-15.1452
*	-15.1453
饂	-15.1454
韶	-15.1455
諮	-15.1456
覗	-15.1457
萄	-15.1458
舒	-15.1459
礙	-15.146
琥	-15.1461
犠	-15.1462
牲	-15.1463
歪	-15.1464
撚	-15.1465
忿	-15.1466
辿	-15.1467
贔	-15.1468
糾	-15.1469
瞭	-15.147
岑	-15.1471
屓	-15.1472
墾	-15.1473
騨	-15.1474
鑽	-15.1475
爛	-15.1476
淹	-15.1477
恥	-15.1478
髑	-15.1479
賄	-15.148
舶	-15.1481
竟	-15.1482
泌	-15.1483
謁	-15.1484
胝	-15.1485
珀	-15.1486
榜	-15.1487
孵	-15.1488
噴	-15.1489
饉	-15.149
耆	-15.1491
楳	-15.1492
奮	-15.1493
鞋	-15.1494
葩	-15.1495
聘	-15.1496
猩	-15.1497
憐	-15.1498
怡	-15.1499
醂	-15.15
賃	-15.1501
砥	-15.1502
汰	-15.1503
憩	-15.1504
叫	-15.1505
鼈	-15.1506
頒	-15.1507
貰	-15.1508
疲	-15.1509
揶	-15.151
揄	-15.1511
扮	-15.1512
戚	-15.1513
唆	-15.1514
閤	-15.1515
拘	-15.1516
奄	-15.1517
褒	-15.1518
羂	-15.1519
浙	-15.152
銕	-15.1521
穣	-15.1522
疇	-15.1523
挑	-15.1524
庖	-15.1525
填	-15.1526
凉	-15.1527
僊	-15.1528
跏	-15.1529
脅	-15.153
濡	-15.1531
諧	-15.1532
眷	-15.1533
爵	-15.1534
僚	-15.1535
醗	-15.1536
薦	-15.1537
畔	-15.1538
瑩	-15.1539
熹	-15.154
潰	-15.1541
舁	-15.1542
僅	-15.1543
諏	-15.1544
衷	-15.1545
衙	-15.1546
腋	-15.1547
窺	-15.1548
飢	-15.1549
憑	-15.155
誹	-15.1551
纒	-15.1552
緻	-15.1553
撞	-15.1554
楕	-15.1555
姜	-15.1556
賭	-15.1557
緬	-15.1558
癒	-15.1559
牡	-15.156
勃	-15.1561
宕	-15.1562
肪	-15.1563
牽	-15.1564
撒	-15.1565
托	-15.1566
妥	-15.1567
〒	-15.1568
骸	-15.1569
菖	-15.157
燭	-15.1571
幌	-15.1572
鑁	-15.1573
雇	-15.1574
鈷	-15.1575
瞬	-15.1576
曖	-15.1577
冒	-15.1578
熨	-15.1579
挨	-15.158
拶	-15.1581
賽	-15.1582
芭	-15.1583
硫	-15.1584
鴈	-15.1585
蜘	-15.1586
蛛	-15.1587
襦	-15.1588
析	-15.1589
顗	-15.159
遭	-15.1591
郊	-15.1592
轄	-15.1593
遡	-15.1594
袈	-15.1595
饅	-15.1596
雰	-15.1597
裟	-15.1598
篳	-15.1599
婿	-15.16
謗	-15.1601
拒	-15.1602
貿	-15.1603
騒	-15.1604
袱	-15.1605
秩	-15.1606
嫡	-15.1607
娯	-15.1608
茨	-15.1609
抵	-15.161
揆	-15.1611
蛮	-15.1612
郵	-15.1613
倣	-15.1614
購	-15.1615
鍛	-15.1616
捉	-15.1617
竣	-15.1618
涯	-15.1619
宸	-15.162
檗	-15.1621
揮	-15.1622
悩	-15.1623
嫌	-15.1624
阜	-15.1625
績	-15.1626
捕	-15.1627
逃	-15.1628
械	-15.1629
嵯	-15.163
俳	-15.1631
礎	-15.1632
涅	-15.1633
批	-15.1634
稽	-15.1635
委	-15.1636
ぷ	-15.1637
企	-15.1638
溶	-15.1639
贈	-15.164
琶	-15.1641
琵	-15.1642
燥	-15.1643
締	-15.1644
舗	-15.1645
醐	-15.1646
較	-15.1647
噌	-15.1648
ァ	-15.1649
慣	-15.165
銚	-15.165
査	-15.1651
推	-15.1652
筅	-15.1652
粧	-15.1652
酵	-15.1653
ゃ	-15.1654
菩	-15.1655
祉	-15.1655
奘	-15.1655
贅	-15.1655
膚	-15.1655
ゅ	-15.1656
距	-15.1656
瞑	-15.1656
蕎	-15.1656
盂	-15.1656
ヰ	-15.1656
墳	-15.1657
嫉	-15.1657
ょ	-15.1658
循	-15.1658
